#version: 0.2 - Trained by `huggingface/tokenizers`
Ġ t
Ġ a
i n
h e
r e
Ġ s
o n
Ġt he
Ġ c
e r
Ġ o
a t
Ġ w
e n
Ġ p
e s
o r
a n
i t
Ġ f
Ġ b
Ġ in
Ġ m
in g
e d
a l
Ġa n
i s
a r
Ġ d
Ġt o
Ġo f
i c
Ġan d
i on
r o
Ġ h
a s
Ġ re
Ġ l
o u
Ġt h
Ġ e
en t
Ġ n
i l
â Ģ
o m
i d
u s
Ġ g
v e
c t
l e
Ġ -
e t
l y
Ġ- -
u r
u t
Ġs t
Ġf or
u n
Ġ on
Ġb e
s t
Ġ âĢ
i r
at ion
a y
c e
o l
i m
v er
a d
i g
o w
Ġth at
Ġw e
Ġ is
o t
c h
Ġ it
Ġ 2
Ġd e
Ġa s
m ent
il l
Ġ v
Ġp ro
Ġ y
Ġc on
er s
Ġc om
Ġ he
s e
Ġ r
it h
Ġ 1
a c
âĢ Ļ
Ġw ith
Ġw h
Ġa l
es t
a m
at e
t er
u l
or t
Ġs e
an d
Ġn e
Ġe x
i es
Ġm o
l d
u p
o p
t h
Ġ j
Ġa t
i f
Ġa re
es s
Ġc h
re s
q u
o s
g e
Ġ (
a ve
he r
Ġ2 0
a in
o c
e ct
Ġt r
e m
Ġ un
it y
Ġs a
k e
i ve
Ġb y
Ġs h
Ġc o
i al
u m
a b
ro m
t r
Ġo r
Ġ '
v id
Ġf rom
Ġcom p
a p
Ġh ave
ou n
t s
ĠâĢ ľ
p ort
ĠâĢ Ŀ
ig h
Ġh as
i v
Ġth is
Ġsa id
e l
en d
Ġw or
Ġin c
l o
e ar
u d
Ġy ou
Ġa d
Ġw as
Ġn ot
Ġm ar
re d
ar t
Ġa c
0 0
' s
Ġg o
Ġw ill
ion s
an t
ou ld
a ct
re n
Ġ us
Ġre s
Ġa b
Ġl e
om e
Ġ' '
us t
i e
Ġex p
in e
1 9
a v
Ġmo re
Ġs p
Ġ20 2
u b
Ġ k
as t
o d
Ġp l
Ġne w
u re
Ġ im
is t
k s
` `
Ġ ``
i p
al l
i b
Ġb ut
an y
Ġ $
at ed
i a
t her
Ġ 3
an s
Ġc an
Ġp r
ou t
k et
f f
a k
Ġ i
u g
ar d
Ġo ut
Ġthe y
Ġo ur
Ġco vid
Ġthe ir
ou r
Ġit s
Ġo p
u e
Ġ en
i z
ic h
Ġa p
Ġ qu
Ġal l
Ġa m
Ġcon t
Ġy ear
Ġd is
a re
Ġp er
a ge
a g
ation s
ic al
on g
d u
Ġin t
ir us
Ġm e
Ġ up
Ġw he
Ġp e
as e
Ġc l
Ġc or
c on
un d
Ġof f
Ġmar ket
Ġ Ġ
ill ion
Ġt e
igh t
ac k
an ce
d er
ic e
Ġre c
f or
Ġin d
b er
o re
ab le
Ġa g
s o
l l
o g
Ġwh ich
Ġm on
a il
Ġac c
Ġg ro
or s
Ġwor k
Ġbe en
op le
o k
Ġpe ople
Ġd o
Ġe m
id e
Ġwh o
Ġo ther
Ġf in
Ġs o
Ġa f
Ġth an
an c
ou s
Ġal so
Ġo ver
Ġ ro
ow n
Ġwe re
Ġab out
i ke
Ġin v
d ay
Ġap p
ment s
ar y
im e
al th
em ic
Ġ 5
for m
ig n
ay s
Ġ 4
a ce
ent s
Ġs up
i re
ver y
Ġp art
at es
Ġre port
it ies
Ġp re
Ġcom m
v en
Ġthe re
Ġim p
l ic
p t
Ġs c
Ġc r
Ġhe alth
or d
l ud
and emic
on av
Ġcomp any
il e
a ke
ve l
Ġ202 0
onav irus
Ġp res
Ġst r
Ġf ir
Ġc oun
Ġp andemic
al ly
ac c
Ġon e
u ch
Ġ u
ing s
Ġcor onavirus
it al
Ġl o
it ion
Ġn o
in ess
Ġb us
en ce
Ġ if
Ġs ome
Ġs er
Ġb r
Ġh ad
re e
e c
Ġa r
Ġl ike
ul t
Ġf e
du ct
oc k
Ġinc lud
Ġd r
Ġm illion
Ġh ow
Ġcon s
Ġbus iness
Ġaf ter
Ġv acc
ol d
Ġm an
Ġm ay
Ġinv est
en s
Ġw ould
l ow
Ġa ct
Ġin f
tr y
Ġre g
Ġp o
ver n
Ġad d
Ġp ol
ug h
Ġde c
Ġas s
Ġh is
ur ing
Ġst ate
Ġgo vern
Ġt ime
f e
it e
Ġin ter
Ġ 6
con om
Ġt w
Ġfir st
e p
Ġj o
Ġc as
on e
Ġp ub
as ed
Ġbe c
Ġr is
Ġe conom
Ġf r
Ġwhe n
i an
Ġs y
as s
ren t
a us
at ing
am e
ic es
id ent
u c
in es
o se
l i
ver s
Ġun der
Ġwe e
Ġwh at
Ġc ould
Ġthe se
en c
ation al
t e
le ct
Ġn ow
Ġwor ld
Ġne ed
lo b
er t
a ch
Ġc ap
Ġg et
Ġpro duct
Ġd at
Ġp os
ad e
Ġan y
Ġe ar
Ġg lob
Ġre m
Ġs he
ro p
Ġmon th
il ity
Ġyou r
u res
or y
Ġp h
r ic
Ġres p
re at
an g
al y
Ġ 7
u al
el l
ro ugh
Ġm in
Ġmo st
he d
ĠâĢ Ķ
res s
il d
Ġde m
i ous
Ġe ff
u es
Ġm ed
n ing
Ġinc re
Ġser v
ect ed
ol og
Ġint o
Ġdat a
Ġb o
Ġre t
c om
Ġtr ans
Ġb et
c ed
t ing
g h
Ġ end
it ed
if ic
Ġl a
re ad
in k
is s
Ġre p
Ġpro vid
Ġwh ile
Ġre l
Ġ ke
Ġte ch
Ġ &
= =
Ġj ust
Ġl ast
Ġop er
Ġthe m
Ġd uring
Ġgro w
Ġd es
Ġ 8
Ġt est
Ġm any
Ġ202 1
am p
Ġgovern ment
l p
c ess
Ġle ad
Ġglob al
00 0
Ġqu ar
er m
Ġst ud
Ġtw o
se ar
lo y
Ġfin anc
Ġcont in
Ġp at
Ġs ur
Ġth ose
ic k
n e
Ġhe lp
ou gh
in a
Ġ 0
Ġth rough
Ġb u
aus e
s s
Ġc ur
w e
vel op
Ġre sear
Ġse e
at ive
Ġe u
er ic
ar g
Ġh igh
Ġ 9
Ġa ut
Ġ1 0
er g
g r
Ġan aly
Ġb ack
Ġde velop
p loy
t ed
Ġc ol
Ġpub lic
is h
2 0
g an
is e
Ġan n
an ge
oun d
i o
Ġs ub
Ġse c
Ġs uch
Ġwe ll
w ard
Ġe v
ur n
Ġc ent
Ġwee k
Ġinclud ing
Ġb an
Ġd own
Ġs al
um p
i ed
ic s
Ġe ven
in ce
Ġd if
Ġag ain
f ore
Ġpro t
ie w
Ġn um
Ġg en
Ġon ly
on d
. .
Ġre st
at er
Ġfinanc ial
Ġf und
Ġtech n
Ġs ign
Ġquar ter
Ġam eric
Ġsup port
Ġgro up
w n
o st
in d
Ġind us
Ġs ch
Ġl ong
l es
Ġn et
l ine
Ġ20 1
ib le
Ġg r
Ġin st
Ġyear s
Ġcomp an
Ġhe r
c o
it s
Ġcas es
Ġk n
Ġcompan ies
Ġwhe re
Ġs m
Ġs oc
Ġacc ord
Ġd on
ro und
on s
Ġvacc ine
ire ct
er al
ro ss
Ġbec ause
Ġs ince
b s
Ġoff ic
ĠâĢ ĵ
st em
Ġch ina
Ġ [
Ġl ow
Ġbe fore
Ġ z
a red
v ed
Ġ ent
Ġ ]
Ġresear ch
Ġsup p
Ġre qu
Ġimp act
Ġv irus
Ġc ar
Ġe very
c r
Ġsh ould
x t
Ġ est
Ġpres ident
u ct
o od
Ġc all
Ġg u
Ġad v
Ġnew s
Ġb l
Ġm a
Ġin form
ent ial
Ġpro f
ak ing
Ġm ake
Ġde p
Ġsh are
Ġsh ow
in t
i ent
i or
j ect
Ġd irect
Ġaccord ing
Ġa ir
Ġ ed
iv es
) ,
f t
Ġf l
igh ts
Ġst ill
Ġco st
or k
at h
Ġb ot
Ġsy stem
Ġv al
Ġst ock
Ġin s
tr ies
' t
i vers
Ġc ust
c ent
Ġexp er
Ġst art
Ġus e
Ġp ar
n s
ic t
Ġpl an
Ġb illion
Ġs ays
Ġcoun try
Ġbe ing
Ġ1 9
Ġint e
and s
Ġpre v
olog y
Ġa v
f ul
Ġcust om
ers on
c es
b r
Ġp ay
Ġh ome
Ġf ol
ul ar
ul ts
i ents
ap p
c er
re st
m ed
Ġis s
Ġc are
Ġd ay
Ġcomm un
Ġat t
h ing
a z
Ġmonth s
Ġth ree
al s
Ġlo ok
il y
ul l
Ġa round
ie f
ut ion
Ġs et
Ġth ink
Ġem ploy
Ġt ake
a ir
Ġinter n
con d
Ġgrow th
Ġcur rent
Ġd et
o ol
Ġfor m
Ġris k
Ġnum ber
Ġf ore
rop e
Ġe qu
h ip
) .
Ġf act
Ġfol low
Ġan t
Ġtr ump
os p
Ġinform ation
Ġse cond
i x
Ġl os
Ġm uch
Ġcon f
Ġrec ent
Ġme as
Ġor gan
l ed
Ġf ut
Ġgo ing
d own
Ġapp ro
Ġs ay
Ġsal es
Ġm y
ur s
Ġ very
a x
Ġst ates
Ġeu rope
un e
enc y
Ġcon tr
Ġ20 19
Ġo wn
Ġmar ch
we en
Ġh ig
t t
ert ain
Ġbet ween
en e
ate g
Ġagain st
Ġ3 0
en g
Ġte am
Ġacc ess
Ġv ar
Ġeff ect
Ġd ue
it ive
Ġinf ect
Ġindus try
Ġeconom ic
Ġb ig
i od
Ġann oun
Ġac ross
Ġsoc ial
Ġw ay
ial s
Ġ1 2
m an
Ġto p
im ate
Ġrem ain
Ġban k
Ġdem and
i ence
Ġserv ices
ot her
le ase
Ġcoun tries
Ġre ad
an ts
is ion
Ġre f
Ġl oc
Ġper iod
a res
Ġs ol
Ġres ults
os ed
osp ital
Ġre al
Ġw ar
ou se
Ġdif fe
c l
t he
t al
er ing
Ġd ig
Ġn on
Ġbot h
Ġn ational
b ers
et s
Ġd id
Ġh ospital
m in
Ġgo od
Ġman age
Ġsec ur
l and
us s
Ġsch ool
Ġpl ay
p s
is ts
u ary
Ġne xt
Ġpol ic
re ak
Ġde f
e red
y ing
Ġkn ow
Ġm em
Ġe lect
Ġcr is
Ġim port
se l
v iew
Ġb ro
iz ed
Ġc re
Ġs en
Ġf ac
Ġle vel
Ġm ade
Ġper cent
Ġch ild
Ġexp ect
Ġde l
Ġh um
Ġbe l
t ion
Ġpart ic
Ġ ve
Ġre ce
p or
ver age
Ġaut h
Ġs im
Ġreport ed
Ġl if
p er
Ġt im
Ġre ven
Ġthe n
Ġfut ure
ar ge
== ==
Ġd ays
Ġc he
Ġ1 1
ar s
Ġw ant
Ġhe re
Ġm as
Ġ1 5
Ġ /
Ġop en
Ġpo st
gr am
v es
a ff
ut e
m s
Ġf ound
iv en
Ġcap ital
Ġto ld
iz ation
n er
Ġf ar
Ġp ot
Ġtr ave
p l
Ġinte rest
Ġadd ition
Ġprot ect
Ġt erm
t ions
et y
Ġsp ec
Ġtechn ology
Ġm et
Ġwork ers
Ġf ur
Ġcris is
ical ly
Ġma j
Ġp erson
oun t
Ġpat ients
g est
Ġp op
Ġa ff
Ġcons um
it ions
in ed
Ġl im
Ġto tal
iss ion
is ed
Ġdig ital
r on
i vid
it ing
ĠĠ ĠĠ
Ġe l
iz e
at ch
Ġstr ateg
Ġdis e
t y
Ġrec ord
w w
Ġf ed
Ġne ar
m ber
Ġpro gram
Ġtr ad
n ed
Ġf am
Ġsp read
g in
Ġc le
b le
Ġmaj or
Ġc e
Ġm ain
Ġf our
Ġf ace
e ver
Ġall ow
d s
Ġo b
s is
Ġeconom y
a w
Ġen g
Ġcont ro
Ġs ame
e x
Ġ1 3
o v
st r
Ġl ock
Ġch ange
read y
Ġr ight
l ing
Ġl ess
Ġde ath
y p
as on
Ġpro p
Ġun ited
Ġpres s
u ed
iv ing
Ġpot ential
at her
Ġcas h
Ġmanage ment
Ġch ang
Ġ es
Ġal ready
Ġauth or
Ġpro cess
Ġsupp ly
Ø §
Ġh ouse
ot e
Ġexp ected
Ġam ong
Ġ1 4
Ġs ou
ial ly
Ġcontin ue
it ical
Ġu k
Ġke ep
Ġdo es
Ġse ct
Ġex t
Ġmo d
Ġwork ing
Ġinvest ors
d a
Ġsh ares
Ġact iv
Ġstud y
Ã ©
Ġfor ward
Ġhum an
Ġp ow
Ġme et
ivers ity
Ġan other
Ġrec o
Ġlos s
Ġb id
oc us
end ing
ion al
Ġret urn
Ġp ut
k ed
Ġemploy e
Ġus ed
Ġmarket s
Ġv is
Ġfur ther
ort h
r i
Ġs it
Ġlike ly
Ġsh ort
Ġch all
b o
Ġem erg
ab ility
Ġsign ific
Ġincre ase
Ġpr ice
Ġex ec
Ġmeas ures
e y
oc ks
Ġj une
in ation
t en
Ġintern ational
n al
Ġtrave l
t le
Ġav ail
Ġhow ever
Ġc ity
Ġp a
Ġto day
r il
is hed
Ġla w
Ġcon d
Ġdiffe rent
Ġl ab
Ġdevelop ment
Ġpro ject
Ġhig her
Ġbusiness es
i red
is ter
Ġde b
Ġke y
Ġp ass
g et
r y
y ear
Ġc our
Ġm r
Ġh old
he s
ain ed
Ġb ene
Ġstr ong
n ess
ag es
Ġhe ad
Ġproduct s
Ġl arge
Ġanaly sis
Ġper form
a h
Ġp ort
k ing
is tr
Ġfe w
Ġcomp le
Ġf ull
m pt
Ġh al
Ġf ocus
Ġres ult
Ġsignific ant
Ġcon cer
Ġon line
Ġinc ome
Ġ/ /
Ġbene f
n es
Ġout b
as es
Ġc al
is m
lo ok
Ġr ate
Ġdis c
us tr
Ġinvest ment
Ġsm all
y s
Ġlock down
u ally
Ġpos s
ac y
Ġap ril
v ing
Ġbu ild
m e
t o
Ġg reat
Ġcustom ers
Ġpl ace
Ġbet ter
p r
Ġs l
er c
Ġb ar
Ġst re
Ġear ly
Ġfin d
' re
ren ce
or m
Ġchild ren
u ly
Ġpr iv
Ġb est
Ġwith out
Ġm at
m ar
ent ion
Ġb as
w ay
Ġar t
Ġw r
Ġe ach
Ġimport ant
Ġ1 8
Ġl at
j ust
ain s
ce pt
Ġinf l
Ġl ear
Ġstate ments
Ġmed ical
ut ions
Ġqu est
Ġp ast
Ġs u
at ory
Ġad min
Ġme an
Ġs w
Ġth ough
em ber
Ġr un
Ġt ax
Ġst ocks
Ġre du
Ġf ood
Ġim m
ro w
Ġexec ut
Ġimp ro
Ġf il
al e
Ġh op
Ġ1 00
Ġpolic y
c ast
Ġh ard
il ities
Ġde li
lo se
Ġval ue
r ap
oc i
t on
Ġannoun ced
u f
Ġserv ice
Ġproduct ion
av ing
Ġdise ase
Ġp ur
Ġbel ie
ul ation
Ġcontro l
Ġcom e
Ġt yp
Ġpr ices
Ġbid en
Ġdis tr
Ġmo ve
as ing
Ġpos itive
Ġreven ue
Ġt al
erg y
Ġavail able
Ġtim es
. ,
g o
n ings
Ġf ree
Ġprovid e
Ġr ights
port un
end ed
al ity
Ġ1 7
om et
Ġlead ers
Ġv ol
cr ib
Ġop portun
âĢ Ķ
Ġ2 5
id ay
Ġl i
g ress
Ġadd ed
i er
Ġm id
n a
Ġwee ks
tt ps
Ġrest ric
Ġle g
Ġgen er
ir d
Ġd ist
h old
Ġsub s
Ġm ight
Ġloc al
Ġy ork
Ġab le
Ġass oci
if ied
Ġ1 6
ar m
Ġsou th
Ġemploye es
Ġc lose
Ġjo h
r a
om s
Ġch ief
st and
Ġse ver
Ġj an
l ess
Ġ3 1
Ġb ased
Ġin it
el s
ie ld
Ġen v
Ġsecur ity
Ġo il
p h
Ġh and
iv ed
Ġh app
Ġst aff
Ġag ree
od y
Ġoff er
Ġh im
Ġcost s
en ing
Ġt arg
Ġde al
Ġlif e
at ic
Ġl it
Ġf all
Ġprev ious
Ù Ħ
ur al
Ġh ist
id er
Ġpl at
Ġl ist
Ġt reat
Ġr a
Ġpr ior
in s
b e
Ġcomm it
Ġup d
oc r
Ġad just
n ers
ir on
Ġse pt
Ġre ally
Ġs uc
Ġv ir
Ġret ail
Ġwhe ther
is ing
Ġoper ations
p ect
Ġun iversity
Ġvacc ines
a i
Ġen ergy
Ġpow er
Ġw om
1 0
r al
Ġoutb reak
Ġc red
Ġl ot
Ġle ast
Ġ Â
as h
ar ing
Ġun t
Ġcomp ared
Ġj uly
ak es
Ġincre ased
Ġus ing
Ġcomp et
Ġadmin istr
Ġsp e
Ġoffic ials
Ġst and
Ġn at
Ġeff ort
w ork
b ased
Ġwith in
Ġpl ans
ne w
Ġa ustr
Ġc amp
g ed
Ġw ed
Ġs our
li er
Ġvar i
Ġv iew
Ġ5 0
Ġ20 0
Ġtest ing
uf act
l ished
Ġplat form
Ġm or
Ġdr ug
Ġh it
Ġfed eral
in c
Ġbe h
at or
Ġm ult
ag ing
Ġoper ating
Ġse en
Ġman ufact
Ġdirect or
Ġj our
Ġfollow ing
Ġrep res
Ġf ive
Ġanaly st
Ġg re
Ġmon day
on se
Ġdif f
Ġear nings
Ġto o
p ed
Ġa verage
in ated
Ġmed ia
c are
Â ·
Ġg e
Ġc ase
Ġenv iron
Ġdes ign
Ġst ep
at ors
Ġr ates
c k
Ġ ident
um m
Ġsa f
it or
Ġcor por
Ġdem ocr
Ġameric a
Ġresp onse
Ġs k
s ide
Ġe t
Ġgu id
Ġinst it
Ġth ird
Ġest im
amp le
Ġs ing
Ġb i
Ġlow er
at s
Ġmon ey
Ġ q
Ġsever al
Ġy et
Ġl arg
Ġb or
Ġprof ess
Ġchall eng
5 0
Ġameric an
Ġbu y
ues day
Ġac qu
Ġreg ul
Ġaustr al
Ġother s
Ġt uesday
Ġm aking
Ġc ut
ad a
Ġs ug
Ġv ide
Ġunt il
i um
Ġh ttps
Ġst ay
Ġv i
ain ing
Ġg iven
Ġp lease
Ġ2 4
Ġde ce
Ġstate ment
c c
u ation
Ġt ren
Ġbec ome
Ġth ings
urs day
Ġgen eral
Ġpro du
Ġth ursday
Ġc y
Ġl et
ib ut
Ġpo in
ive ly
r up
Ġsept ember
Ġrel ated
ĠâĢ ĺ
ol l
end s
Ġhal f
ter m
Ġinclud e
ac ks
Ġsuc cess
Ġe as
a im
Ġw atch
Ġm ater
Ġaf ric
Ġun c
Ġev ents
her s
l er
Ġdep art
Ġt able
Ġne g
en se
Ġsa fe
Ġexecut ive
Ġen s
Ġind ivid
d e
Ġresp ons
Ġmem bers
Ġc ertain
3 0
Ġcont act
Ġsy mpt
Ġst e
he ad
Ġpo int
Ġs omet
Ġenviron ment
Ġdece mber
Ġaddition al
Ġem ail
Ġcommun ity
Ġrestric tions
Ġoff ice
Ġt em
ail y
nes day
Ġwed nesday
Ġtr ade
Ġcl in
Ġposs ible
Ġs ix
Ġreco very
Ġcle ar
Ġre le
Ġm ust
Ġpartic ular
Ġm il
Ġcontr act
Ġear lier
Ġpro m
Ġindivid ual
Ġ @
Ġpro ble
Ġmin ister
Ġend ed
Ġdes p
er r
i enc
% .
Ġtarg et
ines e
Ġeurope an
Ġperform ance
Ġ2 1
ap an
Ġm us
Ġexp l
Ġw in
le ment
Ġiss ues
Ġa ug
Ġnear ly
Ġdec l
Ġt urn
Ġexper ience
br uary
Ġl ive
sel f
Ġh our
Ġc op
g er
Ġpart ners
ate ly
Ġcont ent
Ġ ur
% ,
p ing
Ġch inese
ac es
Ġapp lic
Ġg old
Ġterm s
Ġfr iday
ot s
ag ed
am es
Ġpol ice
Ġcon n
Ġd aily
Ġd om
Ġfe bruary
w are
Ġqu ick
Ġsystem s
Ġsaf ety
Ġse g
Ġed uc
Ġg as
Ġor der
en ed
Ġf ig
Ġwh y
fe rence
.. .
Ġre lease
Ġjour nal
Ġfund s
Ġh aving
s h
Ġlat est
Ġdesp ite
Ġpres ent
og le
Ġjan uary
re l
if y
Ġmas ks
ib ility
Ġconf ir
Ġcred it
Ġris ks
Ġlim ited
Ġd a
Ġj apan
ab ly
Ġn orm
Ġde v
Ġcond itions
Ġsug gest
Ġc aus
Ġlook ing
Ġadministr ation
Ġsur ve
Ġwom en
Ġrepres ent
i k
Ġs an
Ġjo b
Ġdec ision
if t
Ġdeath s
Ġc n
u red
Ġse ll
Ġbro ad
il ar
er v
Ġsect or
p ec
Ġ +
Ġcom b
Ġres our
Ġpre p
==== ====
ur y
o ve
Ġm ic
Ġprof it
or n
Ġcom ing
Ġce o
Ġass ets
Ġlead ing
Ġcl os
Ġre op
Ġadd ress
uct ure
o ot
Ġ2 3
Ġpr act
Ġdisc uss
Ġev ent
Ġlevel s
m ost
Ġd rop
Ġreport ing
ne y
Ġreg ion
anc ing
Ġs us
Ġb lo
Ġlit tle
Ġw al
Ġn orth
Ġpub lished
Ġvide o
Ġchang es
Ġfe el
Ġre view
Ġform er
Ġl ater
Ġ *
Ġfam ily
Ġbe gin
Ġse ason
Ġla un
Ġ )
look ing
Ġsympt oms
Ġunder stand
Ġrequ ire
Ġhe d
anc es
Ġneed s
Ġcol lect
on es
om m
Ġprot est
Ġa head
Ġsim ilar
c al
Ġb ill
Ġjo bs
Ġ2 2
Ġ5 00
Ġv ot
Ġd ou
Ġwh ite
Ġdeb t
Ġ4 0
Ġbo ard
ic ult
Ġs low
Ġe p
Ġsh op
Ġl ink
act ion
Ġt aking
Ġn ation
Ġ2 8
Ġ202 2
Ġs ust
Ġg erm
Ġr uss
Ġpriv ate
w h
Ġbr it
Ġincre asing
c hed
Ġcall ed
Ġaut om
Ġdiff icult
or ies
Ġind ia
Ġcl aim
Ġpos ition
Ġfore cast
o res
Ġw est
Ġw on
Ġcol l
c ing
Ġ ill
Ġph ot
Ġg ot
2 1
th ing
Ġs umm
Ġcl ass
Ġto get
Ġunc ertain
Ġqu e
ĠĠ Ġ
Ġtoget her
Ġreport s
iv al
ol s
Ġget ting
Ġch ain
Ġor ig
Ġcustom er
Ġy oun
Ġh ar
Ġcurrent ly
Ġpr im
Ġcent ral
i ans
Ġl ine
b it
t a
Ġdepart ment
Ġhealth care
h ic
m ic
n ov
m on
Ġp ack
Ġb al
Ġpol itical
Ġpoin ts
s c
Ġ ide
Ġt re
Ġd oll
ve re
Ġal ong
w ide
Ù Ĭ
os es
Ġh ol
Ġann ual
he n
w ays
Ġm om
an k
Ġr ul
ub lic
un g
he st
Ġbelie ve
Ġe ver
Ġm ill
re t
g n
Ġre v
Ġf ail
Ġbl ack
Ġof ten
r is
ak en
Ġl ives
Ġpur ch
Ġm ass
Ġadjust ed
Ġr ap
Ġpartic ip
Ġimpro ve
ar ily
Ġcomm on
Ġmeet ing
it ter
Ġex ample
Ġon ce
Ġ2 7
f ol
Ġ ir
Ġst at
Ġd ate
Ġspec ial
a ur
âĢ ĵ
p ro
in ing
Ġch ar
Ġinfect ion
Ġo ld
an n
Ġfact ors
Ġjoh ns
Ġstud ents
Ġinter view
Ġf re
uc k
o f
Ġc a
em s
Ġl ed
Ġar r
Ġequ ity
Ġresp ond
Ġcamp a
Ġhed ge
le t
Ġst op
Ġlarg est
Ġconsum er
Ġab ility
Ġag o
Ġs und
u el
Ġcl imate
Ġmo der
% )
uct ion
Ġinv ol
qu e
Ġf is
Ġme ans
Ġameric ans
Ġare as
Ġdo ing
Ġemerg ency
Ġcampa ign
c y
Ġex c
Ġro se
Ġp red
Ġsen ior
Ġmed ic
in al
Ġbr ing
Ġal most
Ġne ver
Ġdeli ver
Ġris e
b y
Ġbo ost
Ġorgan ization
Ġresp ect
Ġpop ulation
end er
Ġgrow ing
Ġ x
Ġtr ack
o id
port s
Ġsomet hing
m it
Ġin nov
ess ential
Ġdet ail
Ġinfect ions
Ġtreat ment
Ġorgan iz
Ġacc ount
Ġsc ient
Ġsol utions
Ġens ure
ter n
Ġrequ ired
Ġes pec
p le
Ġs ent
Ġh y
Ġam id
Ġstrateg y
Ġind ic
Ġhour s
Ġcom es
Ġlab or
Ġtrad ing
Ġquest ion
Ġeffort s
Ġtest ed
Ġrecent ly
le y
Ġcom ment
Ġg ive
Ġcr it
Ġvir t
Ġact ion
Ġth reat
l f
Ġl ate
ard s
Ġchalleng es
Ġcent er
Ġvis it
g en
Ġto ward
Ġth ous
Ġf low
Ġclin ical
Ġex ist
Ġd i
Ġfir m
Ġrep ublic
Ġb re
Ġfe at
Ġcap ac
Ġrel ations
t ime
Ġperson al
Ġa way
Ġh om
Ġespec ially
Ġsh ip
Ġp us
Ġre d
Ġcons ider
Ġind ex
Ġte le
b c
Ġc ell
Ġp et
Ġsund ay
2 5
Ġ2 6
Ġcl osed
ad es
Ġf ul
Ġacc oun
Ġor d
Ġhop e
Ġbig gest
Ġo cc
Ġrest aur
Ġresour ces
Ġn as
Ġs at
p ar
Ġto ok
Ġsh ut
Ġref lect
Ġacqu is
Ø§ ÙĦ
Ġstre et
Ġpro v
Ġaug ust
Ġport fol
Ġto ur
id es
um e
Ġneed ed
Ġprev ent
Ġconn ect
u ment
Ġwe bs
ug g
Ġauthor ities
Ġsp ace
Ġresear c
Ġ2 9
Ġhe ld
1 6
r as
Ġbenef its
Ġag ency
Ġmic ro
ww w
on t
Ġc it
Ġprovid es
Ġc ame
co v
Ġexper ts
Ġbo ok
Ġv ent
a f
Ġsecur ities
Ġschool s
Ġas ia
hold ers
ch ie
Ġt aken
u ge
v al
imate ly
Ġn ame
Ġres er
Ġ Ø
Ġs ars
th ough
bo ok
Ġab ove
Ġconcer ns
Ġex ch
Ġro b
Ġph ys
Ġnum bers
d o
Ġa ud
ab ilities
Ġvari ant
Ġ %
Ġ ver
ak ers
Ġen c
Ġcontin ued
Ġa i
Ġfore ign
1 2
or g
Ġequ ip
ou d
Ġnot e
er n
Ġpart y
Ġsust ain
Ġcapac ity
Ġban ks
m ission
Ġgo ogle
Ġopportun ities
Ġfam il
Ġnorm al
Ġso ft
Ġaustral ia
Ġcon ference
Ġappro ach
Ġmod el
Ġro le
Ġle ft
Ġpre m
Ã ³
Ġse vere
Ġrece ived
l ines
Ġd oc
Ġout side
Ġso on
Ġre n
Ġart ic
ud e
Ġal though
ap er
Ġrec omm
Ġkn own
Ġen ough
em ploy
Ġjohns on
Ġsit uation
Ã ¡
Ġno ve
Ġa chie
Ġrap id
Ġh ot
Ġm ess
Ġinclud ed
Ġstart ed
Ġinte gr
Ġeffect ive
Ġf ell
Ġconsum ers
Ġnet work
Ġquick ly
he re
med i
id ents
r s
Ġf ear
Ù ħ
Ġsour ce
ic ip
Ġbe low
Ġadv is
for ce
Ġafric a
Ġapp ear
Ġ201 8
Ġelect ion
Ġm iss
Ġexp ens
Ġre ach
Ġvi ol
Ġp ers
Ġcr itical
Ġnove mber
Ġvacc ination
Ġar g
Ġcomm ission
Ġtest s
s w
Ġsch ol
Ġde ep
Ġprovid ed
Ġeduc ation
Ġinclud es
Ġcre ate
Ġs ure
Ġl og
Ġk ind
Ġd ivid
Ġsp ending
Ġoffic er
Ġtechn olog
Ġbe gan
Ġcan ada
Ġam az
Ġf un
Ã Ń
is ions
Ġo ct
Ġb reak
Ġat tr
le x
Ġfin ance
Ġremain s
Ġd one
ib ution
Ġass ess
Ġcol le
Ġmain t
Ġb it
Ġrequ est
Ġsurve y
Ġch o
o ff
Ġcal if
1 5
Ġexper ienc
Ġmom ent
Ġhist or
i j
Ġtr ust
i ation
Ġw a
Ġreg ard
Ġprop ert
Ġcour se
Ġfis cal
Ġf ast
Ġcorpor ate
Ġcomm erc
ell ig
at ives
Ġop t
Ġbas is
Ġmanufact uring
Ġtr ial
Ġinfl ation
Ġlong er
Ġf ight
Ġrem ote
it her
ap s
Ġeff ic
Ġtrans port
Ġcommun ic
Ġactiv ity
Ġseg ment
ras tr
Ġiss ue
Ġ vers
Ġas ked
Ġmar gin
Ġimp lement
Ġ6 0
Ġparticular ly
Ġexp and
Ġinf rastr
Ġ essential
s et
Ġw ays
Ġun l
Ġguid ance
Ġser ies
ce ed
Ġimm un
Ġover all
Ġman ag
Ġfin al
ep end
Ġyoun g
Ġne cess
Ġrece ive
Ġh ost
og n
Ġlear ning
Ġw ind
Ġe vid
Ġint ellig
sel ves
Ġevery one
ly ing
Ġlo st
ap e
ĠâĢĿ .
Ġmo b
Ġ19 9
Ġactiv ities
ip le
Ġgroup s
Ġsay ing
Ġportfol io
Ġal ways
Ġexch ange
Ġdis rup
Ġph arm
Ġplay ers
Ġresearc hers
Ġwebs ite
Ġ ut
Ġant ib
Ġtren ds
h an
Ġshow ed
Ġthe rap
Ġhig hest
Ġdist ancing
Ġent er
Ġinfrastr ucture
Ġr at
Ġcommerc ial
Ġt ur
Ġac ce
Ġpro gress
Ġwas hing
Ġshow s
Ġredu ce
ir c
Ġinvest ig
Ġun employ
Ġre ason
og rap
Ġch air
te ch
Ġrul es
Ġ |
p m
Ġsu ff
4 0
Ġcour t
d en
Ġconfir med
r ist
ve red
Ġr ange
Ġfund ing
iz er
Ġsa w
Ġpr ime
Ġsus p
8 8
Ġw ater
Ġb at
am s
Ġfr i
Ġdo ct
Ġtr ying
Ġm akes
Ġinit i
Ġcommun ities
Ġrec ogn
Ġacce ler
Ġa im
r ing
Ġgovern ments
Ġcomple te
Ġst ar
Ġcan ce
Ġam ount
m er
2 7
Ġgre en
ig r
Ġcalif orn
Ġris ing
Ġneg ative
Ġequip ment
Ġschol ar
al d
Ġvacc inated
Ġagree ment
Ġsing le
Ã §
ut ers
l a
Ġfr ance
Ġtyp e
t ers
Ġstr ugg
Ġav oid
Ġ Ø§ÙĦ
re me
Ġst ores
Ġopportun ity
ic o
d r
ro te
Ġb ond
Ġro ll
Ġs old
Ġestim ates
Ġr ather
anc ed
1 1
Ġex tr
Ġl l
Ġa ge
Ġk ill
mic ron
Ġm and
iz ing
o ber
Ġd am
ol id
Ġsubs crib
Ġare a
Ġo micron
Ġdid n
an e
Ġdec re
j o
Ġg l
Ġlo ans
Ġoffic ial
ur ance
ad o
go ing
Ġthous ands
g a
Ġcon str
Ġj e
Ġcaliforn ia
ver se
ak er
Ġind epend
Ġass ist
Ġnat ural
Ġinvest ments
i ety
us e
e ad
Ġbuild ing
Ġ er
Ġstud ies
Ġl and
Ġse lf
Ġoct ober
Ġt ell
ent ly
u ing
Ġpro b
y n
Ġdoes n
Ġmas k
Ġc and
Ġw rote
Ġc irc
Ġaff ect
Ġvirt ual
p e
Ġcn n
i os
Ġd en
Ġhospital s
Ġloss es
Ġhist ory
Ġfr ont
Ġdet erm
Ġprevious ly
l ish
Ġevid ence
Ġn y
Ġv ict
Ġquar ant
2 6
c he
is es
Ġph ase
Ġr ac
Ġexp ress
p os
Ġcon duct
Ġcl oud
cr ip
Ġg m
ren g
Ġassoci ated
Ġw ide
Ġinst ead
Ġth ing
Ġbe y
p a
k n
Ġe bit
Ġtw itter
Ġbeh ind
1 8
se c
Ġlead er
Ġent ire
Ġexpect ations
Ġm it
Ġorganiz ations
ab or
Ġannoun ce
Ġs ide
as ter
Ġful ly
1 7
Ġinf ected
Ġcaus ed
Ġst reng
Ġpress ure
Ġf air
ber g
Ġa id
Ġpop ular
Ġquest ions
Ġruss ia
Ġbr and
Ġpolic ies
Ġinfl u
Ġacquis ition
Ġproble m
Ġunemploy ment
i res
Ġcons olid
is on
Ġpro s
2 4
Ù Ĩ
c il
Ġim medi
Ġbey ond
Ġun ion
Ġl ack
ess ion
Ġ #
Ġcont ain
Ġc ities
ist ics
Ġqu ality
Ġanalyst s
b ack
m ing
mar ket
Ġsur ge
Ġfour th
g ing
Ġteam s
Ġmor ning
Ġsc ience
ond on
Ġcon st
Ġf oot
Ġcontin ues
Ġche ck
d le
Ġant i
Ġintellig ence
p re
Ġb en
Ġoff ering
Ġeu ro
Ġreven ues
ibut ed
ot t
Ġcit iz
ro ll
Ġre b
o ks
Ù Ī
Ġlo an
Ġeffect s
m b
Ġprotect ion
Ġwashing ton
4 3
.. ..
Ġbenef it
Ġsuccess ful
Ġs ite
Ġsoft ware
1 3
um b
Ġmill ions
f er
Ġdeli very
Ġad op
Ġmar k
Ġpay ments
Ġo bs
Ġw all
ĠĠĠĠ ĠĠĠĠ
o ver
Ġrel ative
Ġf a
Ġsec ret
o b
Ġf el
Ġdes crib
Ġdom est
Ġc ult
Ġsm art
Ġrele ased
Ġp ick
Ġ â
Ġv ia
se qu
rel ated
im ent
Ġout look
Ġser ious
ar k
ĠâĢ ¢
Ġartic le
Ġl ight
ver t
Ġface book
Ġt en
ut es
Ġst ore
Ġgerm any
Ġcand id
Ã £
Ġindividual s
Ġus ers
Ġenc our
Ġs ize
7 0
Ġres idents
Ġm en
Ġant icip
Ġtechnolog ies
Ġab s
Ġopt im
Ġl ib
Ġc ause
Ġb ud
Ġbr ands
Ġprovid ing
Ġch rist
Ġfamil ies
Ġf av
Ġexist ing
Ġb ase
Ġd oses
Ġt err
Ġl ondon
Ġupd ate
Ġh ous
Ġexpens es
qu id
Ġcommit te
Ġphot os
Ġmult iple
re c
Ġm ot
Ġro ad
Ġproject s
ip s
Ġpat h
Ġm is
Ġve hic
Ġc ou
Ġamaz on
Ã£ o
8 0
Ġair lines
Ġsc re
da q
m a
Ġb ur
Ġex ter
Ġmeas ure
Ġlear n
1 4
Ġd ia
Ġst im
Ġdec line
l s
o red
Ġn ight
Ġd iv
Ġact ually
iss ions
Ġlim it
w or
Ġse lect
Ġ3 6
Ġpat ient
Ġhigh l
Ġnas daq
w a
Ġvar ious
Ġgreat er
c ome
ac hed
Ġm ort
Ġl iving
x y
em pt
Ġ201 7
Ġis n
ac ed
Ġp f
ag ue
Ġadd ing
Ġp s
ĠâĢĿ ,
Ġdr ive
Ġsub ject
h ol
Ġw ent
Ġsp ok
Ġwr it
Ġdoll ar
Ġco ver
p o
r ain
Ġdomest ic
ir ing
Ġappro x
t ies
Ġass et
ist ic
Ġ ,
Ġsumm er
Ġe c
Ġthem selves
Ġk ore
Ġbl ock
ct ion
Ġv ul
Ġpol it
Ġmat ter
Ġrespons ible
2 3
Ġexter nal
Ġtrans form
Ġb ad
Ġg ame
Ġy ield
Ġstim ul
Ġest ab
Ġevery thing
Ġse ven
Ġun d
Ġdevelop ed
Ġallow ed
ren cy
Ġph il
Ø§ Ø
am a
Ġcon gress
id a
Ġcommitte e
k y
is ation
Ġint ro
Ġfig ure
Ġvul ner
b an
Ġs n
im in
ar ies
Ġfor ce
Ġeng land
ab les
Ġtem por
os s
f ect
Ġe ither
Ġcon vers
Ġep id
duct ion
Ġbec om
ĠÂ ©
Ġs il
Ġp an
en ge
Ġg ames
Ġsee ing
Ġaff ected
i que
ific ation
Ġmem ber
Ġon going
ent ed
Ġ3 5
Ġleg al
Ġ8 0
Ġcoll abor
Ġ .
f ort
Ġdem on
Ġindus tries
7 5
p ut
ĠÂ £
er o
Ġre uters
Ġn urs
Ġr ace
Ġbal ance
on y
Ġsc he
cl us
r ied
Ġh ong
Ġregul atory
Ġsy n
Ġapprox imately
p erson
Ġte x
re g
Ġspec ific
Ġcle an
os ure
Ġmon itor
Ġindus tr
Ġli quid
wh ile
Ġk ong
2 9
âĢ ¦
lo ad
Ġproble ms
a u
Ġst ory
Ġinvest or
3 5
d c
Ġp en
Ġco re
Ġmid dle
Ġdemon str
Ġch arg
Ġh uge
Ġcap tion
Ġtrad ition
Ġpa id
Ġfocus ed
id s
Ġ7 0
Ġco verage
Ġchall enge
Ġdistr ibution
Ġpf izer
is try
Ġins ights
Ġm ag
as ts
Ġtrans mission
Ġebit da
Ġsen se
Ġide a
Ġn or
h a
h od
Ġex cept
y r
Ġprogram s
Ġhom es
ij ing
Ġcomp ar
Ġg ain
Ġfl u
m p
Ġcitiz ens
Ġwe b
Ġ'' ,
Ġm ac
Ġpercent age
Ġestim ated
Ġdia gn
Ġs ens
Ġiss ued
c ul
am b
Ġclaim s
Ġm al
Ġm ich
at ure
Ġf lo
hip s
Ġwe ar
Ġv ice
w here
4 4
a ks
Ġw orth
Ġinstit ute
Ġprofess or
p ly
he ns
Ġc ross
a ment
Ġtr y
ke y
c hes
Ġh ide
le g
e e
Ġde ad
Ġsc op
Ġeng ine
2 2
l ies
Ġse par
Ġfac ilities
Ġpropert y
Ġmo ving
Ġnot ed
Ġexp lo
li ed
Ġins urance
Ġbeh av
Ġfir ms
Ġdoc ument
a ud
Ġmajor ity
Ġmanufact ure
Ġtren d
Ġsit es
Ġbrit ish
Ġm ent
Ġwho le
id ence
od ies
Ġspok es
h ood
Ġbe ijing
Ġapp e
Ġredu ced
Ġapplic ation
l in
Ĥ ¬
Ġev al
b or
Ġar ch
Ġreg ional
Ġmater ial
Ġto ols
am m
am ed
Ġse em
Ġbr az
Ġthough t
Ġac cept
Ġel se
Ġpar ts
Ġ9 0
Ġrestaur ants
Ġupd ated
Ġcent ers
Ġj ump
Ġc iv
Ġjoh n
Ġsh ar
Ġexp ert
Ġoff ers
======== ========
Ġcons ult
Ġstart ing
u k
Ġquarant ine
Ġf uel
an i
Ġwor ks
Ġsub st
Ġm c
ag r
Ġstrateg ic
so ft
Ġdec isions
Ġt ender
Ġindustr ial
act ions
ub s
Ġsat ur
er ation
Ġed iting
il t
Ġtr ials
Ġle ave
Ġd ied
Ġsc en
Ġgro und
Ġp ain
pl ace
Ġpros pect
he l
Ġtr aining
Ġinit ial
Ġdou b
Ġmean ing
ren ts
Ġcl ients
Ġ201 6
Ġdel ay
h i
Ġbegin ning
Ġstimul us
Ġc ard
Ġfor ced
Ġass um
Ġbec ame
Ġthrough out
Ġrep l
Ġw ave
Ġe ast
a ut
h s
Ġwho se
Ġc at
Ġdevelop ing
Ġdemocr atic
Ġd er
Ġhe art
Ġworld wide
Ġprob ably
Ġsh ift
pr ise
Ġg ains
Ġit aly
Ġdon ald
Ġshare holders
Ġorig in
Ġpr inc
Ġ201 2
Ġsecret ary
re w
9 9
Ġh ur
a ft
im es
Ġpre c
Ġsignificant ly
Ġop tions
Ġsatur day
Ġl t
6 0
Ġrel ief
b ody
Ġcan ad
Ġlaun ch
er y
2 8
Ġtex as
4 5
Ġcre ated
mar k
Ġmean while
iv ity
Ġhelp ing
Ġimm une
ac ing
Ġhigh ly
Ġsal e
Ġleaders hip
b on
am ing
ap t
el ines
Ġro und
id ed
Ġextr a
Ġelect ric
is l
Ġre ve
Ġexc lud
Ġaf p
Ġdirect ly
3 3
Ġm ach
Ġit ems
Ġr ad
20 20
Ġmil it
Ġn ine
Ġown ers
new s
Ġcon v
Ġsp ot
Ġhelp ed
Ġemerg ing
mit ted
Ġdetail s
ac ific
Ġexpect s
Ġch ann
Ġpl ant
Ġnot es
ens ive
Ġregard ing
Ġbraz il
re hens
Ġd est
Ġj ud
for d
Ġpur p
Ġgm t
e qu
Ġsoc iety
Ġmet hod
Ġp aper
Ġord ers
Ġan sw
Ġpass eng
Ġconsolid ated
es e
Ġsup er
us ed
Ġv s
Ġny se
m akers
Ġwe l
Ġme x
Ġindepend ent
Ġb ody
Ġfac ility
Ġcrit ic
v ant
Ġsc ale
Ġassoci ation
Ġrun ning
n et
ill s
Ġbr ief
Ġjo e
Ġpotential ly
Ġs ick
Ġv ote
Ġex erc
ren ch
du ced
b n
Ġsur v
Ġsour ces
el ine
Ġop in
l ig
in ks
Ġmarket ing
Ġpart ner
as ons
Ġn ations
Ġno vel
Ġn av
Ġdis cl
rough t
ens ion
Ġachie ve
Ġdise ases
Ġnecess ary
Ġatt ack
Ġnat ure
Ġg ather
Ġinst r
h ib
ill ing
Ġblo od
Ø ±
anc y
Ġcons ist
Ġresp ir
Ġphys ical
Ġst age
Ġcomp rehens
Ġreg ular
Ġcompet itive
Ġeas y
Ġchair man
Ġp ict
Ġwork ed
Ġpos itions
Ġmin im
ren ces
Ġplan ning
Ġd ie
Ġg a
Ġintern et
Ġleg isl
ide red
Ġgood s
Ġe y
Ġpa rents
Ġdesign ed
Ġciv il
Ġf da
Ġadv ice
if f
und red
Ġcons idered
h y
Ġexp ense
Ġscient ists
Ġwar ned
Ġreop en
Ġuncertain ty
6 5
Ġwor st
Ġev ol
Ġcall s
Ġhe av
Ġs qu
Ġconcer n
Ġdemocr ats
Ġmicro soft
Ġl ic
Ġapp le
Ġ ic
Ġis ol
Ġ3 3
Ġch ance
Ġ3 8
Ġext reme
Ġhapp en
Ġse x
Ġmin istry
Ġce le
Ġchang ed
Ġse at
Ġdr iven
Ġprovid ers
Ġh undred
Ġsome one
Ġda vid
Ġgo al
Ġsc hed
Ġrecord ed
Ġpriv acy
Ġident ify
Ġenvironment al
Ġsched ul
c le
al ed
Ġcor p
Ġpol l
Ġfig ures
e k
Ġcon c
Ġlarge ly
Ġpred ict
Ġcomprehens ive
Ġâ Ĥ¬
Ġcele br
Ġk ing
Ġlaw s
u it
Ġh ands
un t
Ġpurch ase
Ġs ports
Ġit self
Ġbor der
g es
ar a
ough t
j ected
an a
con t
Ġhouse hold
Ġinnov ation
Ġc ateg
ut ical
Ġv o
Ġprim arily
Ġe le
Ġsp end
Ġcr ude
Ġplan ned
b ed
in o
Ġocc ur
Ġ3 9
li ance
Ġaccoun ts
Ġsol ution
4 9
Ġhous ing
Ġf ire
pt ion
Ġact ions
Ġprim ary
Ġlockdown s
Ġstrateg ies
Ġtoward s
Ġt ro
Ġn ort
Ġuk rain
Ġreser ve
Ġwind ow
Ġ5 5
Ġcoun ty
b all
Ġkore a
Ġdo se
Ġ4 5
ace utical
Ġinfect ious
Ġstand ard
Ġlaun ched
Ġc dc
Ġen h
i ant
Ġar m
Ġra ised
Ġco ok
Ġsubs id
Ġident ified
led ge
Ġspe ed
Ġrequire ments
u ments
Ġdel ta
Ġreop ening
Ġtre as
y al
Ġjo in
enc ies
Ġi i
Ġrecomm end
z e
oun der
c ape
Ġparticip ants
Ġf rench
ist ered
Ã³ n
Ġscen ar
o x
Ġf it
Ġmod els
Ġlo ve
Ġappro ved
Ġdet ect
Ġreco ver
Ġviol ence
Ġf ield
Ġpro te
4 6
Ġact ual
Ġal tern
Ġcr u
Ġbrit ain
Ġmanag er
Ġre ached
Ġne igh
Ġconstr uction
Ġst ress
act er
Ġcomple x
Ġgener ally
Ġsc r
Ġgr ad
Ġvol ume
Ġed itor
Ġvulner able
w ise
Ġan ge
Ġem p
Ġany thing
Ġa ward
Ġb rought
Ġwe ak
Ġph one
Ġcons id
Ġd ip
Ġde ploy
Ġsect ors
ar ch
ic ians
Ġun pre
Ġpl aces
Ġmob ile
qu ar
Ġ7 5
Ġappro val
Ġpay ment
Ġstep s
Ġdis co
Ġest imate
Ġbot t
per form
Ġm ission
Ġas k
enc es
Ġafric an
mon th
Ġunl ike
Ġle ague
Ġfeat ures
Ġan im
Ġd ow
Ġma x
. )
Ġprotest s
h ome
Ġlink ed
Ġtem per
olog ical
Ġmedic ine
Ġprinc ip
u ff
7 7
Ġr an
Ġam b
Ġfound ation
Ġinvol ved
u x
Ġf lex
Ġgr ant
Ġill ness
Ġbud get
Ġm er
Ġe ight
ian ts
Ġrepublic an
co vid
8 5
Ġdecl ined
Ġannounce ment
er ous
Ġtr illion
Ġcorpor ation
Ġte ac
Ġbu ilt
Ġt as
ced ented
Ġmilit ary
9 5
ful ly
Ġsen ate
Ġmaint ain
c or
Ġold er
Ġdivid end
Ġm s
ic ing
Ġcan cer
Ġprop os
Ġcell s
Ġgro ss
Ġdef in
Ġtradition al
Ġment al
Ġc u
op h
Ġun s
Ġqu al
Ġinv ent
Ġunpre cedented
3 6
Ġweek end
Ġsh ot
Ġadv ant
Ġhold ing
Ġmess age
Ġc row
ut ed
Ġcond ition
Ġbor row
Ġt akes
Ġm igr
Ġst ake
if e
all ed
Ġmin d
Ġdoct ors
Ġdescrib ed
Ġh on
2 00
Ġtr aff
Ġtal k
Ġmater ials
Ġgovern or
Ġfac ing
le ar
Ġad ults
Ġcl ick
Ġtrans action
Ġair port
9 0
h ouse
Ġany one
Ġt it
Ġen jo
Ġact ive
Ġwant ed
Ġob lig
c asts
Ġwe aring
Ġdec ades
Ġdrug s
Ġun it
Ġfav or
Ġliquid ity
Ġr ich
av en
Ġm ix
Ġapplic ations
Ġcanad ian
Ġres il
Ġthan ks
Ġread y
Ġhol iday
y l
Ġpract ices
Ġre asons
Ġse ems
Ġro ugh
u le
Ġl ands
Ġag re
Ġstand ards
Ġguid elines
p on
Ġcom ments
Ġcoun cil
Ġcent re
Ġsp ent
Ġcop yr
Ġsustain able
a el
Ġl ines
Ġfl or
ot i
Ġy es
Ġno v
Ġfri ends
Ø ª
Ġs un
Ġs ort
Ġh o
Ġinvest ing
Ġdoll ars
4 7
Ġatt ention
Ġtal ks
Ġdam age
f l
Ġc am
Ġch ains
ag o
Ġsupp lies
Ġprep ared
Ġlt d
h o
Ġb ull
Ġfil m
Ġ Ã
Ġrespir atory
Ġpro ceed
Ġsh own
Ġ6 5
Ġsec ure
Ġfil ed
Ġsell ing
Ġcopyr ight
Ġfollow ed
Ġcal cul
Ġretail ers
o ke
z er
ber t
Ġrespect ively
Ġup on
Ġfl ights
Ġprem ium
Ġcomp ut
amp les
Ġanaly t
ga ap
Ġhold ings
Ġst ories
Ġtr ue
Ġprofess ion
Ġaustral ian
Ġd iversity
i at
Ġto m
Ġap art
Ġadv anced
âĢ ¢
Ġcre ating
crip tion
3 7
Ġp od
ad or
Ġjust ice
Ġre con
Ġexp osure
Ġpack age
Ġcl im
Ġpharm aceutical
it es
Ġch amp
Ġop tion
Ġqu ite
Ġcontin uing
Ġsign s
Ġz o
Ġtyp ically
Ġpus h
f ace
Ġde g
Ġsh ared
Ġfor ces
Ġnot hing
Ġro om
Ġimpact ed
Ġprocess es
Ġprom ot
i Ã³n
Ġtrans ition
Ġsubscrib e
Ġd il
Ġto ll
ib ly
n g
en ec
om atic
Ġare n
Ġac ad
Ġquarter ly
Ġblo om
Ġattr act
Ġincre ases
Ġdiv ision
Ø ©
Ġ ip
Ġre new
lo g
Ġrep e
Ġkeep ing
Ġmass ive
Ù ģ
ly mp
Ġd ang
Ġconf idence
Ġfear s
Ġdr iving
ound s
Ġadv ance
Ġpract ice
Ġdec ided
at t
Ġam oun
stand ing
Ġem issions
Ġbelie ves
Ġcompet ition
Ġmus ic
Ġdou ble
et ary
Ġ9 5
Ġeval u
Ġb ir
Ġto uch
Ġstud ent
Ġbank ing
n o
b us
Ġo lymp
Ġshop ping
Ġt v
Ġc ast
Ġh or
Ġg iving
Ġus er
Ġcolle ge
Ġacc ur
st er
Ġex clus
Ġk ids
Ġoff ered
Ġ ult
Ġf at
Ġjo int
Ġest ate
Ġorig inal
ive red
Ġopen ing
Ġconduct ed
Ġimmedi ately
Ġt on
id ge
st on
Ġsp ain
Ġreg ister
Ġatt acks
Ġchang ing
Ġunderstand ing
Ġwest ern
0 5
Ġad vert
Ġte xt
Ġfinanc ing
Ġcar bon
Ġins ide
Ġincreasing ly
Ġeconom ies
Ġepid emic
3 9
Ġal one
Ġtransport ation
Ġrat io
ac hes
Ġexp ans
Ġbu ying
Ġreal ity
Ġmex ico
Ġmo v
Ġsol id
Ġclos ing
res h
Ġob t
Ġvot ers
Ġcap t
Ġpar is
re am
Ġm ut
ex p
Ġreturn ed
i ver
Ġw ww
Ġp ace
Ġshow ing
Ġlarg er
Ġdrop ped
Ġhundred s
Ġre in
Ġfe es
Ġdel ivered
5 00
d p
s on
Ġ202 7
Ġgr and
Ġthink ing
Ġdiffe rence
Ġ >
Ġlo oks
Ġprop osed
Ġra ise
Ġorigin ally
Ġp ull
Ġinstit utions
Ġwork force
Ġatt end
Ġtax es
wor ks
Ġfor t
Ġob ject
Ġe th
Ġeng age
Ġimpact s
Ġmove ment
Ġstat us
6 7
Ġfut ures
Ġturn ed
om b
Ġweek ly
Ġall oc
Ġz ero
Ġc reat
rop ri
Ġconsid ering
Ġflor ida
Ġun ivers
Ġcr y
Ġvent il
Ġantib odies
i et
Ġ =
Ġun ique
Ġext ended
Ġprodu ce
Ġre form
Ġto wn
ig ate
if ying
os is
Ġprev ention
Ġdev ices
Ġthan k
Ġcn bc
3 4
Ġd ut
Ġr ally
ron ic
Ġuncertain ties
l or
ast ic
ra el
Ġdecre ase
Ġmich ael
quar ter
Ġv end
Ġcomp on
Ġgu ard
Ġcommit ted
Ġprofess ional
Ġmo ved
Ġrec ession
ag s
Ġfin ally
Ġcons erv
Ġpar k
Ġbecom ing
Ġsee k
Ġdep os
Ġset t
Ġexperienc ed
Ġsubst ant
ap ore
Ġobs er
y le
Ġl as
Ġukrain e
b l
Ġ201 5
Ġvers ion
Ġrelative ly
Ġp le
Ġf ix
Ġdr ivers
te red
Ġis land
l ia
Ġrele vant
Ġfel t
Ġr are
Ġ3 2
Ġ3 4
Ġexerc ise
Ġtraff ic
w s
ip p
ll ed
Ġ4 4
Ġdec ade
y a
Ġw at
Ġd yn
ous ly
Ġs on
Ġregul ations
Ġrapid ly
sec ut
Ġschedul ed
Ġprofession als
3 8
Ġunder lying
ord in
let ter
kn ow
Ġcomp lic
Ġ3 7
Ġmay be
Ġemploye e
Ġruss ian
Ġcult ure
Ġo k
Ġp al
Ġb reat
Ġagre ed
Ġle aving
Ġsmall er
Ġon es
Ġwor se
Ġgo es
Ġneg oti
Ġm ur
Ġex am
art ers
in ations
Ġp ic
Ġtw e
Ġcap abilities
Ġlet ter
Ġpers pect
Ġbloom berg
d f
it ch
Ġrough ly
v ent
v ious
il ed
Ġinc l
Ġaccess ed
Ġm ad
Ġg one
Ġi re
Ġoff set
Ġret ire
Ġatt empt
) ;
Ġm ention
Ġre duction
il es
Ġis rael
ens us
Ġsee king
Ġcy ber
Ġpict ure
Ġsh if
Ġpl us
Ġser ve
Ġcon sequ
Ġconst it
b ur
g i
h am
z a
Ġf aster
Ġad apt
Ġhealth y
Ġcor re
Ġpar a
6 6
Ġs end
Ġob vious
Ġrestaur ant
Ġcharg es
ur ity
Ġnews letter
Ġw u
Ġpart ies
Ġsl ight
Ġplatform s
Ġadvant age
Ġ Ð
Ġun its
Ġfe ed
Ġsect ion
Ġreb ound
d om
g u
Ġmin utes
com es
Ġvir al
Ġsing apore
or ing
ar ant
Ġco al
Ġwor ds
ict ion
Ġscient ific
Ġl es
Ġpo or
Ġhot el
Ġ id
Ġhighl ight
ky o
Ġanalyt ics
p ass
Ġt ens
us ion
Ġremain ed
Ġpost ed
pl ay
8 9
f o
it ors
Ġm other
us h
Ġwe alth
Ġgo als
ant a
Ġpe ak
Ġaff ord
Ġwr iting
Ġvol at
n y
Ġf resh
ur ch
Ġres ol
Ġreg ions
Ġglob ally
Ġcomple ted
Ġappear s
Ġsyn d
3 1
h aps
Ġto kyo
ic a
Ġh a
Ġpub med
Ġoper ational
Ġsim ply
Ġsuggest s
Ġl ay
Ġl ung
Ġcomp l
Ġcur rency
Ġli abilities
Ġmonitor ing
Ġtreas ury
Ġp or
Ġco vered
ren e
Ġcertain ly
Ġcou ple
Ġp ip
ill ed
Ġ3 00
Ġcr uc
Ġpresident ial
Ġbar rel
Ġrepublic ans
Ġdr aw
Ġwa it
Ġstreng th
Ġex act
Ġdistr ict
Ġmoder na
Ã§ Ã£o
Ġire land
b re
d ing
ro s
enec a
w ord
Ġd ed
um es
Ġhistor ic
Ġother wise
Ġdirect ors
Ġdyn am
on a
Ġbe at
up s
Ġthere fore
Ġar ab
Ġtempor ary
Ġper haps
Ġdevelop ments
i am
Ġrequ ires
az eneca
Ġreturn s
Ġexpans ion
Ġf al
ot ive
Ġsim ple
Ġche c
Ġpresent ed
s es
Ġg ained
Ġpro mpt
Ġop pos
ote ch
Ġkill ed
Ġstreng the
Ġt ight
Ġs ave
un ch
Ġme ant
Ġman aging
Ġlands cape
t w
Ġus ually
Ġout comes
Ġ4 8
Ġwom an
Ġmanag ers
Ġco op
Ġ'' :
ang u
Ġimmun ity
Ġb all
Ġn om
Ġwe ather
Ġvar iants
Ġpop ul
Ġfind ings
Ġcomb ined
Ġtour ism
Ġb ed
ib ute
Ġcut s
Ġopin ion
Ġs ud
Ġp urs
av es
ash ion
Ġprot oc
p read
Ġfr ame
Ġprovid er
Ġair line
Ġtherap y
e v
Ġind ian
Ġcoun ter
m ore
ic ient
Ġpro ced
Ġsp ike
Ġfac ed
Ġprotect ive
Ġpartners hip
Ġautom otive
Ġmoder n
g round
Ġcomp ens
Ġfail ure
pro f
p ers
Ġac know
Ġche m
Ġwr ong
Ġgener ation
Ġwide ly
Ø ¯
Ġw ild
Ġb er
ic ket
Ġex port
Ġar rest
Ġoffic ers
p art
Ġpred ic
Ġn ar
ch an
ab et
Ġvehic les
Ġal le
Ġus es
r ia
re p
Ġm el
Ġvot ing
Ġs ample
Ġc ert
Ġtrans fer
5 5
ad ing
Ġapp o
Ġtechn ical
Ġh aven
com mer
Ġchalleng ing
Ġmanufacture rs
Ġcru ise
Ġc ents
Ġtyp es
Ġpasseng ers
commer ce
re f
Ġstr ucture
Ġdep end
Ġallow ing
Ġchann el
Ġv an
Ġoper ation
Ġrelations hip
Ġent ertain
Ġpass ed
Ġprotest ers
i ency
op s
Ġch at
Ġapp ropri
Ġsupport ing
Ġz e
Ġb st
Ġv en
Ġj ones
Ġren t
Ġfri end
Ġscop us
Ġ il
Ġsp ring
Ġintern al
s a
ish ing
Ġe ur
ct ions
Ġsign ed
Ġst or
Ġsa v
com ing
Ġimpro ved
Ġtarg ets
Ġge ograp
Ġiniti ative
Ġexp osed
Ġstr ict
Ġfore casts
Ġequ ival
Ġinterest s
Ġ ib
Ġse arch
Ġind e
arg o
Ġz acks
Ġur g
Ġrepresent ing
Ġantib ody
m as
n el
Ġf ans
Ġcomm od
Ġput ting
Ġcomb ination
Ġchar acter
3 2
Ġwas n
Ġqu ant
k a
u ations
Ġn a
Ġrem ember
Ġhapp ened
b our
m o
Ġgu arant
tt y
Ġfre qu
Ġassess ment
Ġstrugg ling
Ġg iant
Ġco ast
Ġemploy ers
Ġdoct or
r ies
Ġw ants
Ġr ule
Ġwin ter
Ġmort g
c ers
Ġf ashion
Ġas ian
rom e
Ġoper ate
Ġdown load
Ġcommunic ations
Ġbond s
Ġzo om
Ġgerm an
Ġaccoun ting
Ġcirc um
Ġaltern ative
8 7
er ia
Ġp age
Ġh ub
Ġl ou
Ġcont ained
Ġstr uct
Ġmin or
Ġmost ly
Ġpar lia
Ġupd ates
it ation
iz es
Ġsustain ability
0 1
6 9
Ġshe l
20 19
Ġcall ing
Ġmet ric
Ġallow s
Ġprior ity
Ġdo z
Ġpre tty
ri ers
w ire
Ġpr icing
Ġiniti atives
k er
Ġch arge
Ġhy d
ĠØ§ÙĦ Ø
Ġlegisl ation
Ġa lex
er red
Ġen able
Ġglob e
w an
Ġeconom ists
Ġloc ations
Ù ĥ
it able
Ġfr anc
Ġcruc ial
in form
ad y
Ġparlia ment
b a
v acc
Ġfew er
Ġexecut ives
Ġtr ip
Ġbl ue
Ġpack aging
Ġout put
Ġfind ing
Ġc ro
er a
li ers
Ġauth ors
Ġconfir m
Ġj un
Ġdis ney
Ġ4 1
Ġ4 2
Ġbring ing
Ġs we
Ġun less
ugh t
Ġfail ed
Ġb ul
Ġper man
Ġview s
Ġenter prise
Ġcollabor ation
Ġenjo y
d es
i ate
us es
ord ers
ress ion
Ġsupport ed
Ġpa ul
go ogle
Ġcommit ment
Ġsomet imes
Ġcandid ate
re aks
Ġg ives
Ġres ident
Ġover se
Ġman aged
Ġfar m
Ġanticip ated
e ing
l ong
Ġcontin u
Ġart ific
ienc es
Ġrev ol
Ġcommunic ation
h ow
Ġ {
Ġ }
ther n
ag ues
Ġhop es
Ġdetail ed
Ġtr ig
Ġgro cer
Ġget s
Ġcare er
Ġconcer ned
Ġoutb reaks
Ġwu han
Ġa str
Ġf em
Ġdis app
air s
Ġcircum st
k en
Ġhe ar
) :
Ġad verse
Ġoff ices
po int
Ġansw er
Ð ¾
Ġind o
Ġbi otech
Ġvers us
Ġemploy ment
Ġcandid ates
Ġcol or
e ch
Ġs and
ur ning
Ġcont e
Ġ6 00
Ġaffect ing
Ġappe ared
c a
he alth
her n
Ġplay ed
Ġspread ing
Ġwrit ten
Ġun f
Ġ4 9
Ġbo x
Ġgre w
Ġhelp s
Ġsou thern
Ġbas ic
Ġinstit ution
Ġben ch
Ġtemper ature
c ross
Ġt end
Ġf le
al ing
Ġd u
Ġestab lish
Ġastr azeneca
Ġcar s
Ġknow ledge
Ġga ap
er ve
Ġg ap
Ġpurp ose
4 00
w ell
Ġpro jected
Ġfre ed
kn own
exp ected
d ed
y an
Ġsh aring
Ġcy cl
Ġbehav ior
Ġp ed
ar ian
Ġcom fort
Ġ'' .
Ġsupp liers
Ġcontr ibuted
Ġartific ial
im s
Ġse qu
Ġag encies
Ġclose ly
Ġvehic le
Ġexpress ed
Ġprote in
Ġre li
Ġstr a
Ġsche me
Ġand rew
ad ed
Ġr id
Ġsp ect
Ġtrans actions
Ġlat in
Ġcollect ion
Ġp acific
Ġl ng
Ġsk ills
ot ic
uc i
iven ess
l ands
u a
w est
Ġm atch
ĠâĢ ¦
Ġme chan
Ġro yal
Ġredu cing
Ġvol umes
ar ks
Ġnurs ing
Ġd ur
Ġv ital
Ġtal king
om p
ce ll
Ġw ood
Ġw ides
Ġm ine
Ġen force
Ġdom in
Ġconvers ation
4 8
t urn
Ġf ounder
Ġd og
Ġto ol
Ġg ar
ol a
Ġfl ight
Ġimport ance
Ġslight ly
Ġdr am
Ġcho ice
Ġout do
Ġsub sequ
Ġimmedi ate
Ġwides pread
Ġc ab
res p
Ġrecord s
Ġresult ing
Ġsw ed
Ġimpro ving
Ġet f
Ġk en
Ġreg istered
Ġpo ly
Ġ201 4
Ġrob ust
Ġsusp ended
Ġhyd ro
cross ref
Ġnort hern
Ġp ie
Ġval ues
ig ation
Ġas king
Ġcl ub
Ġmach ine
Ġwel come
i ar
t ic
Ġins p
Ġtop ics
Ġsex ual
Ġteac hers
Ġin j
Ġr and
av io
Ġprocess ing
Ġconnect ion
Ġult imately
Ġconte xt
Ġs port
or ation
Ġread ing
Ġrespons ibility
Ġextreme ly
e es
Ġp el
Ġb ab
iv ir
Ġmon etary
Ġret urning
Ġcontract s
Ġsuggest ed
Ġscre en
b i
Ġeffect ively
Ġauthor ity
Ġur ban
Ġfun ction
Ġrac ial
b and
Ġr ating
Ġprogram me
Ġge org
Ġassist ance
Ġange les
Ġcircumst ances
k i
Ġg ave
Ġpr ison
Ġwork er
Ġem ot
Ġ4 7
Ġsc ott
Ġjapan ese
Ġdiscuss ion
Ġshut down
Ġestab lished
Ġinter im
Ġinit ially
Ġrepres ents
Ġsubsid i
u ro
y ch
Ġcons ensus
Ġbuy ers
Ġappropri ate
p y
Ġout standing
Ġ4 6
1 00
it ect
Ġth r
Ġg dp
est er
Ġsa ud
Ġmonth ly
Ġorgan is
Ġwe ight
Ġr amp
Ġgo v
Ġtrans pa
Ġey e
Ġdip l
Ã º
Ġdef ense
Ġs amples
Ġnet works
Ġnation wide
Ġfa uci
Ġv ision
Ġnot ice
Ġcoun t
Ġwar ning
Ġbat tle
Ġo un
Ġcon cent
Ġarch itect
Ġinvent ory
m et
ro om
ent y
ot a
app ed
Ġmain ly
Ġhapp ening
Ġinvestig ation
Ã ¤
Ġch ap
ens ed
Ġown ed
Ġinnov ative
Ġsent iment
Ġamoun ts
0 6
Ġcomp liance
od e
Ġset ting
Ġa th
in ted
Ġem b
Ġpay ing
Ġca ution
Ġnurs es
al and
we ek
Ġ15 0
Ġspe aking
Ġcho ose
Ġmax im
Ġt s
Ġdis p
Ġke pt
Ġinst ance
Ġremain ing
Ġprodu ced
Ġclear ly
hol der
5 9
Ġal ign
Ġne ut
Ġopen ed
Ġvari ety
Ġabs ol
Ù ĩ
Ġt or
rup t
Ġshar p
Ġconcent r
or ge
Ġe ase
port ion
Ġbroad er
Ġ ign
Ġun able
Ġsp r
Ġsur pr
Ġscenar io
p andemic
r ying
Ġp il
Ġat l
Ġfall ing
Ġimprove ment
Ġcompens ation
Ġentertain ment
Ġit al
Ġhe n
Ġpe ace
Ġam ort
Ġaut o
Ġpublic ly
Ġsubs cription
Ġfal se
4 2
m es
Ù Ĥ
Ġt ack
Ġs le
is co
Ġcomp os
Ġeconom ist
Ġtransform ation
Ġbott om
Ġconf lic
Ġhar ris
Ġdeterm ine
Ġmin ing
Ġel ig
Ġdisrup tion
h ttps
at ically
Ġmo ves
Ġac ute
ll ing
Ġ4 88
Ġps ych
8 6
Ġt ai
an ch
Ġl ux
Ġco vers
Ġen ab
Ġapp ly
Ġperspect ive
ist an
Ġreg istr
Ġwr ite
Ġa wa
Ġr s
Ġfl at
Ġcontr ibut
7 9
Ġa uction
Ġm erg
Ġs ession
Ġv p
Ġconsum ption
Ġstrong er
Ġcolle agues
f ield
Ġw ire
Ġcl ot
e ut
ap h
fe rences
Ġra ising
Ġdiff er
Ġdecl ared
Ġir an
Ġ'' )
Ġ4 3
Ġ200 8
Ġur ged
Ġfeel ing
Ġdeliver ing
agr am
at a
ol es
Ġmater ially
Ġinflu ence
Ġhighl ights
Ġyield s
Ġded ic
a ult
Ġprof its
Ġrepe ated
Ġstat istics
cor onavirus
om o
if ically
Ġcop per
Ġabsol ute
u an
in em
Ġwill ing
du le
Ġfe ver
Ġfund ament
Ġvent ure
Ġoper ator
Ġ8 5
gr ade
Ġprodu cers
Ġcomplete ly
Ġ Ùħ
Ġb ars
Ġj ames
Ġide as
Ġinterview s
Ġinvol ve
Ġvisit ors
Ġtwe et
Ġin tr
il it
Ġst ated
Ġcaus es
Ġeffic ient
Ġtherap eut
Ġsepar ate
7 6
o o
Ã µ
Ġinc or
Ġ5 6
Ġimm igr
Ġreve aled
Ġtas k
Ġexclus ive
Ġsaud i
Ġh arm
Ġth us
os ing
Ġcl ient
Ġdec ide
Ġtrack ing
Ġemp ow
Ġstra ight
Ġl angu
Ġch ic
Ġyour self
Ġfact or
Ġseg ments
Ġ199 8
Ġdoub t
w r
Ġan x
Ġn one
Ġinst agram
Ġconf ident
Ġprov ision
Ġlog istics
Ġmoment um
Ġhistor ical
Ġut il
Ġze aland
pt ions
Ġplay ing
Ġelect ions
Ġbir th
Ġmortg age
Ãµ es
0 9
i en
Ġcl ar
Ġbr ain
Ġreg ulation
Ġfr aud
Ġpresent ation
Ġunlike ly
Ġt ick
Ġshe et
Ġdel ays
Ġhapp y
Ġengine ering
Ġpres ence
ang ing
20 21
Ġrest r
Ġadv oc
Ġking dom
Ġlou is
he ast
ou ts
Ġwas te
Ġlo se
Ġmeet ings
Ġv ill
i as
Ġe g
Ġloc ation
Ġdev ice
Ġfeat ure
c ap
n ight
y stem
ur a
Ġper fect
Ġeas ier
Ġfoot ball
Ġsp aces
Ġimp osed
Ġshort ages
Ġconst ant
Ġisol ation
est s
con s
Ġmult i
Ġrespons es
Ġsil ver
Ġbull ish
Ġ <
Ġmr na
Ġposs ibility
Ġpropert ies
Ġassum ptions
ion tech
Ġemerg ed
Ġadvis ory
Ġstor age
. âĢĻ
Ġo s
ro ad
Ġpl aced
Ġtreat ments
Ġpolit ics
Ġexplo re
Ġbrief ing
Ġb ol
Ġg ir
Ġsh ock
Ġstr ain
Ġlab our
Ġsqu are
Ġs ound
Ġsp l
Ġpl ed
Ġdecre ased
Ġrecommend ations
is f
Ġpass word
Ġprov ince
.... ....
Ġde als
and er
cr aft
Ġpus hed
Ġmort ality
h t
Ġn amed
Ġmar t
Ġpower ful
Ġsud den
k ins
u able
ul ated
Ġtr a
Ġag gress
Ġ5 1
Ġeas tern
it o
Ġh all
Ġv ac
Ġv ast
Ġsh ots
Ġsp an
Ġprof ile
Ġdef ined
Ġcry pt
Ġretire ment
Ġsav ings
Ġthe at
Ġexp end
Ġ4 00
Ġset tle
Ġhim self
Ġattr ibut
Ġ ub
Ġag ric
Ġfac es
Ġcritic ism
ad os
Ġref in
Ġlink ing
Ġrepl ace
Ġtro ub
Ġw it
en n
Ġim age
Ġsup reme
Ġexpl ained
o y
w hel
Ġt ar
il le
Ġtr ied
Ġadd s
Ġavail ability
Ġspe ech
Ġevent ually
Ġintro duced
Ġjump ed
Ġt es
Ġo xy
Ġf ather
un te
Ġwork place
ell ing
Ġn hs
Ġwor ried
Ġout perform
Ġmin eral
Ġlook ed
Ġrece iving
Ġlear ned
rec iation
Ġdiagn ost
Ġbehav i
Ġconserv ative
Ġchic ago
v ision
Ø ¹
Ġex cess
Ġco de
act ive
ist ers
bo x
Ġexpend it
ad as
Ġtr ail
Ġsp ir
Ġuse ful
Ġplan ts
ph one
Ġeffic acy
Ġacceler ated
Ġchrist mas
Ġconc lud
j an
st e
Ġvol unte
Ġdist ance
Ġeas ily
Ġtarget ed
Ġimplement ed
Ġtai wan
Ġc agr
Ġres ist
Ġspec ifically
Ġagree ments
================ ================
Ġvolat ility
h r
v in
w ood
Ġb ay
Ġdeb ate
Ġwa iting
Ġdisrup tions
Ġoppos ition
Ġgeorg ia
Ġagric ult
c an
l ined
Ġt el
Ġint ended
Ġpost pon
Ġmat ters
Ġdeal ing
inc ome
do i
Ġcompar able
Ġ um
Ġbe g
Ġapp s
Ġear th
Ġwal k
Ġcomput er
e ff
an ia
Ġf est
Ġro bert
Ġcar ry
Ġins ider
Ġlaw makers
Ġautom ation
Ġins ight
Ġext end
Ġdoc uments
Ġrecomm ended
Ġacceler ate
Ġexact ly
Ġm ike
se mb
Ġk it
own ed
Ġcorre ct
4 1
g reg
v a
Ġd ub
Ġst orm
Ġal g
Ġgener ated
Ġexperienc es
Ġtempor arily
Ġmov ie
m i
Ġin g
em i
Ġim ages
Ġbig ger
Ġshort age
Ġge orge
Ġsan it
Ġdis in
Ġdr illing
Ġmay or
ite ly
Ġmed ium
Ġperiod s
Ġdistr ibuted
Ġacqu ired
Ġadop tion
Ġconsist ent
Ġres et
Ġim ag
bo ard
Ġconn ected
Ġexpand ed
Ġeuro s
m at
Ġo x
Ġover whel
Ġobvious ly
v est
Ð ¸
ic ial
Ġhe ard
Ġex ceed
Ġtim ing
Ġprior it
Ġmention ed
Ġt a
Ġlow est
eng th
Ġclass es
Ġfreed om
Ġoxy gen
7 8
m al
Ġus a
Ġres ort
Ġfel low
Ġneigh bor
Ġem ph
Ġapp lied
Ġent ry
Ġsupp lement
Ġext ent
Ġprep are
Ġfight ing
Ġgather ings
Ð °
Ð µ
Ġf u
Ġd an
Ġ6 6
Ġlaw y
Ġpet er
Ġmiss ing
Ġminim um
Ġdeg ree
Ġsett ings
Ġb urn
Ġse es
Ġj on
Ġacc used
ach ing
Ġdev ast
Ġclos ures
Ġreser ved
Ġfix ed
Ġr ank
end ers
Ġsafe ly
Ġexpl oration
Ġpurch ases
ĠÃ ł
Ġchamp ions
m iss
Ġro c
Ġhand ling
Ġprem ier
h al
Ġinc red
Ġje ff
d ate
p ts
Ġus d
Ġlead s
Ġtur key
Ġexpert ise
d net
Ġm un
ut h
Ġas pect
Ġpre fer
Ġrem arks
Ġdiscuss ed
Ġprincip al
Ġdang erous
Ġc old
it ude
et ic
Ġle ase
Ġtrans l
Ġrel ig
Ġz dnet
Ġexpl ain
Ġphot o
Ġexclud ing
Ġadvert ising
Ġconsequ ences
Ġt er
ur g
Ġpro c
Ġreport ers
Ġhot els
Ġeffic iency
Ġprospect s
Ġvend ors
i ance
re port
Ġh iring
Ġhas n
Ġflo od
Ġath let
Ġneut ral
Ġg ree
Ġus ual
Ġown er
Ġspokes person
tw itter
f in
Ġf if
Ġresour ce
Ġpus hing
c ies
Ġ iv
re m
Ġc ough
Ġto ugh
Ġh un
Ġn ic
Ġex ports
Ġ5 2
Ġserv ed
Ġiss u
Ġgener ate
Ġlist en
Ġrat ings
Ġgrocer y
on ing
ic ed
le ts
se e
Ġtr uly
Ġend ing
Ġent ered
Ġrelations hips
Ġframe work
Ġo d
Ġh am
Ġex hib
el ess
Ġrec k
Ġplay er
Ġaim s
Ġproced ures
5 6
c ar
Ġw ip
Ġpro per
Ġres c
Ġ5 8
Ġyoun ger
Ġrespond ents
Ġhousehold s
h ar
i h
Ġo h
it ory
ig en
Ġle verage
Ġflow s
Ġital ian
e lect
Ġpet ro
wor ld
Ġbecom es
7 3
Ġ err
it a
Ġm ount
Ġj ul
be ing
Ġw id
Ġm erc
Ġsh r
Ġreco vered
Ġspe ak
Ġaud ience
bus iness
Ġcompon ents
Ġpip eline
Ġprotoc ols
Ġn uc
Ġfact s
Ġdiffe rences
Ġperson nel
Ġadjust ments
Ġcu omo
Ġrecon cil
Ġsubstant ial
Ġemph as
f low
Ġso le
Ġjo ined
Ġalong side
Ġmaint aining
Ġdeterm ined
m art
in y
ip ped
Ġwould n
Ġaddition ally
Ġstre ets
Ġachie ved
Ġenh ance
Ġpropos al
Ġc iting
Ġn ames
Ġsp oke
Ġfin tech
Ã§ Ãµes
Ġheav y
n r
s en
Ã ¼
Ġc atch
g ro
n am
Ġp it
Ġcent ury
Ġinterest ed
Ġsuccessful ly
Ġbench mark
or ter
Ġbe aut
Ġch ris
Ġpl c
Ġacquis itions
Ġaim ed
Ġscop e
Ġcateg ory
Ġm m
Ġst able
Ġse a
Ġtr ain
Ġag end
Ġ9 9
Ġshare holder
Ġtal ent
Ġboost er
Ġinde ed
f ree
p acific
it arian
Ġm d
st ream
ub e
Ġgr ade
Ġhum ans
Ġcut ting
Ġintegr ation
Ġpan el
Ġsche dule
Ġincor por
Ġa st
ar ation
Ġg ender
Ġst an
ac iÃ³n
Ġes g
Ġhand le
Ġvict or
Ġencour age
Ġdil uted
Ġs in
os h
Ġlos ing
Ġdelay ed
Ã ±
Ġs ought
Ġunder t
Ġclos er
Ġattribut able
Ġinterest ing
Ġord ered
Ġvo ice
inform ation
Ġr ig
Ġwh om
Ġro ut
ward s
Ġaff airs
Ġremote ly
i ers
Ġw ife
Ġf ine
Ġb orders
Ġh us
Ġeconom ics
Ġz one
Ġsk y
Ġelse where
Ġtes la
m n
y mpt
Ġ Ã©
Ġb ure
Ġ5 3
ian a
Ġcar ried
Ġcontr ibution
Ġsat isf
b u
Ġcon ven
Ġinc ent
Ġad m
Ġdat ab
Ġheav ily
i ro
t i
Ġc fo
Ġe ld
rom b
Ġpl astic
Ġens uring
Ġelig ible
w ing
Ġa z
Ġd ani
Ġst ation
Ġ5 9
Ġ201 3
Ġdiscuss ions
Ġmargin s
f r
Ġop p
Ġimp lic
Ġgovern ance
Ġtechn avio
Ġth om
le vel
Ġpro ve
Ġr ail
iz ations
Ġsur round
Ġrun s
wh at
Ġd ivers
em y
Ġun known
ugh ter
Ġresil ience
Ġchap ter
Ġbuild ings
Ġbelie ved
Ġappo int
Ġperman ent
0 8
Ġwh ate
Ġag ed
Ġbro wn
ron t
Ġspokes man
Ġanim al
Ġcreat ive
resp ond
Ġlux ury
Ġwhate ver
Ġt ons
on om
st ar
Ġco ff
Ġam end
Ġpart ially
com p
Ġfil ings
Ġwatch ing
Ġmoder ate
Ġful f
Ġtur ning
Ġalle ged
Ġin equ
as c
Ġad equ
Ġdis pos
Ġce re
Ġimplement ation
Ġa er
Ġpro ud
Ġup coming
Ġinvest ed
Ġbo eing
Ġval id
Ġshop s
Ġfamil iar
Ġobs erv
Ġpod cast
c alled
Ġw ake
Ġre ly
Ġexpand ing
Ġsuff icient
Ġdedic ated
Ġt icket
in et
Ġpro secut
Ġhigh s
Ġdown turn
Ġstop ped
Ġpostpon ed
b ing
Ġrec ip
Ġsc ore
Ġpurp oses
ympt omatic
0 4
Ġbe ar
all s
Ġ5 4
Ġ5 7
Ġimp air
Ġtw ice
olog ist
Ġsk ift
Ġarr ange
Ġhy br
Ġacad emic
w in
Ġport ion
Ġcontact s
Ġrepresent ative
Ġflex ibility
Ġsynd rome
Ġamort ization
Ġc argo
is ol
Ġpre gn
Ġhospital ized
Ġthous and
Ġship ping
Ġmand ate
Ġepid emi
Ġcalcul ated
Ġ ÙĪ
Ġdirect ion
app ing
Ġresult ed
Ġprom ise
Ġselect ed
Ġswed en
Ġwit ness
Ġal leg
Ġsc ot
Ġfollow s
Ġcre w
Ġrestr uct
Ġs um
ab il
Ġwon der
Ġfre ight
Ġlabor atory
m en
Â ®
Ġm ild
Ġ] .
Ġhold s
Ġexperienc ing
Ġer a
Ġfr ank
uc ks
Ġrequ iring
Ġele v
0 3
w orth
ain t
Ġcor respond
Ġregistr ation
il s
Ġsc iences
Ġ6 9
Ġsur prise
Ġbor is
Ġstrugg le
5 8
qu ality
Ġtr acing
Ġpow ell
Ġpa rent
Ġocc up
Ġadop ted
Ġsubsequ ent
Ġagend a
Ñ Ĥ
Ġs am
it er
Ġl ending
Ġr ural
Ġk new
ress ed
Ġstre am
Ġsuff ered
s p
con n
Ġsur f
Ġnews p
Ġ25 0
Ġvict ory
fort un
Ġchem ical
Ġd ial
Ġhe aring
Ġch ronic
Ġres ume
Ġcould n
ang ed
Ġcomb at
Ġfem ale
0 7
Ġh ab
qu es
Ġafter no
Ġexper iment
Ġcy bers
Ġexpens ive
Ġencour aging
Ġcou p
aud ited
Ġobser ved
Ã ª
Ġo ce
ot ed
Ġv ary
Ġwor ry
Ġfe b
Ġinfl amm
Ġphil ipp
Ġrand om
Ġdisin fect
Ġ rom
ul ate
Ġk im
ket s
Ġdis aster
Ã© s
Ġfall en
Ġchec ks
Ġcoop eration
Ġafterno on
i i
Ġ ul
im ited
Ġr ide
Ġun audited
Ġcar ol
Ġapplic able
Ġthreat s
Ġenforce ment
al ities
il ing
st ate
ig an
Ġk a
Ġem br
Ġ7 6
Ġval uable
Ġlangu age
o qu
Ġf t
ut y
Ġassoci ate
Ġengage ment
Ġcommod ity
Ġp ul
Ġas semb
ist ed
Ġro les
Ġdep reciation
Ġdef ic
pr int
m l
il i
Ġg ard
im inal
Ġun fortun
iv als
Ġpo ver
Ġ6 2
Ġ6 8
Ġevery body
Ġretail er
Ġprom ote
ow s
Ġro ck
Ġdes per
ater al
Ġsm ith
Ġgu ide
Ġatt or
Ġjour ney
Ġextra ordin
Ġminor ity
Ġpover ty
Ġr yan
Ġ6 7
Ġval uation
Ġ14 0
Ġsumm it
Ġintegr ity
Ġoverse as
a rent
Ø ¨
Ġb on
ers ey
se y
Ġj py
loy d
Ġmil es
Ġdepos its
b ai
id ing
us ter
Ġqu arters
ric k
Ġtele vision
Ġoblig ation
Ġolymp ics
ste in
Ġproc ure
0 2
Ġb ought
Ġall iance
Ġfac ilit
Ġprotect ing
Ġfur l
Ġhapp ens
Ġprec a
Ġsle ep
or gan
Ġpre l
Ġfr ustr
Ġsur face
Ġav iation
pl ant
Ġtre ated
Ġtens ions
e z
Ġf ile
as hed
om ing
og en
Ġem er
ik es
Ġb a
ar o
Ġk ick
Ġdis play
ice f
Ġroll out
imin ary
Ġdani el
p at
Ġm akers
Ġab b
Ġ202 3
Ġdo or
Ġear n
Ġaccord ance
Ġbel ief
Ġintegr ated
Ġrequest ed
Ġnecess arily
Ġtell ing
Ġmit igate
Ġurg ent
Ġe b
Ġapp arent
Ġfe els
Ġgen etic
Ġbank rupt
Ġtrad ers
Ġauthor ization
Ġvis its
Ġcollect ed
Ġjud ge
Ġdetect ion
Ġpopul ations
Ġox ford
Ø Į
Ġb ail
Ġh ou
Ġwor d
Ġk o
Ġimp oss
Ġtravel ers
pr ises
Ġartic les
Ġarab ia
Ġindo or
f a
er ies
it z
Ġj ersey
Ġcan n
Ġ7 9
Ġeven ing
sel s
Ġblo g
Ġsuff ering
dr aw
prof it
Ġpredic ted
Ġfranc isco
c her
Ġh ill
Ġn ut
Ġvirus es
Ġcar riers
Ġed ge
Ġorgan isation
Ġunl imited
Ġeditor ial
iat ric
oqu ine
Ġa ware
in der
in ary
Ġs ad
ay er
ad ium
ap se
Ġout come
Ġrec r
Ġ7 2
gh an
Ġrep ro
Ġstre aming
Ġwal es
Ġgrant ed
lor oquine
Ġprel iminary
l am
Ñ ģ
Ø ³
Ġb ub
Ġth romb
ren cies
Ġ6 4
Ġbro ther
Ġindic ated
Ġlic ense
Ġdisapp o
Ġhybr id
Ġs ong
Ġl ag
le tt
Ġon to
ign ed
Ġoper ators
Ġhard er
Ġadministr ative
Ġnorm ally
Ġep is
Ġphot ograp
Ġencour aged
Ġoptim istic
Ġmot or
Ġrad io
Ġinstr uct
Ġcompos ite
Ġw are
Ġh yp
Ġcon cept
Ġvacc inations
Ġob ama
crib e
Ġlist ed
Ġdivid ends
Ġassist ant
Ġequival ent
Ġresident ial
Ġbeg un
Ġimposs ible
d on
Ġl uc
Ġun expected
ec urity
Ġcontr ibute
Ġpoin ted
Ġdoz ens
Ġf ill
and a
Ġme at
off s
Ġnegoti ations
Ġmerg er
Ġdr iver
Ġpub lish
Ġcybers ecurity
c i
e u
l im
er ly
Ġp m
it is
Ġm ist
Ġas ymptomatic
Ġfe et
Ġdemocr acy
Ġpartners hips
Ġcaus ing
Ġreason able
Ġoblig ations
Ġobt ained
Ġacknow led
Ġtick er
Ġf ab
ar ia
us ing
Ġwith draw
Ġcol omb
Ġsumm ary
Ġbat ter
Ġentire ly
g l
l ight
Ġw is
as ion
Ġpr in
Ġanaly z
min ent
ri er
Ġstay ing
omm od
Ġreflect s
Ġaud io
Ġver ified
Ġrecogn ized
Ġanim als
vacc inated
Ġtranspa rency
t op
u ate
Ġe asing
Ġg all
qu o
act ed
Ġserv ing
Ġplan et
Ġregul ators
Ġansw ers
Ġcateg ories
Ġscenar ios
rep rene
Ġreli able
r c
t ok
z z
Ġf y
Ġre ference
Ġwe igh
th rough
Ġfr ag
Ġcar rying
Ġcance lled
Ġmag az
Ġhus band
Ã ¶
tr a
Ġem pt
li x
Ġback ground
Ġll c
Ġdynam ics
Ġalg or
r id
w ear
w atch
Ð ½
ct ional
Ġmo le
os ystem
ke l
Ġab use
Ġint ensive
20 27
Ġloc ated
Ġspread s
Ġx i
Ġmethod s
Ġstake holders
Ġconflic t
b el
h ire
i us
n ic
x it
Ġg y
Ġsh ang
Ġent reprene
Ġreser ves
Ġt ap
at o
Ġp in
Ġex cell
Ġj im
Ġwor s
Ġacc ommod
Ġcr ime
Ġinf o
Ġjo ining
Ġpublic ation
Ġreal ized
Ġlit er
Ġvir gin
Ġsubscrib er
Ġrestruct uring
Ġalgor ith
re al
ic ian
ig er
ill ance
ain ts
Ġcont ag
Ġmon t
Ġrem o
Ġmin isters
com m
Ġair craft
Ġrequest s
Ġvict ims
cont roll
Ġthom as
it t
Ġm ail
ir a
ul f
Ġch a
Ġsh oot
ib utions
Ġcr iminal
enc ed
Ġext ensive
Ġintro du
Ġshar ply
h ai
Ġt ail
al a
Ġres um
Ġnum erous
Ġpost ing
Ġsu ite
Ġsw it
Ġcance led
Ġmand ates
market s
Ġpasseng er
Ġb ow
Ġan th
Ġpro ven
Ġj et
li hood
Ġdevelop ers
Ġ200 9
Ġcy cle
Ġste el
Ġdi verse
Ġmand atory
Ġchann els
Ùģ ÙĬ
it ative
Ġl ength
Ġnew ly
Ġdis cr
Ġcent res
Ġkill ing
Ġdefin itely
Ġnuc lear
w ind
Ġc i
Ġw ider
ar i
âĢ ĭ
Ġun icef
ell ed
Ġve ter
Ġmor gan
Ġsk in
Ġguard ian
9 8
Ġf ly
Ġm aker
Ġhe ight
Ġr ival
Ġcomp rom
ib er
Ġmus e
Ġclaim ed
Ġcrit eria
Ġserious ly
Ġcover ing
Ġmer ch
i ot
as hing
Ġhe at
Ġle e
tt p
Ġcontrol s
k in
Ġb low
le ading
Ġst ands
Ġpl un
Ġapp rec
Ġoper ates
Ġsw itch
Ġprom ising
Ġwin ning
Ġsan ctions
Ġenter prises
Ġstar ts
Ġaccur ate
Ġub er
Ġcoff ee
Ġp un
Ġl y
im p
Ġyou th
Ġ7 3
Ġcontr ast
Ġconsider ation
Ġpers ist
Ġanticip ate
Ġec osystem
Ġproceed s
Ġcycl ing
Ġorganis ations
Ġtherapeut ics
a q
Ġa zer
en a
ĠâĢ ĭ
Ġint el
Ġstr ike
fe ren
Ġbo y
Ġdep ending
ath an
Ġmas ter
Ġhead qu
Ġcompar ison
Ġsurv ive
Ġnav igate
Ġil leg
Ġanx iety
b ank
k o
Ġh iv
Ġbe ll
Ġal ert
Ġch ip
Ġsupport s
Ġlif ted
Ġfound ed
Ġlim its
Ġvi et
Ġreach ing
Ġowners hip
Ġmart in
6 4
8 00
c oun
Ġthe r
Ġun a
Ġet c
Ġunc lear
Ġparticip ate
Ġbreak down
Ġterr itory
Ġdead ly
Ġfif th
l ike
v ille
Ġne ither
Ġad mitted
Ġrel ax
Ġstre t
Ġprior ities
uck y
Ġmedic ines
ĠØ £
Ġolymp ic
Ġton nes
Ġconstit ution
Ġnewsp aper
Ġprocure ment
he red
Ġs ir
Ġc up
ed ia
is er
om a
Ġover view
Ġcomm er
ten ance
Ġstrong ly
ris k
Ġrecogn ition
Ġinstitution al
Ġextraordin ary
Ġemer ge
c n
c hen
k es
re y
Ġsur ged
Ġsupport ers
Ġdep uty
Ġform s
Ġequ al
Ġfact ory
Ġhead ing
Ġmat t
Ġfil ing
Ġhop ing
Ġsurve illance
Ġreflect ing
Ġprov isions
Ġing red
Ġp ap
Ġv es
Ġ1 20
am eric
th an
ess ions
all ing
Ġop ec
Ġdr y
Ġposs ibly
row ing
Ġprofit ability
Ġwal mart
Ġrich ard
j a
at ures
Ġh aw
Ġh ttp
Ġre action
ul a
Ġrel ating
Ġrest art
Ġ201 0
Ġent ering
Ġeng lish
Ġsit ting
Ġproject ions
Ġprodu cer
Ġexc ited
Ġathlet es
r un
ch ina
Ġproduct ivity
Ġ7 4
Ġdet ected
Ġelectric ity
Ġrevol ution
c s
g ers
i ams
Ã ´
Ġw age
Ġb ike
Ġmar ks
Ġover night
Ġar iz
Ġunder st
Ġrem ove
co hol
Ġaccess ible
Ġimport s
Ġoutdo or
Ġazer bai
Ġt an
ren ess
Ġcance l
Ġcult ural
Ġcook ies
Ġalloc ation
Ġexpendit ures
Ġrelig ious
g as
m aking
r ay
Ġh k
Ġn ur
Ġst ick
Ġwill iam
Ġ6 1
Ġgrow n
co in
Ġinform ed
Ġelect ron
Ġslow ly
Ġarr ived
Ġhur ric
g ov
s erv
u i
Ġc p
Ġch urch
Ġsh ape
Ġour selves
Ġcre ation
Ġoffer or
Ġscre ening
Ġfest ival
Ġimpair ment
p ir
w ill
Ġco v
Ġbroad cast
Ġclos ure
Ġcomment ary
Ġmess ages
s k
s ch
Ġt un
Ġb es
um n
Ġmet al
Ġcontro vers
Ġpharm a
Ġunivers ities
Ġattor ney
6 8
a id
d ney
re es
ce l
Ġdem ands
Ġpay roll
Ġcollect ive
Ġimplic ations
Ġmagaz ine
Ġmuse um
r ative
ing er
Ġr ain
Ġex empt
Ġelect ed
Ġlit igation
Ġda ughter
Ġsuggest ing
sc ale
Ġvent ures
Ã¡ s
Ġoccur red
Ġran ked
Ġhighlight ed
Ġscot land
. -
a e
d ig
e conom
Ġw ish
Ġf loyd
Ġg un
Ġsup erm
Ġpres ents
Ġ8 9
Ġsever ity
Ġadvis er
Ġje w
Ġabsolute ly
h ort
p ow
Ġp df
us ive
ur ring
Ġfor um
Ġy ester
Ġr all
Ġ202 5
Ġind ones
Ġbu ff
Ġwell s
Ġgu ests
Ġelect ronic
Ġel imin
Ġeng aged
Ġext ension
Ġperform ed
Ġunivers al
Ð¾ Ð
Ġspl it
Ġshang hai
Ġt iss
Ġth inks
ch ain
Ġ20 30
Ġun vaccinated
Ġsh ap
Ġcont ains
Ġag greg
Ġreview s
Ġhistor ically
Ġseem ed
Ġresil ient
5 7
f all
p res
Ġ ice
on to
Ġb c
Ġbr ings
Ġaut onom
Ġ201 1
Ġhospital ity
Ġmain tenance
Ġleg acy
Ġmob ility
Ġpolit icians
Ġstrengthe n
Ġoun ce
h and
r an
w ater
Ñ Ģ
Ġc oc
om an
ter ns
Ġmon key
Ġfin ish
Ġsl ide
Ġsl ump
Ġsurve ys
Ġvirt ually
Ġphilipp ines
Ġariz ona
in ct
Ġs or
is an
Ġpro xy
Ġdo ors
Ġ7 1
Ġ8 7
Ġown s
err ing
Ġbill ions
ubs cribe
Ġmach ines
Ġtack le
Ġyester day
d em
f lix
g lob
h or
t ar
v i
ig ue
Ġhe s
Ġreported ly
ÃŃ a
Ġcance ll
Ġf ox
Ġh air
Ġl u
am in
Ġyou t
Ġpl enty
Ġen roll
Ġsy mb
Ġtrans plant
Ġpat terns
Ġprot ected
Ġtarget ing
Ġsimilar ly
Ġintro duction
Ġoce an
Ġempt y
m ates
Ġd av
Ġwor ries
Ġk id
Ġout lined
Ġ7 7
Ġbo oks
Ġoffer ings
Ġrespond ed
Ġdeep ly
Ġund ers
Ġhur t
Ġresc ue
in ts
Ġc inem
Ġp iv
or al
Ġm ir
il ly
Ġbe ach
ac er
Ġcap it
ang ible
ific ations
Ġbel g
be at
Ġste ady
Ġdecl ines
Ġprep aring
Ġvot es
Ġinvol ving
Ġventil ators
Ġspan ish
Ġc ards
ic ts
Ġn i
Ġmar c
Ġeffect iveness
Ġvide os
Ġshop pers
Ġdiscl osure
Ġawa reness
Ġb n
Ġy en
ac he
Ġus age
Ġall ies
Ġro oms
duct ions
ink ing
Ġ8 6
Ġback ed
Ġstep hen
Ġroll ing
ony m
Ġclim bed
Ġacad emy
Ġcomfort able
Ġtar iff
Ġbehavi our
Ġeld erly
l is
m aker
p et
Ġ ig
Ġf ro
Ġd re
ur red
iz on
Ġact ing
Ġ6 3
Ġsy dney
Ġmin ds
cl ass
Ġtrad ed
Ġlab s
Ġrestric ted
Ġrecogn ize
dr iven
Ġcharg ed
Ġcommer ce
a wn
b ut
i est
Ġp ounds
Ġth ro
and o
Ġj ail
Ġle ver
Ġ8 3
Ġwar r
Ġknow s
Ġcompet itors
Ġrob ot
Ġtechnolog ical
Ġmetric s
Ġd ining
ic ks
Ġst adium
Ġun ve
Ġbr idge
Ġinter v
Ġdig it
Ġrev ised
Ġdisco very
Ġpie ce
Ġsubsidi aries
Ġdatab ase
Ġs anta
er ts
Ġd as
Ġto t
ack ing
Ġimp er
Ġcol umb
Ġfocus ing
Ġident ity
Ġexpl ains
Ġmiss ed
Ġregular ly
Ġey es
Ġuns ubscribe
Ġal b
ap ol
Ġmar ked
Ġmore over
Ġ7 8
Ġhold ers
Ġgold man
Ġrul ing
Ġwrit es
Ġshel ter
Ġcarol ina
f ounder
Ġs ke
Ġl enders
Ġn am
Ġst em
im ination
Ġr aw
Ġal t
Ġgr ants
ath y
Ġstart ups
Ġmem or
Ġless ons
Ġwin ner
Ġreop ened
Ġhy gi
Ġfav our
Ġtouch ing
Ġbarrel s
Ġrepeated ly
Ġreconcil iation
r ary
Ġs out
Ġin ject
is ons
Ġal arm
Ġref uge
Ġmet als
Ġhop kins
Ġdifficult y
Ġparticip ation
Ġca ught
Ġflo or
Ġopin ions
Ġafford able
Ġmaxim um
Ġyout ube
ch loroquine
Ġpro portion
Ġmar y
Ġk at
Ġany where
Ġnet flix
aw a
Ġcoll apse
Ġir ish
Ġbre xit
Ġeval uation
Ġmix ed
Ġdepos it
Ġchat b
Ġdipl om
Ġenab ling
Ġunfortun ately
9 7
b id
Ġb ang
Ġd ar
Ġlif t
Ġstrateg ist
Ġpract ical
xy chloroquine
Ġsens ors
Ġnar row
Ġtweet ed
Ġb iontech
ic ate
Ġal cohol
Ġse ats
Ġbr ian
one y
Ġhuman itarian
Ġcontract ed
Ġren tal
Ġsn ap
Ġmac ron
Ġarm y
Ġnut r
Ġanth ony
Ġs ides
ro y
Ġst ages
ch o
Ġj ur
Ġtr uth
Ġke l
Ġset s
Ġnational ities
Ġcond ensed
Ġrequire ment
ols on
Ġbit coin
part y
3 00
t ail
om ed
Ġfor th
Ġit em
Ġcon secut
Ġab road
Ġint ent
Ġadv ised
Ġsol ar
Ġdel hi
Ġhead s
Ġbur den
Ġneighbor hood
5 2
l b
n c
Ġc b
Ġw ages
en za
Ġf o
Ġd ark
Ġe ll
Ġst uff
ab a
Ġwill iams
Ġup t
Ġfin ished
Ġdr inks
Ġorgan ic
Ġpurch asing
Ġregard less
Ġmeaning ful
Ġneigh bour
Ġacknow ledge
Ġarrest ed
Ġsurf aces
Ġhou ston
Ġre ass
Ġre vers
Ġre liance
id ency
Ġhe l
ist ical
Ġbr ight
Ġban ned
Ġval ley
Ġpoll ution
Ġip o
Ġhydro xychloroquine
Ġcere mon
Ġm es
Ġd os
and markets
iv a
ant ic
Ġover s
Ġman ner
Ġpo ol
Ġjo se
hes ion
Ġcompon ent
Ġbab y
d is
h our
Ġ eric
Ġc ited
Ġp p
Ġf an
Ġb oun
Ġm u
Ġre ductions
ou th
Ġn ice
Ġco ord
Ġdr ill
Ġdr ag
Ġprodu cing
Ġdi abet
Ġii i
Ġcoal ition
Ġfarm ers
Ġaggress ive
b t
Ø Ń
Ġs ar
Ġs ending
Ġg h
Ġsp ar
Ġk its
Ġsen ator
Ġca ut
Ġcampaign s
Ġship s
Ġlib eral
Ġevol ution
Ġaward s
Ġvolunte ers
w is
al es
ol f
Ġk r
Ġ8 2
Ġrepresent atives
Ġcab inet
s pec
Ġt ay
Ġp oc
Ġe ag
Ġe lement
Ġst ood
st ore
Ġde em
Ġtr uck
Ġun us
Ġanaly ses
min ute
Ġassoci ates
Ġtherap ies
Ġfair ly
Ġmich igan
Ġdead line
Ġcrow d
Ġdeg rees
Ġobt ain
Ġcapit ol
b acks
g s
ou l
Ġcon ferences
Ġr am
Ġco ordin
Ġ8 8
Ġconcer ning
Ġlot s
Ġir aq
Ġdi am
Ã¡ n
Ġele ments
Ġbed s
Ġatl anta
Ġreck oning
Ġconsecut ive
Ġs i
Ġto w
id ays
Ġgen e
Ġwar n
Ġdef erred
Ġgre g
Ġcrit ics
Ġprincip les
Ġbreat hing
Ġprompt ed
w ith
Ġm cc
Ġmarket place
Ġ8 00
Ġcontin ent
Ġpow ers
Ġarg ent
Ġconsult ing
Ġlinked in
Ġaspect s
Ġsurround ing
u ador
Ġp ence
il a
Ġj ac
her lands
um a
ĠâĢĿ )
Ġind irect
Ġaf ghan
ind ing
Ġinst all
Ġlow s
Ġannoun ces
Ġactiv ists
Ġste ve
Ġrele ases
Ġhygi ene
5 1
t c
Ġt ast
on ic
Ġn an
Ġsh o
Ġlo ved
Ġlo yal
Ġfe e
Ġgovern ors
Ġnet herlands
Ġform al
Ġappro aches
cl in
Ġstand ing
Ġhol ly
Ġsn ow
Ġremo ved
Ġviet nam
Ġcaut ious
a Ã§Ã£o
Ġe ps
ac le
Ġj er
Ġch am
Ġpl as
Ġed ition
Ġpar ks
Ġref er
Ġhospital izations
Ġbor n
Ġdecl ining
Ġterr or
Ġconvers ations
Ġagricult ure
Ġe at
et t
Ġpro of
Ġch art
Ġint ens
Ġup side
Ġpol ls
Ġsy ria
Ġ9 6
ene z
Ġche ap
Ġput in
Ġfurther more
Ġsuc ceed
Ġaud it
Ġinflu enza
ĠĠĠĠĠĠĠĠ ĠĠĠĠĠĠĠĠ
Ġevalu ate
Ġcomplic ations
Ġincl usion
Ġguarant ee
l ie
r um
Ġw il
Ġan g
Ġl ie
ur ies
Ġcon clus
if ies
Ġact ors
Ġla id
Ġ9 8
Ġexpect ing
sh ore
Ġjob less
Ġ23 1
Ġessential ly
Ġsens itive
Ġflex ible
yl v
Ġattract ive
l ife
ä ¸
Ġs ac
Ġb and
Ġb bc
st age
ment al
Ġse af
Ġro w
Ġlo ad
Ġcommit ments
Ġpurch ased
Ġoptim ism
Ġmag n
Ġdevast ating
5 3
m y
ã ģ
ro l
Ġacc omp
Ġsur pass
Ġgu ess
br idge
Ġmy self
Ġcal end
Ġmot iv
Ġpen al
Ġchamp ion
Ġdynam ic
h it
l ink
Ġs ounds
on ia
Ġd ire
Ġg al
Ġco ol
Ġpl ays
Ġcont ents
Ġtime ly
enc ing
ns ylv
aw ay
Ġes cal
Ġbill s
ĠØ ¨
Ġdram atic
Ġazerbai jan
Ġhurric ane
Ġb io
Ġin hib
Ġex ists
Ġco hort
og ue
Ġfin ds
Ġvacc in
Ġins pect
Ġant ivir
Ġhom eless
Ġpen nsylv
Ġevol ving
Ġobject ives
Ġdiagnost ic
Ġalleg ations
z o
Ġa u
he m
re sear
is a
Ġbo om
Ġsec ured
Ġdemocr at
Ġarr ival
Ġindepend ence
Ġdut y
t ical
Ġg ift
Ġst ability
se ll
Ġno body
Ġar med
Ġcur ve
Ġvis iting
Ġbas ket
Ġvol unt
Ġtell s
Ġmac ro
Ġenh anced
Ġdisco ver
Ġwat ched
w oman
or der
is ure
Ġd in
Ġg aming
Ġfor d
Ġr us
ab is
Ġpr ince
Ġeduc ational
Ġsegment ation
Ġstrugg led
Ġfa ith
Ġphil ip
Ġaccept ed
Ġfundament al
Ġrout ine
b ar
Ġa ver
Ġv on
ant e
Ġ202 4
Ġk il
ist ing
Ġact ively
Ġrem ov
Ġcur rencies
Ġatt ach
Ġdet er
Ġgreat est
mon t
Ġdog s
Ġarchitect ure
Ġsurpr ising
Ġbure au
Ġpennsylv ania
p ay
p ol
y rene
Ã ¨
Ġv ig
qu ir
Ġrep ut
Ġ9 2
Ġprev al
Ġfact ories
pl us
Ġport s
Ġhal t
Ġadmin istered
Ġdistr ibut
Ġreflect ed
Ġprevent ing
Ġcommission er
Ġfun ctional
Ġtroub le
Ġthe ory
Ġp pe
or a
Ġl inks
Ġn ik
Ġwe ren
Ġ8 1
Ġdep ression
Ġstock holders
Ġsol ve
Ġrece iv
Ġlist ing
Ġsurvey ed
Ġgather ing
Ġpharmaceutical s
Ġemot ional
Ġspir it
Ġmun icip
at i
Ġm ap
Ġm oun
Ġd ream
Ġr ub
Ġsh ield
ok ed
Ġbr ut
ict ions
Ġbro ke
Ġpress ures
Ġsw ift
Ġjournal ists
Ġarg ued
Ġrac ing
ob ile
Ġdeploy ment
zer land
Ġpic ks
Ġtor onto
serv ice
Ġb p
ro oms
Ġr ic
Ġsp ons
Ġair ports
Ġmeas ured
Ġill ustr
Ġadvis or
Ġgl ass
Ġweb cast
Ġconclud ed
Ġcolomb ia
Ġhes it
Ġne uro
Ġres urg
av ir
Ġk ar
Ġen ables
Ġcl ubs
Ġstr uck
ec ess
Ġend s
Ġemploy er
Ġmain land
Ġchar les
Ġrenew able
Ġvictor ia
Ġadequ ate
Ġcann abis
Ġsuperm ar
f rom
i y
Ġ ÙĦ
on ed
Ġo l
Ġb le
Ġan onym
Ġcon ver
ab s
Ġsign ing
Ġdep ends
Ġsecond ary
Ġes p
Ġbar r
Ġmus cle
ĠØ§ÙĦ Ùħ
Ġpropos als
Ġcomplic ated
Ġamend ment
Ġpiv ot
s our
il ton
ol ine
Ġas ide
Ġ20 00
Ġad ult
ne um
Ġsub mitted
Ġimprove ments
Ġhous es
Ġarch ive
Ġsole ly
% ),
w art
on duct
Ġo mn
an es
Ġb ag
Ġto urn
Ġex it
Ġcomp r
Ġnot ing
Ġint ends
Ġacc um
eng al
Ġreal ize
Ġtyp ical
mic onduct
Ġbre aking
Ġtrust ed
Ġdiagn osis
Ġmigr ants
Ġimag ine
Ġt ips
he rent
Ġd ates
Ġwe ap
Ġcon vert
Ġhe ro
Ġab and
Ġk ent
ib ilities
Ġro ute
Ġsur ging
Ġput s
Ġcamp us
Ġaddress ing
Ġdiscl aim
Ġmut ations
Ġfrequ ently
Ġoutperform ed
Ġindones ia
) %
Ġm ck
Ġl ake
Ġse miconduct
Ġsh all
ag en
Ġbo ston
Ġret ain
Ġ9 4
Ġref erred
Ġcompet e
Ġhit ting
Ġste ep
Ġabs ence
Ġdoub led
Ġstruct ural
Ġbankrupt cy
Ġswit zerland
glob al
z y
Ġa x
or row
Ġg op
ail and
Ġapp end
Ġstud ied
Ġcur b
Ġread ers
Ġacqu ire
Ġgeograp h
Ġdram atically
Ġincred ibly
f s
n ot
p one
ic ent
Ġg ear
Ġcr ack
Ġcris es
Ġcontro lled
Ġden ied
crip t
back ed
Ġborrow ing
m ond
u y
Ġa w
Ġm ol
is d
Ġh ay
Ġis lam
Ġr iver
um in
Ġle isure
Ġcont est
Ġup gr
Ġsupp osed
crip tions
Ġpick ed
Ġsettle ment
r ight
Ġt ier
Ġp neum
ch s
Ġun ions
Ġfr anch
Ġear ned
Ġstart up
Ġbegin s
Ġhol idays
of i
Ġord inary
Ġbreat h
Ġdefic it
Ġcalend ar
Ġon set
Ġy ah
Ġim f
Ġdis miss
Ġrem ark
Ġfl ag
Ġins ure
Ġsust ained
Ġadop t
Ġweak ness
Ġdisco vered
Ġmigr ant
Ġtit le
Ġcomput ing
Ġple ased
Ġgir ls
Ġlawy er
Ġappend ix
Ġt ables
Ġre im
Ġg am
ad hesion
am ide
os en
oc y
Ġdis s
Ġpart ly
Ġrep ay
Ġke vin
Ġval ued
Ġform at
Ġlab el
Ġfood s
Ġste ven
Ġmus k
Ġec uador
Ġcharacter istics
Ġbeaut y
f ront
n d
Ġt ip
it ivity
Ġb rent
Ġd ies
un k
ian g
Ġ[ ...
other ap
Ġbro ker
Ġtour ists
Ġdemonstr ated
apol is
Ġdeem ed
d ep
Ġt ed
in i
Ġp u
Ġin box
ar c
Ġl in
Ġv enez
op ol
Ġinc ident
Ġinter medi
Ġmor ris
Ġdeliver ies
Ġmis information
Ġclean ing
Ġlic ens
Ġfavor able
Ġcert ific
Ġequival ents
Ġimmigr ation
Ġprefer red
Ġsout heast
Ġdiabet es
b ro
Ġt ies
Ġa k
Ġs d
Ġs oph
Ġf lying
Ġb odies
Ġb engal
ic an
Ġst ations
Ġr ay
Ġr aces
Ġat m
Ġun p
Ġpres idency
ang es
Ġauthor ized
Ġvot ed
Ġsevere ly
Ġhon est
Ġdiversity inc
Ġdoz en
Ġcolumb ia
Ġjur isd
8 4
Ġf er
ot he
00 00
Ġper mission
Ġris en
Ġtom orrow
Ġapprec iate
Ġseaf ood
resear ch
Ġw ang
ion e
Ġg ulf
Ġst er
Ġr na
Ġj u
Ġstr ing
Ġgr ap
Ġcare fully
Ġequ ities
Ġhard ware
ator ies
Ġindic ate
Ġcho ices
Ġlimit ations
Ġexclud ed
Ġcrow ds
Ġdut ch
Ġtrig ger
Ġbub ble
Ġilleg al
g ets
Ġt ear
Ġp ill
Ġin ev
il ateral
Ġex amples
ge red
Ġtr ips
Ġam ended
Ġrepresent ed
Ġnas a
Ġrid ers
Ġentreprene urs
5 4
6 1
Ġb ain
Ġpro minent
Ġex acer
Ġch ile
Ġlo b
Ġass ume
Ġrep urch
Ġstud io
Ġpost s
Ġcontain er
Ġkore an
Ġdeploy ed
Ġcapt ure
Ġvend or
coun try
Ġvenez uel
6 00
7 00
Ġp and
ic i
Ġth ailand
Ġsh ale
Ġle wis
Ġif rs
Ġsupp lier
Ġvis ibility
Ġprom ised
Ġgas oline
oph arm
Ġok ay
des ivir
ht ml
Ġadm issions
c ol
s m
t est
Ġt ank
Ġg at
Ġst uck
ir ds
Ġcomp ound
Ġpe ers
Ġ9 7
Ġpost pone
Ġsit uations
mar ch
Ġbas ically
Ġbreak through
Ġlouis iana
Ġoh io
Ġyah oo
Ġo w
Ġe ased
ot on
th is
Ġcor ner
Ġag ents
Ġar ts
Ġbar b
Ġmult im
Ġphys icians
Ġfast est
Ġfle et
Ġped iatric
lett ers
Ġexacer b
6 2
v ard
Ġt ally
in duced
Ġs essions
Ġun e
Ġte en
Ġrem desivir
Ġent ities
Ġstock p
Ġmat the
Ġdistr icts
Ġmil est
Ġlaun ches
Ġmanufacture r
Ġaccur acy
Ġpregn ant
Ġassemb ly
Ġbatter y
Ġdiam ond
Ġj osh
Ġch f
Ġdr ives
Ġsub mit
Ġshould n
Ġbar riers
Ġcorpor ations
oll ar
Ġcitizens hip
Ġtemper atures
Ġelev ated
econom ic
a Ã§Ãµes
p df
t or
Ġc ares
Ġdr awn
Ġserv es
Ġann ually
Ġmem ory
Ġspec ies
Ġcomple tion
Ġfall s
Ġbi as
Ġcat aly
Ġfit ness
Ġven ues
Ġpetro le
Ġft se
Ġelectron ics
t ax
y pt
Ġp ure
Ġb oss
Ġr h
Ġj ack
Ġrec y
olog ists
Ġnews letters
Ġatt ended
Ġdeb ut
Ġfocus es
Ġbroad ly
Ġrespond ing
Ġviol ent
Ġsurv ival
Ġqual ified
Ġshif ting
eff ect
Ġfurl ough
Ġingred ients
Ġtariff s
Ġplas ma
d y
o ly
Ġm p
Ġh its
Ġl g
Ġg ates
Ġper m
Ġme i
Ġsign al
Ġsoc iet
Ġresearch andmarkets
Ġcontr ibutions
Ġref used
Ġmove ments
Ġjournal ist
Ġarg ue
Ġappe al
Ġteac her
Ġconfirm ation
Ġsubsidi ary
p ost
Ġw aves
Ġp air
an o
ur u
Ġst ars
im m
Ġpro long
Ġsa Ãº
Ġ' ,
ile ad
Ġdr aft
Ġsw iss
Ġhard est
Ġautom ated
Ġboost ed
Ġaccoun ted
Ġborrow ers
Ġresol ution
Ġmerc k
Ġincorpor ated
Ġantivir al
Ġpetrole um
a is
h ab
Ġc ow
Ġp cr
al f
Ġad j
Ġnot ably
Ġmar ine
Ġres ign
Ġcont am
Ġplan e
Ġcre ates
ades h
Ġinstr uments
ĠsaÃº de
r ich
t z
Ġ ess
Ġp ause
Ġp ump
Ġd ro
Ġre act
Ġfor g
Ġgo d
Ġdis ast
Ġint ention
Ġimp ress
Ġcur bs
Ġsim on
Ġlif ting
Ġenviron ments
rup tion
Ġcop e
Ġsan ofi
Ġcoop er
Ġabb ott
Ġcov ax
a j
Ġo re
Ġp as
Ġp ent
Ġh ack
Ġde fe
Ġas h
Ġy uan
ac ies
Ġse m
Ġun n
Ġab ort
Ġpr int
Ġthem e
Ġfund ed
Ġmod est
Ġsu it
Ġhop ed
Ġkind s
Ġnort heast
Ġscr ut
Ġhon or
Ġepis ode
Ù ī
re tion
Ġp ak
Ġb ern
ad i
ate ll
Ġdis pro
Ġhelp ful
Ġannoun cing
Ġperform ing
Ġdisc oun
Ġdisc ip
Ġprofit able
Ġreview ed
Ġacceler ating
Ġlib ert
Ġdefin ition
a ire
n ology
Ġc bs
id ad
Ġg lo
iv o
ant ly
ast rop
od es
Ġdon ations
Ġfl uct
Ġfl ags
Ġdet ention
hest er
bn b
Ġho le
Ġcommod ities
gro up
Ġnur se
6 3
e f
h l
l if
m c
s ite
Ġt act
Ġf ib
Ġf ish
ow ed
Ġsa chs
ks hire
Ġz h
be an
Ġdepart ments
Ġrespect ive
Ġhy per
Ġfront line
Ø§Ø ª
Ġdur ation
Ġissu ance
Ġpreca utions
Ġafghan istan
l ast
Ġc rop
Ġp ension
Ġf oss
Ġtr ained
em pts
we i
Ġshort ly
Ġdisc ount
Ġli ability
Ġfall out
Ġportfol ios
Ġ199 0
Ġpan ic
Ġfort un
Ġprompt ing
Ġoutdo ors
Ġopp osed
Ġmole c
i ated
n is
s ized
Ġc ub
Ġg ilead
ct or
Ġtr ib
ab led
Ġ7 00
Ġev ac
Ġoffic ially
Ġpress ing
cept ion
Ġtal ked
Ġclin ic
Ġprep aration
Ġarr ive
Ġpers ons
Ġsubstant ially
Ġpil ot
Ġgree ce
Ġwip es
Ġacknowled ged
Ġdiscr imination
Ġsymb ol
Ġtay lor
b al
w ar
he im
Ġwh oles
Ġun ch
Ġme re
Ġsome what
Ġ] ,
Ġbro ken
Ġslow ed
Ġslow down
Ġrenew ed
Ġfat igue
Ġshif ts
Ġpoly amide
ing ly
ic ious
et te
Ġpro ved
Ġal ph
Ġsa ving
iz z
Ġdis pl
Ġsee ks
Ġcongress ional
Ġexcept ion
Ġinj ury
Ġvill age
Ġresurg ence
Ġs atell
Ġk ir
Ġcont em
Ġsur g
Ġsur ger
Ġ9 3
Ġaccording ly
Ġterm in
Ġfil ms
Ġmid w
Ġmom ents
Ġfeat ured
Ġsusp ected
Ġcat astrop
Ġod ds
clin ical
i ques
Ġin put
Ġd j
ch arg
Ġint ense
Ġsup erv
Ġbus y
Ġrem ind
Ġmed ian
Ġadv ances
ri end
Ġtre ating
Ġadvis ors
Ġmethod ology
Ġgrad ually
Ġalloc ated
Ġstruct ures
Ġpled ged
Ġtiss ue
Ġnutr ition
7 1
8 1
u ce
in vest
Ġc um
Ġw s
ing u
Ġg ig
Ġpro hib
Ġr on
ac ion
Ġj pm
Ġpr a
Ġper ce
Ġu ae
Ġgr app
Ġair bnb
Ġkeep s
Ġdeep er
Ġreb u
Ġter ada
d i
f c
p ret
in te
al le
Ġh ire
Ġn gi
Ġst one
ot h
Ġy e
Ġal erts
Ġpl ate
Ġameric as
Ġdef ault
Ġlet ters
Ġsus pect
Ġmedic are
Ġindic ates
Ġrac ism
Ġdiagn osed
Ġdiscl osed
bur g
Ġheadqu arters
Ġunus ual
Ġdispro portion
o z
o le
Ġh unt
et ime
Ġk y
Ġimp ose
Ġunder way
Ġ8 4
Ġ9 1
Ġatt empts
Ġfore st
Ġref erring
Ġaff ili
Ġbeh alf
Ġwebs ites
Ġhost s
Ġdipl omatic
Ġoun ces
Ġmultim edia
k m
Ġs ant
Ġl ad
Ġn ig
Ġg aps
Ġbe verage
Ġr ivals
Ġcomp ly
Ġwas h
Ġimp lied
Ġpres erve
Ġinter vent
Ġvis ual
Ġcour ses
Ġ18 0
Ġcop y
Ġslow ing
Ġmaint ained
Ġimplement ing
Ġsurv iv
Ġconsist ently
Ġcam er
Ġshif ted
Ġprotoc ol
Ġjon athan
9 3
Ġa h
Ġb are
Ġm ale
Ġre tr
ak ed
Ġpo ore
Ġjo y
Ġanaly ze
Ġhand ful
Ġlabor atories
ĠØ ¹
bour ne
Ġcrypt o
Ġtheat ers
Ġceremon y
spec ific
Ġholly wood
a ug
f ir
f und
w al
Ġt um
Ġst abil
ak i
Ġag ent
Ġcr ash
ep ing
Ġlif est
go vern
Ġexpl os
Ġhope fully
ĠØ ª
Ġmess aging
Ġinvent ories
Ġincl usive
Ġgeograp hic
Ġresist ance
Ġware house
americ an
Ġfoss il
e i
i king
Ġt ied
is ms
id o
Ġexp ire
ll or
anc et
Ġcar ib
Ġdef ence
Ġ11 0
Ġnear by
Ġstay ed
Ġjournal ism
Ġposition ed
Ġbat t
Ġbud gets
Ġfab ric
, âĢĻ
8 3
h ous
l ord
s he
Ġc os
Ġp our
ul ating
op e
ak a
Ġen orm
Ġacc om
Ġso ared
Ġar ms
Ġshe ll
Ġph ones
we ight
Ġread s
Ġbro ok
Ġmet a
Ġlim iting
Ġob st
acks on
Ġship ments
Ġrob ots
Ġsuff er
ha ust
Ġevalu ating
Ġpull ed
Ġvirgin ia
Ġaggreg ate
Ġargent ina
v ada
Ġh amp
Ġl ies
op er
Ġnot able
art ic
Ġint end
Ġcoun ties
Ġinter action
Ġcar rier
Ġma h
Ġmod e
Ġactiv ist
bit ious
Ġpack ages
Ġchar ity
Ġunl ock
Ġdisrup ted
Ġterr itor
Ġbrazil ian
Ġdang er
Ġtown s
Ġbul k
7 2
h us
k ish
â Ħ
ç ļ
Ġ ÙģÙĬ
Ġd ying
et h
Ġad oles
Ġte aching
Ġlike lihood
Ġass am
Ġfinanc es
Ġtrad es
Ġident ifying
Ġhar vard
Ġcontain ers
Ġfavor ite
Ġhor izon
gu ard
Ġsurpr ised
Ġexcell ent
pres ident
çļ Ħ
7 4
f i
Ġh at
Ġse l
Ġex haust
Ġpr ize
Ġcont ing
Ġover come
Ġact or
Ġgot ten
ÙĬ Ø©
Ġhost ed
Ġinstr ument
Ġmel bourne
........ ........
Ġstan ley
Ġintel lect
Ġautonom ous
olson aro
c ase
z en
Ġp ac
Ġe ating
Ġn ike
Ġis lands
Ġtr ick
el and
Ġmarket watch
Ġrep lic
20 24
ocus ed
Ġdifficult ies
Ġparticip ating
Ġbook ing
Ġshutdown s
Ġintervent ions
Ġcarib bean
Ġh ang
Ġmo sc
Ġk ne
Ġqu iet
Ġam bitious
Ġcont aining
Ġoff shore
20 200
man n
Ġnon profit
Ġhere in
Ġterm inal
Ġlat ter
Ġ200 7
Ġmil k
Ġspecial ist
Ġachie ving
Ġdivid ed
Ġintellig ent
Ġsusp ension
Ġmov ies
business wire
otherap y
Ġo tt
Ġf urn
Ġin ability
Ġ'' ),
Ġme als
Ġkn ock
Ġtrave ling
Ġel iz
Ġ13 0
ik a
Ġfail ing
Ġexc iting
Ġtele phone
Ġhor r
Ġalex ander
Ġreput ation
âĦ ¢
Ġmosc ow
f oot
Ġf ool
Ġn fl
om en
ment ed
Ġv it
Ġr ush
Ġam pl
Ġpandemic s
gr y
Ġgr ab
Ġevery where
Ġrestric t
Ġrecomm ends
Ġfun ctions
Ġdest roy
Ġisol ated
cont in
Ġproceed ings
Ġunderst ood
Ġaccom pl
r ian
Ġb olsonaro
Ġh ua
us et
Ġfor cing
ul ative
Ġj ackson
Ġbr us
Ġtw enty
Ġpub lis
ach uset
Ġdet ained
ph y
de f
Ġtit led
Ġeth nic
Ġconstant ly
Ġrecr uit
Ġmei wa
achuset ts
b orn
d am
d ose
Ġt ik
in er
Ġs ed
ro c
Ġl ived
Ġg av
ad el
igh ter
Ġk l
ĠĠĠĠ Ġ
Ġvis a
Ġart ists
ins on
Ġmil an
Ġinvol ves
Ġdisrup t
Ġroll ed
Ġrecover ing
Ġfeed back
Ġsynd icate
Ġpurs ue
9 1
d ollar
Ġthe ater
Ġd c
Ġn bc
Ġg aining
Ġpre ced
Ġsy st
Ġpat rick
Ġplan es
Ġ12 5
Ġdef ine
Ġmass achusetts
Ġresearc her
Ġbook ings
Ġland lord
Ġwrit er
Ġchance llor
Ġventil ation
Ġvolat ile
Ġoverwhel med
elect ion
Ġerr or
Ġarrange ments
Ġfacilit ate
Ġjew el
Ġgat hered
Ġmatthe w
c ost
e g
h att
Ġs om
Ġc v
Ġp hen
Ġf ost
Ġto il
Ġh an
Ġre jected
et r
Ġr ans
Ġj am
oc ur
Ġad s
Ġad ap
Ġinter actions
int on
Ġdef end
Ġmem o
Ġsaf er
Ġmill er
Ġarr iving
Ġspokes woman
Ġcritic ized
Ġlic ensed
Ġtro ops
Ġstress ed
Ġbelg ium
Ġp ending
Ġd Ã©
Ġn u
om es
ly n
Ġr io
Ġwh it
Ġbr as
Ġtrans f
Ġdes ire
Ġchrist ian
Ġdemonstr ate
Ġexcept ional
Ġwindow s
Ġprote ins
Ġapart ment
Ġstrengthe ning
Ġkel ly
Ġsemiconduct or
Ġsurg ical
c ur
f ocused
n ia
t own
ï ¼
Ġs v
Ġs her
Ġc s
Ġin herent
Ġcom o
Ġr c
Ġr anging
Ġpe er
ok ing
erg ies
ind ia
Ġgr ades
Ġent re
Ġexec ution
Ġsympt om
oot h
Ġinvestig ate
Ġroad s
Ġsepar ation
Ġconv ent
Ġconv ention
bur gh
Ġrs quo
nr nr
Ġinterv ention
Ġvolunt ary
Ġwholes ale
8 2
c ash
Ġf ired
Ġn bs
ment e
Ġam c
ors hip
Ġher d
Ġwar nings
Ġprotect ions
Ġhead ed
Ġart ist
Ġstep ped
Ġslow er
Ġque en
Ġindic ators
Ġ199 5
Ġfoot print
Ġselect ion
Ġweb in
Ġdest r
Ġinsp ired
Ġmount ain
Ġatm osp
c hers
p an
Ã «
Ġw ine
Ġf ant
Ġand ro
Ġl yn
Ġst ag
Ġon tar
ir ates
im o
Ġexp lic
are l
Ġacc r
Ġpay able
Ġsocial ly
Ġwar ren
Ġli ver
Ġur ging
Ġaddress ed
Ġcomment aries
Ġthreat ened
Ġnor way
yl um
Ġadapt ive
Ġtrig gered
Ġsudden ly
Ġcrypt ocur
Ġprosecut or
Ġintellect ual
b ul
ð Ł
Ġd im
Ġe cho
Ġup per
Ġknow ing
Ġhal ted
Ġmult ip
Ġseason al
Ġamb ass
Ġetf s
Ġcontribut or
Ġinflamm ation
Ġcontag ious
Ġtast e
. '
v als
Ġb uck
Ġm all
Ġto ug
Ġre ward
Ġco ach
Ġcons ists
Ġatt ending
Ġref und
Ġlock ed
Ġplace bo
Ġjan e
Ġview ed
Ġstat istical
Ġfis her
Ġattr ibuted
Ġcommunic ate
Ġlib rary
Ġcalcul ations
Ġlung s
Ġib m
Ġfrequ ent
Ġgree k
Ġinequ ality
Ġdeter ior
Ġws j
Ġnbs p
p al
Ġh s
Ġg ut
st one
Ġas ylum
Ġj en
if ul
um er
Ġdis abilities
for ced
Ġstr ains
Ġinter pret
Ġbl ame
Ġfam ous
Ġpass ing
Ġra ises
hen tic
Ġmigr ation
Ġcam era
Ġempow ering
f ast
m ay
Ġb ac
Ġst yle
Ġv ou
Ġ202 6
anc he
Ġdem ograp
Ġsim pl
Ġadjust ment
Ġwed ding
Ġpoin ting
Ġwal king
Ø§Ø ±
Ġspect rum
Ġempow er
Ġroc ket
worth y
Ġhua wei
l ock
Ġb ound
Ġn g
Ġfor get
st ep
im a
Ġwe aker
ate ful
Ġout lets
Ġper mitted
Ġro utes
Ġinter active
Ġpat ent
Ġgr aph
Ġcollect ions
Ġball ots
abet h
Ġcontinu ity
Ġoverwhel ming
Ġprolong ed
Ġtik tok
Ġsyst emic
Ġontar io
i el
Ġ ~
an aly
Ġg ate
et he
ul s
el low
Ġad am
Ġsc ene
Ġris es
Ġmin ute
com ed
Ġpar am
Ġcare ful
Ġinfect ing
Ġes cape
Ġleg it
Ġmembers hip
Ġturn s
Ġcelebr ate
Ġclim b
Ġdepend ent
Ġdiagnost ics
Ġfu els
Ġlawy ers
Ġpreval ence
l arg
Ġs ister
en ia
an th
Ġm t
Ġm Ã¡s
is ive
st ock
op in
Ġch ances
Ġle ban
Ġshe d
ne apolis
Ġ10 5
Ġsal ary
Ġz ones
Ġtop ic
Ġdel iber
Ġpolicy makers
Ġabs ent
Ġobject ive
Ġmechan ism
Ġplun ged
Ġgrap hic
Ġc c
Ġw ins
Ġd un
Ġne vada
el a
ll ers
Ġreg ime
Ġpat tern
Ġappro vals
Ġelect r
Ġge opol
Ġcontract ing
af ter
Ġec b
Ġlaunch ing
Ġwel comed
Ġic u
Ġfield s
Ġpromot ions
Ġsand ers
Ġdre ams
st en
ir t
Ġr ing
Ġch ips
Ġdis order
Ġper u
Ġback log
Ġgu y
Ġdirect ed
Ġext ending
Ġcal c
Ġtre m
Ġca f
Ġinnov ations
val ue
Ġver tical
Ġcontain ment
Ġmis leading
Ġsubst it
Ġcanad ians
Ġseat tle
Ġpromot ing
Ġske pt
f ire
r ix
Ġt m
or p
Ġin quir
Ġan c
Ġd ent
Ġh az
et ed
ut ing
âĢĻ ,
Ġse am
Ġle v
ip t
Ġag es
Ġwhere as
Ġche n
Ġsu ic
vere ign
Ġconnect ions
Ġamaz ing
Ġcook ie
Ġkit chen
Ġshap ing
Ġwarr ant
Ġpneum onia
b iontech
ã Ĥ
Ġ Î
Ġs r
on ly
ar ity
Ġto ler
Ġn ative
Ġg er
un ction
Ġmin neapolis
Ġrel uct
Ġent r
Ġimpact ing
Ġcar l
Ġval uations
Ġsol ic
Ġwar ns
Ġspe aker
sh ot
sc he
Ġpersonal ized
Ġconstr uct
Ġreve als
Ġaltern atives
Ġtas ks
Ġindo ors
Ġpie ces
Ġappoint ment
Ġjpm organ
% ).
d el
d rop
Ġ iron
Ġb h
Ġm n
Ġd rew
Ġand re
Ġh u
Ġch osen
Ġsp in
ans as
Ġpr ide
Ġper pet
Ġro che
Ġsc and
old s
Ġinter act
Ġequ ally
Ġsouth west
Ġscient ist
Ġphys ician
pa id
Ġdescrib e
amb ling
Ġevol ve
Ġvo ices
Ġadvert ise
Ġreform s
Ġbirth day
Ġves sels
Ġdav is
Ġtourn ament
l an
Ġt rop
Ġp up
Ġbe ver
Ġch ick
Ġso vereign
Ġimportant ly
Ġtrack er
Ġtele health
Ġcard i
Ġprec ise
iam i
Ġnom ine
Ġcontribut ing
Ġtra ject
Ġprosecut ors
Ġdesper ately
Ġrans om
o il
t able
Ø ¬
Ġ ÙĬ
Ġp ound
an ing
Ġr um
Ġab uses
Ġar bit
Ġpo ised
Ġdes k
Ġaut hentic
Ġfl ip
Ġdist ingu
less ly
Ġamoun ted
Ġcontinu ously
ĠÙħ ÙĨ
Ġincent ives
Ġanalyz ed
Ġtransplant ation
Ġcham ber
Ġenorm ous
d og
m od
Ġa qu
in n
Ġc er
Ġc ure
Ġin oc
Ġm iami
Ġn ick
Ġfor med
th irds
os ures
Ġle ases
Ġso bre
Ġcomm and
Ġsc an
Ġrem ed
Ġdes erve
Ġent hus
ivers ary
Ġdemand ing
Ã© r
Ġcompet ing
Ġguid ed
che ck
Ġpick ing
Ġreve al
Ġpict ures
Ġcrow ded
Ġappo inted
Ġscott ish
Ġtranspa rent
Ġkil omet
dep th
Ġimpress ive
Ġunch anged
larg est
d ist
h um
Ø ¶
Ġm anc
Ġre iter
ol ly
Ġcon ce
Ġtr acks
Ġun w
ak h
Ġdis par
Ġcl uster
Ġapp arel
Ġunder wr
Ġcap able
rop ol
Ġcur fe
Ġfore see
Ġrece pt
Ġdist ress
Ġ200 3
Ġaim ing
Ġpopular ity
Ġmal ays
Ġwat ers
Ġquant itative
Ġguarant ees
Ġcaution ed
Ġenab led
Ġclar ity
don ald
Ġfranch ise
Ġlifest yle
g re
m obile
Ġf illed
is se
ro us
Ġj in
os i
os hi
ap ed
ack ed
Ġem bed
ne red
Ġcol on
az a
Ġbro ws
Ġpros per
Ġmex ican
ria ge
Ġweight ed
Ġclot hing
Ġexperiment al
Ġintrodu ce
Ġstret ch
Ġ ug
Ġc ad
Ġb ip
Ġm l
Ġre verse
Ġv a
am i
res hold
Ġinc urred
Ġcl ock
ens ions
Ġoper ated
Ġgr ateful
Ġaccess ibility
Ġhead lines
Ġbas eline
Ġli kes
Ġindic ator
Ġut ility
Ġcitiz en
Ġenjo ying
Ġventil ator
Ġincred ible
igen ous
Ġlg bt
Ġscrut iny
c ore
d ra
j p
Ġw et
Ġd na
Ġwe lf
Ġr mb
em ia
Ġmar ried
Ġi ot
Ġacc ident
Ġann iversary
Ġexpl oring
Ġintegr ate
Ġadvis ers
Ġmur phy
Ġdraw ing
Ġsatisf action
Ġinstruct ions
Ġunve iled
Ġdro ve
Ġeliz abeth
Ġtrem end
Ġwelf are
g rowing
p age
in ter
it an
Ġin r
Ġm i
Ġth reshold
Ġg iants
Ġcom ed
Ġab e
Ġle aves
ail ing
Ġwin ners
Ġbre ach
sw ire
Ġgreen house
Ġje an
Ġpick up
Ġten ants
Ġtradition ally
Ġflu id
Ġrepl ay
Ġagricult ural
Ġproper ly
Ġul tra
comm un
Ġjose ph
u its
in f
re ll
Ġo c
Ġw ard
al in
Ġh id
Ġth or
ol ic
Ġr he
Ġj ord
Ġqu art
Ġsc ores
Ġact s
Ġrel ation
Ġwell ness
Ġsm ell
Ġent it
Ġdep r
Ġche aper
Ġdisc retion
Ġregul ator
Ġwood s
Ġpel oton
Ġimmigr ants
Ġchampions hip
Ġinflamm atory
Ġbelief s
controll ed
Ġresum ed
Ġspar ked
Ġinsure rs
Ġcataly st
Ġpak istan
Ġnig eria
Ġambass ador
c ard
l aw
Ġp ad
Ġsh ad
Ġcomp are
Ġbl oc
Ġprof iles
Ġaccess ing
Ġvis ited
Ġsug ar
Ġemail s
Ġindic ating
Ġenc oun
Ġsoon er
Ġcolle ges
Ġsmart phone
Ġchrist op
Ġjud g
Ġmut ual
cons in
Ġdub ai
Ġgard en
Ġvig il
Ġkent ucky
hatt an
p in
u ated
Ġp ione
Ġin mates
Ġ9 00
Ġdep th
aw are
Ġorganiz ers
Ġindex es
ino is
Ġrecommend ation
Ġsett led
Ġexam ine
Ġperman ently
f riend
l on
ar r
Ġd ive
ot o
ud a
ag on
Ġpart ial
Ġman hattan
Ġpol ling
Ġtechn iques
Ġdecl aration
Ġconnect ivity
Ġforeign ers
Ġrebound ed
Ġappoint ments
Ġcha os
Ġrall ied
Ġweap ons
e a
Ġt y
ic on
im ents
Ġy ang
ter ing
Ġcoun ts
Ġass urance
Ġwar s
Ġhospital ization
Ġmat ches
Ġclaim ing
Ġprogress ive
Ġsepar ately
Ġpredict ions
perform ing
Ġswe et
dem and
Ġbarb ara
Ġperce ived
Ġtraject ory
Ġc ath
it ud
Ġm amm
Ġh ug
Ġ'' ).
Ġacc us
Ġass ault
Ġla u
Ġdon ors
Ġtim eline
Ġcour ts
Ġden mark
Ġaccept ance
Ġdest inations
Ġaccur ately
Ġmad rid
Ġresort s
Ġsor ry
in ting
Ġo sc
Ġm ines
Ġd ans
Ġis t
Ġy ellow
Ġj ess
Ġj ab
Ġsa ved
Ġab r
Ġbut ton
Ġimp e
Ġcoronavirus es
Ġpol and
Ġcap ability
Ġpass ion
nes ota
Ġsl a
Ġagree ing
Ġcollect ively
gen eral
Ġrob in
Ġarg ument
Ġsusp end
Ġeb ola
eu rope
Ġcancell ation
Ġboun ce
Ġcontam inated
c ut
f our
o h
v o
z one
Ġt am
Ġs id
Ġf argo
Ġl iv
et o
et her
Ġon c
ation ally
Ġop ens
Ġsc ar
Ġear ning
ell a
Ġrep orter
Ġnews om
Ġnews wire
Ġemploy ed
Ġprop ri
Ġ16 0
Ġcontract ion
Ġgold en
Ġhar ass
Ġconsult ant
Ġlaws uit
Ġresol ve
Ġball ot
Ġatl antic
Ġwis consin
r ate
Ġf ake
ro ck
Ġh r
Ġl apt
Ġv out
Ġal ber
Ġmo s
ain e
Ġk h
Ġup s
Ġso aring
Ġcas ual
Ġmin nesota
Ġrel atives
Ġsign als
Ġent ity
Ġwar ming
the less
ov a
Ġpriv ile
Ġmic hel
Ġwal ked
Ġquarant ined
Ġult imate
Ġcontrovers ial
Ġlever aging
Ġmoun ting
Ġgeopol itical
b ucks
Ġa ven
Ġp ages
Ġd all
ro up
ig o
th ink
Ġch ase
Ġcomp uters
Ġint angible
Ġthere in
Ġcons ent
Ġwar m
Ġfar ms
Ġexec ute
Ġdrop ping
Ġtele gram
Ġappear ance
Ġassess ed
Ġblock ed
Ġdest ination
Ġillness es
Ġcro re
Ġsubsequ ently
Ġsport ing
Ġconven ience
dig it
Ġelimin ate
link er
inte rest
s ed
s app
Ġt ab
Ġs amp
Ġc art
at ar
ar us
Ġre na
Ġn sw
ve y
ig hed
Ġr t
Ġinv ited
Ġcr unch
ang er
Ġlast ing
Ġcur tail
Ġgr id
Ġsoc cer
Ġgood will
pl aces
Ġport ug
Ġdistr ibute
Ġgener ations
Ġdist inct
Ġbi opharm
Ġque ens
pro duct
Ġnever theless
Ġboost ing
Ġconsider able
Ġmob il
Ġinvestig ating
Ġengine ers
Ġdomin ant
Ġefficient ly
Ġadvoc ates
Ġprin cess
Ġrobot ics
Ġbengal uru
b ec
ã Ģ
or ous
Ġb anc
Ġb acter
Ġd ict
Ġto uc
Ġg p
tr ans
ust in
ist a
Ġ3 50
Ġ0 9
Ġsus cept
Ġep icent
Ġautom atically
Ġvulner ability
Ġchec king
Ġvp n
win ning
Ġhaw ai
Ġsurger y
Ġjewel ry
Ġtoil et
Ġmanc hester
b ear
Ġc umm
Ġl ind
im adas
ch i
Ġco gn
Ġk am
Ġem irates
Ġro s
Ġbr id
enc ia
Ġher self
Ġair ways
Ġconf usion
Ġelect oral
Ġemerg ence
ph ones
Ġannounce ments
Ġmot ors
Ġblock chain
Ġrepl aced
Ġip h
Ġincent ive
Ġdisclaim er
Ġremark able
Ġphen omen
d ec
g iving
j e
s up
t im
w ashing
Ð »
en er
Ġp ess
Ġp itch
Ġre feren
Ġn erv
Ġbe ating
ac ional
Ġres erv
Ġpr isons
Ġint ers
Ġind igenous
Ġinv asion
Ġstr ip
Ġdec ent
Ġfinancial ly
Ġbel ong
Ġtotal ed
Ġgener ating
Ġconstr aints
Ġconduct ing
Ġspot light
Ġcolor ado
Ġcorrespond ent
Ġbn t
Ġtot ally
Ġovers ight
Ġmorris on
Ġabort ion
Ġadoles c
d os
g ering
m ine
Ġb old
Ġm alls
Ġm apping
Ġl unch
ur ally
ul ations
Ġtr ucks
Ġqu ito
Ġdis orders
Ġapp et
Ġcons pir
Ġwhat sapp
Ġincre mental
Ġsal aries
Ã© e
Ġbenef ited
ra id
Ġindic ation
16 2
Ġunemploy ed
Ġconsolid ation
Ġassum ing
Ġexclud es
Ġber kshire
Ġmemor ial
Ġconvert ible
Ġrebu ild
Ġbrus sels
Ġcumm ings
a o
ed s
Ġd ave
Ġre lying
ge l
vid e
Ġcr imes
ult ane
Ġrel ies
Ġ10 6
osp ace
Ġappro ve
Ġmet ers
Ġperson ally
str uct
Ġsl ack
Ġvari able
wh o
Ġut ilities
Ġpen etr
Ġdemonstr ators
Ġconc ert
Ġfort une
Ġmechan isms
Ġbehavi ors
Ġexceed ed
Ġveter an
Ġupt ick
Ġaccomp any
c f
d ata
n an
t es
ä º
Ġm ul
Ġan ger
is c
Ġre actions
Ġg ang
Ġun rest
Ġmar sh
Ġmar riage
av or
Ġsp ots
Ġcor n
Ġcr az
Ġbet ting
Ġsub ur
co ver
Ġadv ancing
Ġsen ators
Ġsim ultane
Ġfed eration
Ġste ad
Ġcoll aps
fol low
Ġhope ful
Ġwind s
aut hor
Ġfat alities
Ġsolid arity
Ġswe eping
Ġthr ive
Ġts x
Ġeg ypt
pat ient
Ġliter ally
Ġmolec ular
Ġandro id
b es
r it
Ġ :
Ġa ce
Ġw o
it ure
Ġh ots
Ġl ig
Ġn ich
ir ation
Ġqu ot
Ġcor k
ec d
Ġcons c
ach ment
Ġ7 50
Ġbo b
Ġsm es
Ġfact set
ÙĦ Ùī
Ġfeat uring
Ġdam aged
bor ne
Ġfuel ed
Ġwealth y
Ġpeace ful
Ġpsych ological
Ġbeaut iful
asc ular
Ġapparent ly
Ġwithdraw al
wind s
Ġsar ah
Ġbip art
c les
h igh
j i
Ġt ie
Ġf red
om er
st ers
ig ating
Ġpro x
Ġpl umm
Ġup ward
Ġaf raid
Ġass igned
Ġtrans it
Ġgu ys
air y
Ġant igen
Ġloc ally
ah am
Ġbar ron
just ed
Ġmus lim
Ġexpl an
Ġide al
Ġquestion ed
Ġstar bucks
Ġconvers ion
Ġaward ed
Ġcert ified
Ġmilest one
9 2
e ed
Ø µ
Ġt umb
Ġa uf
ed ing
Ġl ar
Ġbe er
Ġch s
Ġch ose
Ġcomp iled
Ġrec all
Ġsystem atic
Ġbenef icial
Ġsl am
Ġdeal ers
Ġprom ises
Ġill inois
Ġtrack ed
Ġstrugg les
Ġcover ings
Ġattend ance
ev a
Ġtherapeut ic
Ã¼ r
Ġrefuge es
Ġpropri etary
k ers
l arge
u ke
u ant
z h
Ġt ent
ed ited
Ġh ate
Ġh ud
et er
se ment
av ax
Ġbr on
Ġrest ore
Ġfund ra
Ġpar king
Ġfol ks
Ġmet ropol
ienc ies
Ġboard s
Ġequip ped
Ġtur kish
po ints
Ġachieve ments
Ġproced ure
Ġinvolve ment
flow s
Ġdesper ate
Ġmerch and
Ġchatb ot
Ġjer ome
Ġaccum ulated
Ġrecy cl
Ġbever ages
Ġchristop her
Ġhots p
g ar
re te
Ġc t
Ġf ires
al i
Ġan s
Ġd or
Ġg olf
and ed
Ġtr ace
Ġcoun sel
Ġinter ior
li est
Ġdat as
Ġdevelop er
Ġfore most
Ġeng aging
Ġcontro lling
Ġhuman ity
Ġvis ible
Ġclin ics
Ġassess ing
Ġhost ing
Ġrepe at
Ġpurs uant
Ġcro wn
Ġvac ation
Ġsupplement al
Ġarrange ment
Ġluc rative
Ġshoot ing
Ġcomprom ise
Ġinject ion
Ġloyal ty
Ġconvent ional
ĠÎ ¼
Ġlgbt q
Ġjord an
l ims
y ork
re ct
Ġs izes
Ġo wing
Ġd ump
Ġl ists
Ġn iss
Ġdis ability
Ġdon ate
Ġgu est
Ġcommun ist
ĠĠĠĠ ĠĠ
Ø§ ÙĨ
Ġdifferent ly
Ġcal m
Ġsl ipped
Ġmid st
Ġspe aks
Ġvari ations
Ġdesign ers
Ġsix th
Ġprep ar
Ġdou g
Ġclass room
Ġtele com
Ġcompl aint
Ġnar rative
Ġchemical s
Ġalb um
Ġsac r
Ġfluct uations
Ġmalays ia
9 00
b lo
b ted
f ts
f old
g old
l ad
v ol
Ø ®
Ġt one
Ġa ides
re qu
Ġc ant
it i
it iv
Ġm ps
ed ed
al ia
Ġd up
Ġh ired
as ka
Ġco hen
Ġor th
Ġcomp ass
ast ics
Ġro t
Ġcoun ting
Ġass ert
Ġcar n
Ġintern ationally
Ġbel arus
ov ic
Ġprocess ed
Ġ17 0
Ġrev ise
ude au
Ġpharm acy
Ġminim ize
Ġgrad uate
Ġurg ency
Ġbiotech nology
Ġpel osi
Ġpublish ing
Ġdisast ers
Ġdefe at
Ġcalc ulation
Ġtremend ous
Ġnerv ous
f ound
l ist
Ġ vel
Ġp c
Ġp ays
Ġb ath
Ġh og
Ġl ens
Ġn r
ill a
Ġv in
Ġr y
Ġal ive
ib aba
Ġpr iced
Ġdis ag
und er
Ġrec urring
Ġsc i
Ġany way
Ġrem inder
Ġdon ation
Ġimport ed
Ġtrave llers
Ġmet res
Ġregul ated
Ġmedic ation
sec urity
Ġscre ens
Ġcollabor ative
ament o
Ġminim al
Ġsun ak
Ġcompl aints
Ġcontinu ous
Ġwid th
Ġrecip ients
Ġmck in
Ġdall as
g ian
s umm
Ø ·
Ġ 000
er ved
Ġp aus
Ġf ert
Ġb arg
Ġh uff
Ġre ject
Ġl am
id ade
Ġde leg
Ġr u
Ġse an
Ġse mi
up ta
ult y
Ġproduct ive
Ġmin i
erm an
Ġsupport ive
Ġve get
Ġrecord ing
Ġview ers
Ġbi ological
Ġocc asion
Ġtour ist
Ġanticip ates
Ġsuper ior
Ġsubsid ies
Ġinj ured
Ġemb ass
Ġhen ce
Ġsum mar
Ġembr ace
Ġeag er
Ġinev itable
Ġterritor ies
ï¼ Į
Ġbipart isan
a uc
u ity
v ar
Ġs ight
as hes
ou g
ad vant
ch a
Ġas c
se a
ac les
Ġmo od
Ġsa b
Ġdr ink
Ġstud ying
ne ys
Ġ10 7
Ġback ing
Ġevery day
Ġair bus
Ġleg end
Ġrepresent ation
Ġque imadas
Ġannual ized
Ġbook ed
Ġarg uing
Ġstar k
Ġbur ning
Ġsil icon
Ġsqu ad
Ġcomplex ity
Ġerr ors
comp any
Ġpul mon
Ġmagn itude
fir st
Ġgav in
Ġlandlord s
a a
Ġb ans
Ġd airy
ic ted
om in
le ans
ac o
Ġmo ody
Ġj r
Ġtr iple
Ġor leans
Ġk ur
Ġret ired
Ġke en
Ġform ula
Ġhead line
ai res
de velop
Ġrul ed
Ġaffect s
Ġlegisl ative
Ġamb ul
Ġpod casts
Ġlay offs
Ġwitness ed
conn ell
Ġsoph istic
Ġunn ecess
Ġleban on
9 4
m t
r am
Ġt iny
Ġc ater
Ġd ress
st it
ill o
Ġal ibaba
Ġse asons
oc al
Ġad mission
Ġmar s
ia o
Ġbusiness wire
Ġph r
Ġeff iss
Ġtrans miss
Ġdon ated
med ia
Ġfore ver
Ġbank ers
Ġexpect ancy
Ġperform ances
Ġgener ates
10 1
Ġdesign ated
Ġnorth west
Ġposition ing
Ġbase ball
Ġ36 5
Ġbad ly
Ġcelebr ity
Ġregister ing
controll ing
Ġheight ened
Ġdin ner
Ġcertific ate
Ġlibert y
Ġsurviv ors
Ġeffiss imo
r ie
ä »
Ġs bs
Ġp ag
Ġd ol
Ġh i
Ġl ith
Ġg on
Ġde ut
Ġun com
end o
Ġk er
og ether
Ġcr icket
Ġsm ooth
Ġpar alle
Ġant on
Ġexpect ation
Ġche l
omet er
new york
Ġ200 5
Ġclass ic
Ġconnect ing
Ġterr ible
Ġground s
Ġdie go
Ġga uge
Ġdefin itive
Ġattempt ing
Ġber lin
Ġthromb ocy
Ġneuro log
Ġransom ware
newyork er
b ound
d d
g t
v ac
Ġt p
Ġs ie
Ġc ul
Ġan ne
ar th
as y
Ġg pt
Ġal ter
Ġse ar
ect ion
Ġun av
Ġsh ah
tr ump
anc ies
Ġro ss
Ġapp lying
Ġbr anch
Ġunder perform
Ġret ention
20 26
Ġz inc
Ġins isted
Ġsecond s
Ġremain der
Ġmet ro
Ġprogram mes
Ġsignific ance
Ġstaff ing
Ġaustr ia
Ġ200 1
Ġ200 6
Ġhar ry
Ġmill enn
Ġamaz Ã´
Ġmit igation
Ġlimit ation
Ġrad ical
Ġenh ancing
Ġdip ped
Ġtight ening
Ġgeograp hy
inform ed
Ġmechan ical
Ġcoc a
ĠÎ¼ g
Ð º
Ġb ump
Ġj es
igh th
Ġcor ruption
Ġte ach
so red
Ġover l
Ġany body
Ġshe ets
Ġbet s
Ġrep air
io v
Ġadv ent
Ġtop ped
Ġel ite
Ġsu itable
Ġavoid ing
Ġaid s
Ġcat al
Ġder iv
Ġfrag ile
sch ool
Ġislam ic
Ġbare ly
Ġ ubs
Ġc ort
Ġd imin
ro b
âĢĻ .
Ġal i
Ġmo on
Ġor al
Ġab c
Ġdis advant
Ġgovern ing
Ġcap s
Ġpos ed
Ġrel oc
Ġ10 4
be it
ĠÂ »
Ġmor al
Ġdepart ure
Ġfail ures
Ġsubscrib ers
Ġdiv est
Ġprospect ive
Ġisol ate
Ġgrad ual
bre aking
Ġstan ford
Ġfulf ill
Ġconstitution al
Ġbang l
Ġlicens ing
adel ph
Ġjin ping
m us
s ize
u ous
Ã ¢
he it
Ġo t
Ġin n
Ġin aug
ar on
Ġd al
Ġl ady
Ġn v
st op
ow a
Ġr av
Ġj ason
if er
Ġtr udeau
Ġwhe el
lic k
Ġman if
Ġback drop
Ġinst alled
Ġcost ume
Ġconf ined
Ġorgan ized
Ġcle ared
Ġallow ance
Ġstrong est
Ġgreat ly
Ġthough ts
Ġorder ing
Ġcommon ly
Ġarr ay
Ġcrit ically
Ġaud iences
Ġwall s
ls on
ha ul
Ġmc connell
Ġrad i
Ġrare ly
Ġsequ encing
Ġdispos al
Ġaer ospace
ogen ic
Ġvaccin ate
Ġentit led
Ġniss an
i ors
z ing
Â Ģ
æ ľ
re le
Ġb omb
Ġe in
Ġg ay
Ġcon j
Ġ20 50
Ġinc umb
Ġres h
ust ers
Ġop pon
anc hes
Ġro ot
we gian
Ġchild hood
Ġcond em
Ġredu ces
new swire
Ġbal anced
Ġdeterm ination
che ll
Ġinflu ential
Ġconsult ation
Ġround s
Ġukrain ian
ĠØ§ÙĦØ £
Ġswed ish
Ġken ya
Ġexpendit ure
Ġpriorit ize
Ġmist ake
Ġconclus ion
Ġsupermar kets
Ġvenezuel a
Ġcamer as
Ġott awa
commun ic
Ġappet ite
Ġthrombocy top
adelph ia
ÂĢ Â
v as
Ø ´
ã ĥ
Ġc her
Ġand y
Ġl ender
Ġn ord
Ġst ance
Ġst ored
se x
Ġr iot
Ġrec re
own ers
Ġbr ad
Ġpo se
Ġwell being
Ã© n
Ġdist ur
Ġcred its
Ġsug a
Ġdiscuss ing
Ġ22 5
ÙĬ Ø±
Ġthreat ening
Ġbre ast
Ġnegative ly
Ġcirc le
Ġdemonstr ations
Ġinstr uction
Ġrid ing
Ġpap ers
Ġfro zen
Ġye ah
Ġcraz y
o a
r d
Ġ 00
Ġo u
Ġl un
Ġl uk
Ġg ab
Ġhe y
se m
Ġcomp elling
Ġinc idents
Ġim aging
ib an
Ġqu ote
Ġfr action
Ġcap ex
Ġ19 80
man uel
Ġ11 1
Ġpow ered
Ġadmin ister
Ġlist ening
Ġvi able
sh are
Ġpack ed
Ġtre es
Ġspecial ized
Ġphys ically
Ġmot ion
Ġeth ical
Ġeth ics
Ġcorre ction
Ġundert ake
Ġticket s
Ġexempt ion
Ġcinem as
Ġthro at
Ġnomine e
summ ary
b b
d ue
f ight
r us
in fl
Ġs lo
es ity
it r
Ġb read
Ġd ated
ro it
Ġn sa
st al
ol i
ch ild
Ġco inc
Ġab d
Ġk ate
our s
Ġcr am
Ġany more
Ġdes cription
Ġgen eva
Ġref r
Ġfil es
Ġsust aining
Ġgerm s
Ġassess ments
Ġvict im
Ġoptim ize
Ġassum ed
Ġemot ion
Ġdisp ute
Ġspr int
Ġpled ge
Ġaggress ively
ih la
Ġdisappo inted
Ġmary land
Ġattach ments
Ġcum ulative
alin na
Ġhid den
Ġb ats
Ġb unch
Ġm und
Ġd ash
Ġh ubs
Ġl ip
Ġth row
ac ent
oc ol
Ġco x
art ered
Ġall ergy
Ġme g
Ġstud ios
Ġ10 1
Ġ10 8
Ġinst ant
Ġcar ries
br a
Ġequ ality
Ġdef er
Ġhard ly
Ġdeli vers
Ġvot er
Ġclass ified
Ġacceler ation
Ġdeterm ining
Ġsubject s
Ġpolit ically
ox x
Ġnov avax
Ġisrael i
prof ile
Ġconcentr ation
Ġta ught
Ġfulf illing
Ġbasket ball
Ġglo ves
Ġdestr uction
Ġmetropol itan
Ġmckin sey
j et
in ces
he ld
Ġp ihla
Ġwe ighed
ch arge
if ery
Ġun con
Ġpre market
Ġcol umn
Ġsec uring
Ġsales force
Ġche st
Ġchalleng ed
Ġsafe guard
Ġmus lims
ÙĬ ÙĨ
Ġinvestig ations
Ġten nes
Ġnor wegian
Ġnav al
Ġevalu ated
Ġattempt ed
Ġconstit ute
Ġenjoy ed
Ġestablish ment
Ġreplace ment
Ġexhib it
Ġplun ge
feren cing
pow ered
Ġtrib un
Ġatmosp here
ethe less
Ġchick en
Ġcurfe w
j alinna
l ash
m ate
s hip
x ic
Ġ ie
in os
Ġo reg
Ġd ak
Ġh p
Ġh ip
as io
id as
Ġtr aged
um ar
red ict
Ġap olog
ade qu
Ġtrans cript
Ġ10 9
Ġdown ward
Ġgr ace
Ġbl ind
Ġform ally
Ġrisk y
Ġve gas
Ġhead ache
Ġsympt omatic
Ġforecast ing
Ġcomment ed
Ġdi ver
Ġmiss iss
Ġexpress ions
Ġphil adelphia
imin als
Ġcross ing
Ġcook ing
Ġqual ify
Ġcam bridge
Ġgir l
Ġpersist ent
Ġnam rc
Ġcoord inated
Ġmunicip al
Ġexacerb ated
Ġforesee able
Ġconspir acy
9 6
f it
u ine
â Ĥ¬
Ġt ill
Ġin adequ
Ġan a
Ġl ights
Ġl ucky
ad justed
Ġr Ã©
if i
Ġsh orter
iv an
are r
ber ry
Ġla ura
Ġdown town
Ġgr ave
Ġel on
Ġbi ology
Ġrespons ibilities
Ġcontract ors
Ġbre aks
Ġbreak up
Ġvers ions
Ġexclud e
Ġoppos ite
Ġfriend ly
Ġign ore
Ġsanit izer
Ġalleged ly
Ġprin ting
Ġchatb ots
Ġpoc ket
Ġintermedi ate
effect ive
Ġliv est
Ġembass y
Ġoreg on
h op
Â °
Ġt angible
Ġa eg
Ġs que
it age
Ġf ah
Ġb ps
Ġb ags
Ġh f
Ġh av
Ġh ung
ur ation
ch at
ib r
Ġam y
Ġte a
Ġpart nered
Ġcr us
Ġu v
Ġsome body
we red
Ġ10 2
Ġsm oke
Ġprof ound
Ġ19 70
Ġconf ig
Ġnon etheless
Ġfar ming
Ã© d
Ġcomple ment
ier ce
Ġadjust ing
Ġcamp s
Ġste wart
Ġrev ive
Ġspecial ty
Ġfun eral
ams ung
Ġsens itivity
Ġdocument ed
Ġtrend ing
Ġmc donald
Ġprospect us
Ġnom ination
Ġunf old
Ġign ored
Ġwire less
Ġcoup led
Ġrall ies
Ġstring ent
Ġmidw ifery
Ġpihla jalinna
b p
m ade
o on
p ool
z ero
Ġ rome
Ġp es
Ġf x
ic y
Ġn Ã£o
id ers
Ġst y
Ġst akes
ig ma
Ġhe ll
Ġr ice
iv as
Ġwor rying
Ġac ess
ant ed
Ġexp osing
Ġpr ud
ard o
Ġdis information
ail s
Ġcr aft
Ġstr ange
Ġinter face
Ġpat ri
Ġgen eric
Ġgen uine
Ġlong time
Ġher itage
Ġcar ing
Ġmod i
ah n
Ġsk ill
Ġsell ers
Ġhar bor
ann el
Ġprov inces
Ġprevent ed
ado x
Ġdescrib es
load s
Ġspot ify
Ġran king
Ġamb ient
Ġprepared ness
Ġdil ig
Ġconserv ation
Ġhen ry
Ġanx ious
Ġtrail ing
Ġbure auc
Ġpreca ution
Ġtail ored
Ġflags hip
Ġdisproportion ately
Ġsubstit ute
Ġconsc ious
Ġtennes see
Ġbureauc r
b ors
i qu
ar ound
Ġd od
Ġh ond
Ġl on
et ers
ad s
Ġr it
op ard
Ġtr im
Ġsa p
art ner
Ġk an
Ġper mit
uch in
Ġfe as
Ġjo ins
Ġwhen ever
Ġbillion aire
Ġlif etime
Ġdesign er
sc i
Ġdocument ary
Ġcapt ured
Ġattend ees
ipp i
Ġmeant ime
Ġadverse ly
Ġconflic ts
Ġflood ing
Ġhab its
Ġfrustr ation
Ġthromb osis
Ġbes ides
Ġcancell ations
Ġremov ing
Ġthor ough
Ġjudg ment
Ġaccompany ing
Ġpulmon ary
Ġsophistic ated
l ab
r age
Ġs g
Ġre lied
le te
st yrene
oun ced
act iv
Ġres idence
Ġk u
Ġout p
Ġag ile
Ġlo oming
Ġsome where
Ġinter rup
Ġph ill
Ġret ained
Ġ10 3
Ġfol der
med ic
Ġnational s
Ġmat urity
Ġsw ing
Ġclin icians
Ġexist ence
Ġmand ated
Ġcateg or
Ġmur der
Ġhydro gen
Ġfundament als
Ġbol ster
Ġemphas is
Ġdiplom acy
Ġreceiv able
Ġreceiv ables
hous es
Ġfost er
analy sis
Ġonc ology
Ġsuscept ible
m ap
n i
s ing
Ñ ĥ
à ¤
er ving
ro gen
ou red
Ġon board
st ered
Ġde re
em ail
Ġpr ay
Ġout sour
Ġcost ly
Ġfac ulty
Ġprogram ming
Ġ13 3
Ġemerg encies
Ġbar ack
Ġnat o
Ġmor i
Ġinstit utes
Ġbi om
Ġaustral ians
Ġprodu ces
Ġdom ain
Ġdrop s
Ġexch anges
Ġmodel ing
Ġmargin al
Ġmeasure ment
Ġsyn the
Ġconsult ancy
Ġmer kel
Ġbox es
Ġemot ions
Ġfrustr ated
Ġcontag ion
Ġsurpass ed
Ġcatastrop hic
Ġhawai i
Ġlig and
Ġmississ ippi
b ury
f ood
f ires
m ort
ro log
Ġre it
Ġe ia
Ġn ancy
ur t
st yle
Ġy an
th r
Ġj ar
Ġj enn
Ġsp am
Ġk iss
Ġper ception
Ġmon it
Ġpres um
Ġstr iking
ens ity
Ġdown gr
Ġsal mon
Ġbl amed
Ġaff ir
ov irus
Ġ200 2
Ġbroad band
Ġfeel ings
Ġhar vest
Ġx in
Ġaccount ability
Ġocc as
Ġut ah
Ġmorning star
Ġsmart phones
Ġabs or
Ġlib ya
Ġund ue
Ġdiscl osures
Ġproceed ing
Ġquant um
Ġspect ators
Ġconcentr ated
Ġsky roc
Ġcoord ination
Ġretr ie
Ġimpe achment
j iang
l u
m r
m ill
m ex
s an
Ġa ustin
Ġto y
Ġth read
om y
ot yp
Ġwh olly
Ġch an
ke ep
ab ama
Ġmar ia
Ġk in
od a
ure r
Ġup grade
Ġcl ark
uc king
Ġthrough put
Ġconf ront
Ġ12 4
Ġ12 7
Ġtrad er
Ġport al
Ġpriv ately
Ġli u
ĠÂ «
Ġlet ting
Ġpresent ing
Ġclass rooms
ĠØ ¥
Ġpers u
Ġfoot age
Ġscen es
Ġrecover ies
Ġfrequ ency
Ġtack ling
Ġharm ful
Ãª nc
Ġmist akes
Ġther m
Ġbuff ett
Ġdiscoun ts
Ġmere ly
Ġobst acles
Ġinquir y
Ġshad ow
Ġjess ica
oug hed
Ġbangl adesh
Ġthrombocytop enia
l isted
y es
Ġa o
Ġh art
Ġh anc
Ġh ind
as p
Ġl uck
Ġl illy
Ġv itt
se ason
Ġse vent
em a
Ġmar king
ail ed
Ġpres idents
Ġunder mine
Ġz u
Ġob esity
Ø§ Ùħ
Ġbar cl
Ġbal ances
Ġshut ting
Ġblock ing
Ġbrief ly
Ġic onic
Ġadvant ages
iat r
Ġple as
Ġguarant eed
Ġaccommod ation
Ġdismiss ed
n ow
t u
Ġt ony
Ġc able
Ġm ish
Ġm ath
Ġh ars
Ġh ilton
Ġth in
Ġg upta
ut o
Ġst un
Ġst yrene
Ġst oxx
st re
op en
Ġj a
Ġqu ad
Ġdis se
Ġcl inton
Ġsome how
Ġbr anches
Ġlike wise
Ġback lash
Ġfl ash
Ġconf ron
Ġpartic les
ex isting
pr newswire
Ġtal iban
Ġdeal t
Ġsaf est
Ġinterview ed
Ġstop ping
umb ai
cul es
Ġprec ious
Ġcru ises
Ġestablish ing
pow er
charg ed
Ġreluct ant
Ġsolic itation
Ġdistingu ish
europe an
Ġsamp ling
Ġpenetr ation
r io
Ġs amsung
at z
Ġp av
Ġf et
Ġl isa
Ġe co
Ġst ap
Ġv lad
Ġal ly
Ġtr ies
ant is
Ġpr on
Ġi os
Ġdis abled
Ġwork places
Ġthere by
Ġmin us
Ġform a
Ġref use
the y
Ġtrave lling
Ġ13 5
Ġdisc lose
Ġra j
Ġmus ical
Ġchar ts
Ġship ped
Ġconsider ations
Ġarg ues
Ġinvestig ators
Ġten nis
Ġ36 0
cont ent
Ġdeploy ing
uff icient
Ġpredic ting
Ġast ron
Ġhab it
Ġves sel
Ġcontrovers y
Ġenroll ment
Ġmir r
Ġcompr ised
Ġgeograph ies
Ġzh ang
Ġaccompl ish
Ġmn uchin
Ġscand al
friend ly
Ġhuff post
Ġskyroc ket
b ase
d oc
m h
n ering
Ġ Ùĥ
Ġc amb
Ġp om
Ġl ing
Ġg w
ch in
Ġas ks
Ġy oy
Ġr up
Ġal abama
Ġj ag
os c
Ġtr av
ĠâĢĿ ),
Ġpl acing
Ġmon et
Ġcr a
Ġar k
Ġshe n
Ġsur plus
Ġ0 7
fore st
Ġthink ers
the re
Ġ11 2
Ġ11 5
Ġspec ulation
Ġmod ified
Ġsour cing
Ġmanufact ured
Ġsk illed
Ġlive lihood
Ġhol es
par ts
Ġshut tered
Ġmicro bi
Ġadvis es
han a
bor der
Ġschedul es
Ġneigh bors
Ġpal est
Ġcyber att
Ġpredic ts
Ġdisapp ear
Ġbehavior al
Ġinj uries
Ġbear ish
Ġfurl oughed
Ġalgorith m
Ġunp redict
Ġaffili ates
Ġosc ar
ãĢ Ĥ
Ġhanc ock
4 43
p p
v is
he av
Ġs ore
Ġo m
Ġw ise
Ġw ai
it ime
Ġb ah
Ġb ilateral
Ġd ance
il st
ay a
ol n
Ġr ip
Ġwh ilst
Ġcomp ares
ren d
Ġcor rel
Ġapp lies
Ġno se
Ġbr ick
Ġrel ate
ne g
Ġaut umn
Ġfl aw
Ġequ itable
Ġreal izing
Ã© m
Ġsing er
Ġsus an
Ġcoll ins
Ġorig inated
Ġmal aria
Ġexplo res
Ġassum ption
Ġweak ened
Ġpremium s
Ġhor se
Ġ} ,
Ġsequ ence
Ġwilling ness
Ġobserv ational
Ġcorrespond ing
âĢĭ âĢĭ
Ġbrut ality
Ġperm its
Ġhack ers
Ġdispl aced
govern ment
Ġaccr ued
Ġcryptocur rency
Ġembed ded
Ġportug al
Ġsimultane ously
h m
Ġw y
Ġm g
Ġh ann
as k
Ġn ad
ig are
Ġad mit
Ġdis contin
Ġint act
Ġem manuel
Ġinv al
Ġ4 50
Ġsc ored
Ġla ud
Ġrest rain
eral d
cr y
ient o
Ġ14 5
Ġmat rix
Ġsubs criptions
10 16
ator ium
Ġturn over
pro t
Ġmedic aid
Ġthreat ens
ĠØ§ÙĦ Øª
Ġphil os
Ġpull ing
Ġperspect ives
Ġhighlight ing
Ġpit ts
Ġgall ery
Ġexcell ence
Ġveter ans
Ġalph abet
Ġdestroy ed
Ġtransf ers
Ġsuic ide
Ġaccus ations
Ġadolesc ents
Ġinadequ ate
y ou
z n
Ð ¼
Ø °
Ġ ðŁ
Ġt ut
re tt
Ġc is
en z
Ġto xic
ro g
Ġg est
Ġst ol
ch ing
ul ed
Ġtr act
ie ce
od o
Ġcl ots
Ġact ed
Ġdec or
Ġass ay
Ġdes mat
Ġgovernment al
Ġtechn ique
Ġatt ached
Ġ12 3
Ġaff il
Ġpa ÃŃ
Ġbenef ici
Ġsw ab
Ġident ification
Ġsk i
Ġaction able
gen eration
Ġbre w
off icial
Ġsubscrib ing
ÙĪ ÙĨ
Ġcompar ative
Ġpain ful
Ġattack ed
Ġconsid ers
Ġbott les
Ġrevol ving
Ġdu ke
Ġinsp ire
Ġadvoc ate
Ġvolunte er
Ġum a
Ġka ren
Ġimper ative
Ġneighborhood s
Ġpp p
Ġaband oned
Ġexplic it
Ġprox im
Ġaeg on
Ġjenn ifer
v p
w hen
Ð ²
in ced
Ġc g
Ġw ing
Ġb inding
is ers
Ġn est
Ġde ll
Ġpro be
oc on
Ġdo i
anc er
onav ir
Ġph ased
Ġtrans mitted
Ġgu il
Ġvar ied
Ġdef ining
Ġchild care
Ġprop ag
Ġshort ness
ank a
pe o
Ġexpress ion
Ġaccept able
Ġcard iov
Ġconv inced
Ġbul let
Ġorganis ers
Ġrefin itiv
Ġrank ings
Ġtransl ate
Ġpregn ancy
Ġalgorith ms
Ġbow l
Ġsatell ite
Ġlad der
hum an
Ġphenomen on
Ġsacr if
Ġcarn ival
d h
m m
Ġs ull
Ġp v
al tered
Ġh amm
et ing
ad ays
th a
th ird
Ġj ets
em an
um s
Ġnot ifications
Ġexp on
Ġk on
age ment
Ġfin es
Ġfin land
Ġro y
Ġcons ort
ick ing
Ġlong est
Ġiss n
Ġdet ain
Ġfound ing
Ġce os
Ġpass es
Ġdom inated
tech n
sec ured
Ġcollabor ate
Ġprinc iple
Ġpurs uing
Ġclot hes
Ġadvoc acy
Ġexcess ive
Ġminds et
Ġcontem pl
opin avir
Ġtouc hed
Ġmerchand ise
Ġunnecess ary
Ġfah ren
Ġmonit ored
he t
Ġs ne
or i
Ġan gry
ar ious
ir avir
im ir
ig e
Ġas pir
Ġal s
Ġj c
Ġun altered
Ġsh ocks
Ġmar itime
Ġap i
Ġpre ferences
Ġcomm ons
Ġsc rap
Ġhad n
Ġar ising
ass et
Ġnow adays
Ġret ros
gr ad
Ġdown side
Ġgen ome
Ġma is
Ġmain stream
Ġless on
Ġsw im
crib ed
Ġneg lect
Ġcop oly
Ġur ge
Ġcollect ing
Ġnation ally
Ġchar ities
Ġstop s
Ġtele communic
Ġprem ature
Ġimmun ization
Ġrecogn ise
Ġavoid ed
Ġmot ley
Ġamb ition
Ġcert ification
Ġbab ies
Ġdispos able
Ġweigh ing
Ġgy ms
Ġkid ney
Ġcinem a
Ġtow er
Ġcrack down
Ġbrook lyn
Ġbras il
Ġiph one
Ġstead ily
Ġexplan ation
Ġparalle l
ĠamazÃ´ nia
Ġbarcl ays
Ġfahren heit
Ġretros pect
Ġcopoly mer
b lic
c it
p c
s pe
Ġt ort
an on
Ġf og
Ġf ishing
Ġb our
Ġb ird
Ġd ating
Ġg artner
Ġbe aches
ad ic
Ġpro active
Ġcon cess
Ġr ab
os m
Ġun edited
Ġle an
Ġi owa
ag er
Ġph d
Ġthem es
Ġsal v
Ġed ward
Ġfore front
Ġtrad em
Ġbuild s
Ġsing h
Ġvi rolog
Ġeduc ators
Ġsan itation
Ġspecial ists
Ġprogress ion
Ġiniti ated
Ġrecogn ised
Ġland ing
pe ople
Ġlight ing
Ġoptim al
Ġspok en
Ġjud icial
Ġoccur ring
Ġdut ies
Ġresol ved
Ġaer os
Ġwors ening
Ġintrodu cing
Ġupgr aded
Ġdies el
Ġjurisd ictions
Ġrepurch ase
Ġlegit imate
Ġcolon ial
Ġdeut sche
Ġdak ota
Ġvlad imir
d epend
p ress
Ñ ĭ
Ġt d
re view
es c
Ġf asc
Ġin e
Ġm outh
as tr
Ġl inc
Ġst ro
st art
ig m
ig roup
Ġ2 30
Ġy og
Ġ' :
Ġqu it
der n
Ġbr uce
Ġstate wide
Ġfr uit
Ġunder go
Ġbo ys
Ġgr ay
Ġbl asio
ath on
Ġbot s
Ġdet roit
Ġ11 3
Ġel abor
Ġdisc our
Ġmult in
Ġdi et
Ġcit igroup
Ġmag ic
Ġevol ved
Ġgrad u
ĠÐ ¿
Ġmother s
Ġutil ization
Ġdub lin
Ġul tr
Ġaccommod ate
Ġmont real
Ġthro wn
Ġrecept or
f ig
t d
v iet
Ġc d
at os
Ġw ore
Ġm umbai
Ġh ikes
Ġl opinavir
im b
Ġ1 19
Ġch al
Ġor ient
Ġnot iced
Ġsp y
ib les
Ġpart nering
Ġgen es
ind a
Ġsoc io
Ġz ur
Ġbl unt
Ġcust ody
Ġ13 2
pr ice
Ġbar rier
Ġimpro ves
Ġ17 5
Ġ200 4
wh y
Ġarg uments
Ġnecess ity
Ġcelebr ated
Ġcelebr ities
Ġele ph
Ġpromot ion
Ġbreat he
Ġtwe ets
Ġgrocer ies
Ġgy m
Ġsupermar ket
Ġfib ro
Ġfurn iture
Ġdemograp hic
Ġbacter ia
Ġepicent er
Ġcardiov ascular
j une
j apan
m id
m illion
Ġ ia
Ġ ================================
Ġb aker
Ġd amp
as a
ir ts
ad d
se lling
Ġr ational
em b
Ġk rist
Ġk ansas
Ġen act
Ġcor ona
Ġind ices
Ġro of
Ġman ual
Ġfr ied
enc er
com pass
Ġjust in
Ġgr im
Ġinst ances
Ġtop ical
Ġrece ives
Ġmas king
Ġtrave led
Ġexecut ed
sh aring
sh aped
Ġautom akers
uck er
Ġpet ron
Ġocc urs
Ġindepend ently
Ġfat al
Ġcounter part
Ġcounter parts
Ġwild life
Ġinde fin
Ġjun ho
Ġcaution ary
================================ ================
Ġdivers ification
Ġvary ing
Ġrecr u
cn n
Ġcoordin ator
Ġaver aged
Ġjurisd iction
Ġpra ised
Ġtransmiss ible
Ġpalest in
Ġpitts burgh
Ġ================================ ================================================
d quo
h ig
l ah
z hen
Ġt u
Ġs Ã£o
Ġc et
ol as
ch ange
Ġhe al
ke i
iv ate
ie v
Ġpl astics
ist ent
our i
Ġsc al
Ġser ver
Ġman ip
Ġinter ven
br it
Ġform ulation
Ġdel aware
Ġorganiz ing
Ġtur mo
Ġdam aging
Ġcharg ing
Ġsens or
Ġmal icious
Ġengine er
Ġamb itions
Ġthanks giving
Ġton ne
Ġmortg ages
Ġdivers ified
Ġspons orship
adi ene
Ġrecruit ment
pan ic
Ġrecycl ing
Ġunpredict able
Ġturmo il
j ah
u er
Ġt iger
Ġb iod
Ġin duced
Ġm ud
al ayer
Ġan ch
Ġto b
Ġre vel
Ġth ir
Ġe cl
Ġn it
Ġg if
ct ic
Ġr bc
Ġal umin
Ġat ags
Ġinc omes
Ġk al
ast ically
Ġen forced
Ġqu oted
for cing
Ġunder ground
Ġdat alayer
Ġsub mission
Ġsign ature
Ġgr an
cent er
Ġcustom s
az z
Ġ12 6
Ġbro w
Ġposs ibilities
Ġsl ip
Ġimm ense
arm a
Ġmor atorium
Ġ21 2
Ġschol ars
Ġinflu enced
Ġconc rete
Ġran ks
Ġobject s
Ġexam ined
Ġhub ei
Ġoccup ancy
ows ki
Ġphotograp her
Ġrelax ed
but adiene
Ġsociet al
Ġsuperv is
Ġcv s
Ġcarl os
Ġpup ils
Ġcompass ion
Ġdisag ree
Ġluk as
Ġsull ivan
Ġexpon ential
Ġmultin ational
c m
c ount
c ott
g ence
h ares
j ud
l ass
Ġc av
at ri
an ied
Ġh oney
Ġn ba
id os
ol ar
est ed
Ġmo z
up iravir
Ġun if
Ġab n
Ġper t
Ġimp osing
Ġpub s
Ġeconom ically
Ġbl an
Ġcost a
Ġpay check
Ġ11 7
ather ine
Ã© es
Ġhand led
Ġspe akers
Ġq atar
Ġparticip ated
Ġpred omin
Ġ199 9
Ġgl ad
Ġprob ability
Ġcirc uit
Ġcompar isons
Ġborrow ings
Ġsort s
Ġclim bing
Ġbeat en
Ġmole cules
Ġmerch ants
Ġresign ation
Ġreiter ated
Ġprosper ity
Ġdiscretion ary
itud es
Ġpom peo
b illion
c alling
d ers
l ength
l ancet
n t
r ah
v ir
Ġt ub
Ġt ree
in du
Ġre nov
Ġde an
ment o
Ġhe in
Ġr ider
Ġco ven
ine ment
Ġk az
Ġk umar
ist ically
og ens
Ġdr inking
Ġpos es
Ġbo at
Ġban ning
Ġgr ass
Ġins ufficient
Ġ19 0
Ġiss uing
Ġ11 4
Ġgener ous
work ing
Ġdesign s
Ġclass ification
Ġarr ivals
Ġaccount able
Ġsent ence
Ã¡ ri
Ġpharm ac
Ġinvestig ated
Ġden y
Ġvulner abilities
Ġrepl acing
Ġobser ve
Ġtransfer red
Ġshel ves
vacc ine
Ġign or
Ġclot h
Ġiran ian
Ġneighbor ing
Ġjeff rey
Ġmm g
Ġrig orous
Ġdial ogue
Ġdisappo inting
Ġtun is
Ġalt ogether
Ġinstall ation
Ġpoore r
Ġpublis her
Ġwebin ar
Ġcollaps ed
Ġchel sea
Ġtraged y
Ġguil ty
Ġlinc oln
w all
Ġt b
Ġt all
Ġo ak
Ġf i
Ġf ond
Ġf illing
Ġf Ã¼r
Ġb ou
Ġand erson
le ad
Ġv owed
Ġhe ating
and ex
Ġch ocol
Ġcomp aring
Ġsp ikes
Ġoff line
for ward
Ġro e
Ġpre t
Ġsc aled
Ġbus h
ult ure
Ġfe ared
Ġtw el
Ġfr on
Ġear liest
Ġph ishing
Ġbo e
Ġwhere ver
Ġfl our
Ġsol o
ĠĠĠĠ ĠĠĠ
ys on
Ġleg ally
Ġnat urally
Ġstep ping
Ġcredit ors
Ġwal ks
Ġindic ations
Ġapproach ing
Ġdivid e
ÙĪ ÙĦ
Ġdescrib ing
Ġpath way
Ġpath ogens
Ġbott l
cor p
Ġcoast al
Ġnik kei
Ġmol n
Ġcurbs ide
Ġans wered
d ub
e ur
m ail
Ġt ends
Ġc yp
Ġc ensus
or ate
ing e
ion es
as ia
Ġal beit
Ġsh ore
Ġor bit
el ing
Ġinc idence
Ġad ams
Ġac id
Ġres id
Ġle on
ib a
Ġi q
Ġdis pers
Ġcl usters
Ġph ases
iss ance
amp ed
Ġest e
Ġadv ising
az er
Ġref using
Ġdef ended
Ġsen iors
ash i
Ġsell er
Ġformer ly
Ġpet ition
Ġprov inc
Ġcolle ague
Ġpharm acies
Ġsche mes
Ġmatch ing
Ġheadqu artered
Ġalarm ing
Ġpenal ty
Ġreim bur
cur rent
Ġliver pool
Ġtoug her
Ġquart z
sem ble
medic ine
c row
r ated
Ñ ı
Ġc ush
it te
Ġf ierce
Ġb os
Ġl p
Ġl en
Ġe ve
Ġe li
Ġn rc
om ic
Ġ2 20
se en
Ġare na
Ġun ity
Ġun secured
Ġwor n
Ġme ga
ile y
Ġser vers
Ġserv ic
Ġtrans mit
Ġrel ie
Ġgrow s
we b
eng er
Ġdemand ed
Ġdel ight
Ġsect ions
Ġhead winds
Ġeas ter
Ġ) %
Ġcoll ateral
Ġbre aches
Ġconsider ably
Ã§ a
Ġeuro zone
Ġadop ting
Ġchrist ie
Ġroad map
Ġmal ware
Ġseem ingly
Ġaccept ing
Ġder ived
Ġic c
Ġfit z
tw o
vacc ination
Ġjun ior
Ġprison ers
Ġalign ed
Ñģ ÑĤ
Ġbc f
Ġslump ed
Ġpenal ties
Ġswift ly
Ġpostpone ment
Ġdiscip line
dist ancing
Ġlar ry
Ġwai ver
Ġpetron et
Ġmoln upiravir
2 50
? âĢĻ
d irect
k ind
m ph
r ons
Ġa us
Ġc ze
Ġo at
it os
Ġb und
Ġre think
Ġg ord
Ġpro sec
Ġcon gest
Ġr ated
Ġal ike
ul ous
Ġse k
Ġmo ore
ess ed
Ġ20 3
Ġmar athon
Ġpl ot
Ġout let
Ġall en
Ġdis h
Ġro ber
Ġro ger
Ġpre fect
Ġar sen
Ġinf low
Ġend ors
20 18
Ġbl ocks
Ġed t
Ġtake over
Ġcred ential
sh ire
Ġcomb ine
Ġchar l
Ġpred ecess
val ence
Ġevid ent
Ġrat ios
Ġcritic ised
Ġnav y
Ġpromot ed
Ġpoor ly
Ġramp ing
Ġdisp ens
hal f
Ġundert aken
Ġwonder ing
Ġwonder ful
Ġdisinfect ing
Ġwors hip
Ġintent ions
Ġrus sell
Ġremov al
Ġhesit ancy
Ġgrapp ling
Ġtrop ical
Ġcomed y
Ġharass ment
u est
Ġa y
Ġs its
Ġc m
or ig
an mar
Ġf ame
Ġb b
Ġan al
Ġd ad
Ġd erm
Ġl ane
Ġn in
Ġde lo
Ġch op
iv ation
Ġpl ug
Ġen compass
Ġup beat
Ġro dr
Ġpol ar
li ver
rop h
io x
Ġed ited
Ġ12 2
Ġref ers
Ġref ining
Ġob struct
Ġsu isse
Ġhand ed
Ġreview ing
Ġstat ut
gen er
Ġmiss ouri
Ġviol ations
Ġcho osing
Ġeffic iencies
market research
pre m
hol m
Ġdoub ling
Ġachieve ment
hy l
Ġattract ed
Ġrenew ables
Ġstrengthe ned
Ġpil ots
Ġneutral izing
Ġexhib ition
Ġamend ments
Ġacademic s
Ġpun ish
Ġpoc kets
Ġbrut al
Ġlob by
Ġpoore st
Ġtumb led
Ġoverl ap
c ola
d les
j u
n on
å ı
Ġt iff
Ġa ur
re r
or ient
Ġm ull
ou ver
Ġy andex
Ġr i
Ġun ter
iv os
Ġab und
Ġk ay
Ġk han
iz za
Ġdis charged
Ġag ility
Ġsc aling
ord ash
Ġdec iding
Ġfr act
Ġneed ing
we alth
Ġed its
Ġfl ed
Ġmy anmar
Ġ12 1
Ġpress ed
Ġext ends
Ġcomple ting
mar ks
Ġsw ap
Ġfree ze
Ġcompet itor
Ġbi omed
Ġcy tok
Ġaddress es
Ġblack rock
Ġdemonstr ates
Ġemp ire
Ġtight en
Ġwild fires
Ġunf air
Ġfunction ing
Ġcount less
Ġflat ten
Ġvalid ation
Ġepis odes
Ġdigit ally
Ġindirect ly
Ġwil son
heim er
artic le
Ġelectr ical
Ġbrows er
Ġhud son
Ġcram er
Ġcra ig
Ġproxim ity
Ġcze ch
b h
b ell
k u
l ining
m ath
p per
Ø ²
Ġt amb
Ġt ags
re z
re ach
Ġc ock
Ġp ti
Ġl ect
Ġe commerce
Ġg sk
ut ive
ver ing
ac on
Ġun le
ant es
Ġen acted
iz able
Ġro d
Ġlo op
Ġser b
Ġbr ill
Ġtw in
te en
Ġend point
Ġ0 8
Ġdown ing
Ġins ur
Ġcare ers
cl a
Ġwant ing
Ġmat ure
Ġadministr ators
Ġq anon
Ġcontact ed
Ġdecl are
Ġhom inem
Ġsure ly
Ġproblem atic
reg ular
Ġconv ince
Ġcelebr ation
Ġcast le
Ġnegoti ating
Ġconstit u
Ġparliament ary
Ġham ilton
Ġcatch ing
Ġepidemi ological
Â® ,
Ġkick ed
Ġrepro duced
Ġsnap shot
Ġmotiv ated
Ġmacro economic
Ġtact ics
fund ed
Ġunderwr iting
Ġanton io
Ġneurolog ical
Ġtwel ve
d ie
l ers
p f
p op
Ġ %)
Ġt ul
Ġa j
Ġs ul
Ġc us
Ġw ol
Ġp all
Ġf err
Ġb erg
al one
Ġl ancet
Ġde lic
Ġse oul
Ġmo h
th at
Ġj ay
Ġtr i
Ġtr action
Ġsa il
Ġsh ake
Ġ' .
Ġsp x
Ġim arc
Ġout rage
Ġwork outs
Ġstr ikes
Ġno ise
Ġser op
Ġafter math
Ġfr iction
Ġany time
Ġla ugh
Ġev ans
Ġfinancial s
Ġinform al
Ġpar ag
Ġfollow ers
man agement
pl an
Ġauthor itarian
Ġmod es
Ġhuman a
Ġsl ot
Ġdistr ibutions
Ġtem ple
Ġthreat en
Ġsegment ed
Ġsusp ending
che m
Ġagre es
Ġok lah
Ġstrength s
Ġded uct
Ġemphas ized
Ġsong s
Ġunders co
Ġimper ial
Ġhomeless ness
sm all
Ġcogn itive
Ãªnc ia
Ġbottl enec
Ġstatut ory
b as
c aster
h n
t v
u ably
Ġt ag
Ġin hab
is hes
Ġd ick
Ġh ike
as tern
ent e
Ġn ap
le ted
Ġst ays
un a
est imate
Ġun ified
Ġsp i
Ġim minent
aus tr
Ġunder pin
ang ers
Ġconf inement
Ġtop ically
Ġsl ashed
Ġstre ams
Ġacqu iring
Ġconfir ms
ik o
Ġbook mark
Ġmiss iles
ÃŃ n
Ġreason ably
Ġpath s
Ø§Ø ¯
Ġcross ed
Ġassum es
Ġjoint ly
Ġchec ked
Ġreli ability
Ġelig ibility
Ġdevast ated
Ġwip e
bu ild
Ġbail out
Ġupt ake
Ġconclus ions
Ġpand emia
Ġsociet ies
Ġsatell ites
Ġcontem por
Ġfant astic
Ġalber ta
Ġincumb ent
Ġacess ado
Ġshen zhen
Ġstol en
Ġoklah oma
f act
k h
m other
o e
Ù ĭ
Ġ Ùģ
Ġs b
Ġw ti
it ably
Ġm ast
Ġm acy
is p
Ġd y
ic ut
us ts
Ġg el
Ġbe z
op hy
ap ers
Ġad vers
Ġle asing
Ġ202 8
Ġpe ps
Ġrec alled
Ġem ory
anc ouver
acc o
Ġbus es
Ġser um
Ġar ise
Ġdr ama
Ġ7 37
Ġmin ers
Ġ0 1
Ġann a
Ġ12 9
Ġdef ensive
Ġlist ings
Ġsell s
Ġclos est
Ġir regular
Ġship pers
Ġconnect icut
Ġver ification
Ġbreak fast
Ġje opard
amb a
Ġlay er
Ġken ned
Ġbrother s
Ġly ft
Ġni Ã±
Ġrefuge e
Ġdiplom ats
Ġdistribut ors
Ġbarr ons
Ġbroker age
Ġster ling
acion es
zh ou
Ġmanif est
Ġdesmat amento
Ġconsort ium
g al
n at
n ation
y en
Ġt i
Ġc es
Ġp ate
Ġp mi
Ġf ern
st at
em en
Ġnot ified
Ġk em
Ġcomm ence
Ġsc ared
Ġar dern
Ġunder min
Ġshe p
Ġserv icing
20 25
Ġbro kers
Ġsim ulation
Ġ11 6
Ġfound ers
Ġ13 6
Ġdeb ent
Ġdeb ts
hold ing
wh ich
Ġarg uably
Ġprob able
Ġcirc ular
Ġexclus ively
Ġcro res
Ġpaul o
Ġunf avor
Ġconcentr ate
Ġutil izing
Ġnic kel
Ġshr ink
isol ation
Ġka iser
iot ics
lock down
anth rop
Ġbiopharm a
Ġconj unction
Ġtoy ota
techn avio
Ġprovinc ial
Ġkenned y
1 20
e le
j or
å ħ
å Ī
Ġc ree
er ves
Ġp y
Ġre un
Ġl v
Ġl anes
Ġe f
us al
Ġon s
ch air
Ġpro lif
Ġne x
Ġne ck
Ġtr ains
Ġun de
Ġle ather
av a
Ġop ted
for ces
Ġcr iminals
Ġbr un
Ġreg ener
Ġpos itivity
Ġsur ges
ick ed
gr aph
Ġcent ered
Ġgr at
Ġdon or
Ġmem ories
Ġfac ial
Ġsl id
Ġbuy er
Ġturn around
Ġcomb ining
Ġpract ition
hen ko
Ġut c
Ġsold iers
Ġrac ist
Ġfair ness
rec urring
Ġdocument ation
Ġground ed
pass word
Ġfranc is
ca a
Ġawa iting
Ġtra uma
Ġrecip ient
Ġdisappo int
Ġdiscr imin
Ġneighbour hood
Ġconver ted
sour ce
Ġaband on
Ġvou chers
Ġseam less
Ġfundra ising
Ġuncom fort
c ia
i u
i otic
w as
Ġs ib
en h
Ġf fo
Ġb ind
Ġb ases
Ġd ot
Ġre h
Ġbe ef
ch ip
Ġv od
Ġr ash
Ġj um
os ition
Ġun real
00 5
Ġres igned
Ġk le
Ġk ish
Ġpr as
Ġop io
ag ers
Ġag ing
Ġdr astically
Ġact ress
Ġnow here
Ġend e
Ġdes antis
Ġpat ents
Ġcur t
Ġdirect ions
Ġed ged
Ġpar aly
Ġcare g
Ġ12 8
Ġcred o
Ġ24 0
Ġcertain ty
Ġcomb ating
Ġboost ers
Ġmicro sc
Ġmaint ains
Ġcirc ulating
Ġchrist ine
Ġphil anthrop
Ġcalcul ate
ador a
Ġchem otherapy
Ġstrict ly
Ġtheat re
Ġconven ient
Ġinequ alities
Ġobserv ation
Ġentreprene ur
Ġcoc oa
Ġbp d
Ġreim ag
Ġprivile ge
Ġhog an
Ġpaus ed
Ġlun ar
Ġdilig ence
mort ar
Ġhars h
Ġarsen al
f arm
i q
o ard
p ublic
w er
w ick
x iv
Ñ Į
Ġt ired
Ġa ap
re valence
Ġf id
Ġh ut
Ġth ick
id ades
ch ief
Ġr ug
os n
um at
Ġcomp uls
ak u
Ġap ac
Ġpre st
Ġcr af
Ġpat ch
Ġgr aham
cent ric
Ġmeas uring
Ġwar ner
Ġpost al
Ġauthor ised
Ġamong st
Ġpass port
Ġbar cel
Ġcontact less
Ġdou gl
Ġappear ing
Ġconvers ational
Ġdemonstr ation
Ġdemonstr ating
Ġpain ting
Ġexerc ising
Ġoccur rence
Ġsubsid y
Ġemp athy
Ġhon ored
Ġnegoti ate
Ġalle v
rep ublic
Ãº blic
Ġrandom ized
wear ing
Ġther mal
Ġenroll ed
Ġpivot al
Ġvit amin
Ġenthus ias
Ġmichel le
Ġqueens land
infl amm
Ġsevent h
Ġchocol ate
Ġdelo itte
Ġbrill iant
g row
h d
l t
n n
p cr
s u
Ġ ÙĨ
Ġt ong
Ġa is
he lp
Ġs ri
Ġs dr
Ġc el
en na
Ġb art
Ġin just
Ġd ual
ic ia
om i
id al
Ġg iro
ur ge
ur ches
Ġy a
Ġal aska
am ily
Ġj n
Ġj ama
os a
Ġsh ame
tr aded
ap ril
el iness
act ers
Ġsp ur
Ġme ets
Ġwhe at
Ġimp ression
Ġsc ul
Ġcoun ted
Ġman chin
lect ion
Ġcap ita
Ġla und
ind ed
Ġdeb ates
Ġport land
Ġfil ming
Ġfree ly
Ġconfir ming
Ġchar acters
Ġcommission ed
Ġlog ic
Ġfa ult
Ġdiv isions
Ġnor ms
Ġprec ision
Ġpredict ive
Ġdepend ence
Ġsequ ential
Ġsho es
Ġhero es
Ġexplos ion
Ġadap ted
Ġparam eters
Ġbanc orp
Ġmarsh all
Ġspi ked
Ġenthusias m
b ow
b reak
k r
s aving
Ð ´
Ġo br
Ġw ound
Ġw ool
or bid
Ġl um
Ġl ining
Ġl ÃŃ
Ġn p
Ġg own
ch anging
Ġr aging
Ġr ides
Ġch adox
el le
ie re
Ġi an
Ġcor ps
Ġpre clinical
Ġlo os
Ġreg ret
ass oci
enc ent
ell en
ne ider
Ġev ictions
Ġsm ar
Ġsupp ress
Ġexper iments
Ġpop e
Ġtotal ing
Ġ13 1
ov o
Ġprop ose
Ġext rem
Ġmod elling
Ġpass age
Ġcour age
Ġcop ies
Ġexc use
Ġred empt
employ ed
Ġmess enger
ĠĠĠĠĠĠĠĠ ĠĠ
Ġtit les
Ġseek ers
angu ard
Ġindian a
Ġurg ently
Ġconclud e
Ġtransl ation
Ġissu er
Ġmm t
Ġfrank ly
Ġembr aced
Ġresum ption
Ġlength y
ĠØ£ ÙĨ
Ġrevers ed
Ġcrop s
Ġtermin als
Ġdisrupt ive
Ġignor ance
Ġunfavor able
Ġbarcel ona
e ze
g y
g ree
g ood
h ma
k ar
w o
Ġt ension
Ġa le
Ġw en
Ġw ary
Ġw olf
Ġp ig
Ġp ills
Ġb in
Ġd uc
Ġl em
Ġl ord
et e
Ġv anguard
Ġpro ving
ac cept
op y
op ro
Ġj p
Ġch and
Ġch ills
Ġor ange
Ġexp ed
Ġout we
are st
Ġhow ard
Ġhis panic
li ant
Ġbo ats
Ġev iction
app er
Ġperiod ic
Ġ13 8
Ġes cap
Ġsuggest ions
Ġautom aker
Ġir re
Ġchar ter
Ġchar itable
ĠØ ³
Ġren ts
Ġren ters
Ġsepar ated
Ġsubst ance
Ġdelay ing
Ġreve aling
Ġadvance ments
Ġcry stal
Ġobser vers
Ġcompl ained
Ġstruct ured
Ġalex and
Ġfundament ally
Ġcough ing
Ġhun ger
isol ate
Ġstret ched
Ġbatt les
Ġpreced ing
Ġcardi ac
Ġlapt op
Ġnaval ny
Ġtelecommunic ations
Ġgord on
Ġuncomfort able
h u
Ġp izza
es co
Ġf ought
Ġin acc
Ġm ile
Ġm aps
ic ism
Ġre ferences
Ġl lp
Ġn acional
un ting
im inated
Ġr ut
Ġse b
Ġnot ification
Ġbut ter
Ġapp reciation
ell er
iss a
Ġdevelop s
Ġsch neider
Ġgr ip
Ġher she
Ġlow ered
Ġma ur
Ġins ist
Ġcre am
Ġmat he
Ġbas el
Ġbi kes
Ġexpl aining
Ġhol mes
Ġinnov ate
Ġroll s
Ġextr act
Ġscre ened
Ġanalyt ical
Ġles ions
Ġven ue
Ġdisp utes
Ġspr ay
Ġdub bed
Ġepidemi ologist
Ġryan air
Ġalgorith mic
Ġbelg ian
Ġmarc us
Ġneighbour s
Ġaccomp anied
Ġattach ment
Ġbuck le
Ġabsent ee
Ġrhe tor
Ġvigil ant
Ġlau ren
Ġaven ue
Ġunav oid
iox ide
Ġtiff any
Ġkish ida
Ġpras ad
Ġhershe y
! !
f ly
h in
h ot
n ished
o ft
r ad
t ake
Ġc ac
Ġc ens
Ġo ecd
Ġp ear
Ġm ack
Ġre e
Ġn oses
Ġg ary
Ġg bp
Ġbe aring
im ens
Ġwe ights
Ġy td
Ġcon greg
se g
se ctor
Ġne lson
Ġch uck
Ġ( %)
lo ff
Ġab rupt
Ġexp ired
ich annel
Ġme al
Ġpe g
Ġmon oc
Ġacc ent
Ġem a
Ġinv ite
Ġar ds
Ġass ign
Ġsy rian
ert o
Ġget ty
Ġshe lf
Ġeu rop
Ġdep ressed
Ġform ation
Ġbel t
Ġrece ipt
Ġ11 8
ri ott
get ty
Ġlat ino
Ġrestric ting
Ġupd ating
Ġstep han
Ġbroad way
Ġ40 1
Ġrev is
Ġrap e
Ġfre el
Ġred d
ograp hy
Ġsil ence
Ġange la
Ġcapt isol
Ġmur ray
Ġconsequ ence
Ġburn ed
Ġrig s
Ġgard ens
Ġbatter ies
Ġfunctional ity
Ġcompr ising
Ġgeograph ical
Ġcertific ates
imm une
Ġvou cher
Ġabr ams
Ġine os
Ġjum bo
Ġcompuls ory
c as
d et
g ate
l Ã©
o is
u ana
in ating
Ġp fe
Ġf inger
Ġb un
Ġm sci
Ġd ense
Ġand ers
Ġre ign
Ġre ins
Ġre de
Ġre aches
Ġn d
Ġg ambling
le e
ch ool
Ġv ancouver
ac re
est y
Ġch urches
ĠâĢĿ ).
lo at
Ġab u
Ġab oard
Ġk m
ast ro
Ġnew er
iz ar
Ġint im
Ġem ily
Ġbr ist
Ġadd iction
Ġpol led
Ġbl ast
Ġ19 18
Ġpay pal
Ġatt itude
Ġreal istic
Ġperson ality
Ġsu its
Ġcome back
Ġ17 6
Ġmult if
Ġcy cles
Ġstat ue
Ġmedic ations
Ġhom eland
Ġreflect ion
Ġprevent ive
pm g
Ġmit ch
Ġflo ating
Ġcivil ians
Ġscr ipt
bl ue
Ġsud an
Ġsequ ences
Ġdomin ic
Ġdomin ance
Ġchampions hips
Ġrelig ion
rem lin
Ġast hma
Ġtun nel
Ġgh osn
Ġted ros
othe by
Ġconting ent
Ġoppon ents
Ġastron aut
Ġdebent ures
Ġunavoid able
i op
m j
n ik
Ġt orn
Ġa ux
Ġthe ories
Ġp i
Ġp act
Ġb out
Ġm its
Ġd ust
Ġd ioxide
ut en
Ġbe re
Ġhe lic
Ġse ized
Ġne il
ain able
Ġk ath
Ġpr adesh
Ġen emy
pt on
ious ly
Ġbet a
Ġbu zz
Ġpay out
Ġform ats
Ġcontr ad
Ġread iness
Ġ15 4
Ġfed er
Ġsl ated
Ġtal ented
Ġassoci ations
Ġ16 2
Ġbuy backs
Ġeduc ate
Ġrob otic
che str
Ġben j
Ġtransform ations
Ġhuge ly
ament e
Ġconv iction
Ġconsist ing
Ġpredict ion
lear ning
fl u
Ġton ight
Ġrein force
omp rom
Ġconcentr ations
Ġsupplement ary
Ġiv ory
Ġrail way
conn ect
Ġbon us
Ġbub b
Ġware houses
Ġliter ature
Ġlu is
Ġterror ist
uy oshi
Ġray mond
Ġkilomet res
rit onavir
Ġprepar ations
Ġbiom ark
Ġaffil iate
a fe
b ig
c ode
g c
i ations
r im
s af
s outh
u art
v irus
Ø «
Ġo v
Ġo liver
Ġp are
an im
Ġm b
ing ton
Ġd z
Ġn c
Ġn s
Ġn az
Ġst alled
ot al
ot te
oc ation
vid ia
Ġres ched
Ġle ap
Ġi hs
ard i
Ġmon itors
Ġacc using
Ġsc ary
Ġlo aded
Ġno bel
Ġbr ady
Ġmay o
Ġjo an
Ġanaly sed
20 22
Ġgr av
Ġfl are
cent ury
app ro
Ġemploy s
eng ine
Ġnon essential
Ġpositive ly
Ġ17 2
Ġvari ables
Ġque bec
Ġhol der
Ġorganiz ational
Ġlog istical
Ġje well
Ġland mark
Ġinflu x
Ġmark it
Ġtransform ing
Ġclean er
Ġexcept ions
Ġappe als
Ġsurv ived
Ġlegisl ature
quar ant
Ġgrand e
Ġcreat ivity
Ġpal m
Ġtight ened
Ġstor ms
Ġshel ters
Ġts uyoshi
Ġcompos ition
Ġwaste water
cons umer
Ġspir its
Ġcorrect ly
car bon
Ġobserv ations
Ġdisplay ed
Ġig g
Ġcb d
Ġanonym ous
Ġexplos ive
................ ................
Ġcaf es
Ġdowngr aded
Ġlivelihood s
Ġindefin itely
Ġparag rap
Ġdougl as
grow th
Ġmonoc lon
1 50
Ġt amp
Ġa ston
in ity
re ts
re ports
Ġc io
Ġc ios
er on
Ġf ate
Ġin activ
Ġh d
as er
Ġe ighth
Ġn os
Ġn pr
ir an
im en
Ġcon val
Ġr ick
Ġr anges
Ġal ar
Ġal bert
op ening
th reat
Ġor chestr
Ġinc ar
Ġinc om
Ġsp ac
Ġpl ung
iz u
Ġam zn
Ġwhe els
ok es
Ġover look
Ġman ila
Ġpo ison
Ġadd itions
Ġend or
Ġdep ot
cl oud
Ġ14 4
ism a
Ġclear ance
Ġwal t
sc ience
Ġrespond ers
Ġred und
Ġconnect s
Ġintegr al
Ġ199 6
Ġrecogn izing
ga e
Ġrac hel
Ġwrit ers
Ġqual itative
Ġcapt ain
Ġexam ination
ĠØ§ÙĦØ ¹
Ġtrig gering
Ġfle w
Ġissu ers
Ġcoup les
bel t
Ġcomprom ised
Ġcp i
Ġtiss ues
vi ol
Ġsurprising ly
Ġrepay ment
Ġbatt ling
Ġjam ie
Ġwebin ars
Ġrefund s
Ġconce pts
Ġdispar ities
washing ton
Ġpess im
Ġxin jiang
Ġia g
Ġnit rogen
Ġhelic op
Ġmonoclon al
% ;
h ill
m atic
o en
r ac
u z
u ar
v y
è ¿
he astern
Ġs s
Ġc ot
at Ã³
at tered
Ġp b
es h
Ġb jp
al is
ion ed
Ġl ately
Ġn un
st ic
ir as
ig ated
Ġr f
Ġun paid
Ġsh out
Ġmar riott
Ġsp ill
Ġk ab
Ġnew mont
Ġcor rid
Ġso y
Ġso viet
Ġaf loat
Ġro ots
Ġstr at
Ġmed it
ne eded
Ġ0 3
Ġeu a
Ġhome owners
Ġread ily
Ġpot ato
Ġ13 4
Ġ14 1
Ġ14 9
Ġbar red
Ġcred ibility
Ġste f
Ġmus icians
Ġseg reg
Ġautom ate
Ġautom atic
Ġorig ins
Ġhar ness
mic ro
Ġrev ision
Ġspace craft
Ġtur bul
Ġmit chell
Ġlack ing
Ġanticip ation
Ġpath ogen
Ø§Ø Ń
Ġpain t
hel or
Ġwel coming
Ġobt aining
Ġcreat ors
ĠÐ ²
Ġexport ing
Ġarchitect ural
Ġlangu ages
Ġtheat res
Ġnic he
Ġshr inking
bu y
Ġbon uses
pat itis
Ġsad ly
Ġwors ened
Ġrus hed
Ġweakness es
Ġadap ting
Ġenthus i
Ġencoun ter
Ġfert il
Ġker ry
Ġdiscontin ued
Ġgradu ates
Ġbiod iversity
Ġtob acco
Ġcongest ion
Ġinflow s
/ ?
k l
l ived
r ina
s ider
t te
v ised
â ĳ
Ġ Ùĩ
Ġt encent
Ġa aron
Ġp t
Ġf iber
Ġh ans
as i
Ġl av
Ġn ights
Ġon u
st an
Ġr ah
am az
Ġco le
00 1
ant as
Ġdec isive
ite ment
Ġcas ino
ass ed
Ġ7 85
Ġpublic ations
Ġprot otyp
Ġ19 64
az e
Ġappro ached
Ġmy th
Ġref ined
Ġwar p
Ġes c
ah u
Ġident ifies
ienc ed
Ġquick er
Ġnetwork ing
Ġprogress ing
Ġden ver
Ġquarant ines
Ġnight m
Ġtransform ed
Ġappe aling
Ġhur dles
Ġcivil ian
Ġrein vent
Ġperfect ly
report linker
Ġflood s
Ġjew ish
Ġwarr ants
Ġintens ity
Ġsd rs
0000 0000
Ġinev itably
Ġalph a
Ġandre a
Ġdepr ived
Ġpione er
Ġhotsp ots
ogenic ity
Ġmirr or
Ġinhab it
Ġpate l
f g
g ow
h is
h ard
o ch
p ack
s ign
t our
y m
z man
in ction
Ġc ake
es y
Ġf are
Ġb uc
Ġb atch
Ġto uted
ic ter
Ġl end
Ġl ets
Ġth rowing
ent er
us er
Ġg ps
Ġst amp
Ġst reak
Ġon t
st ory
Ġr hod
Ġex ams
qu al
oc ial
Ġun i
Ġun accept
Ġco at
Ġor g
port ed
lo ved
Ġk remlin
Ġi oc
Ġen zy
Ġme ad
Ġem ma
Ġpart isan
Ġstr anded
Ġstr icter
Ġbr unt
Ġpo ols
Ġass ured
Ġfr ight
ian e
Ġunder going
olog ies
Ġdes ert
Ġfl ock
Ġatt itudes
ps on
Ġ15 6
Ġterm ination
Ġbas in
cept ions
ier ra
Ġjoh an
ins ights
Ġdrug maker
Ġrele asing
Ġda wn
Ġold est
Ġtele medicine
Ġaud itor
ĠĠĠĠĠĠĠĠ Ġ
Ġund ou
Ġcollabor ating
Ġrad ar
Ġjud ges
Ġic on
Ġdang ers
Ġepidemic s
Ġpal ace
Ġha ul
ops y
Ġswe pt
Ġhear ts
Ġmerg ers
report ed
Ġpit ches
ĠÃ© t
Ġaz ar
gl omer
Ġbroadcast ing
Ġelimin ating
Ġhel m
Ġhesit ant
Ġsel loff
Ġhs bc
Ġdistur bing
child ren
Ġcamb od
Ġdetain ees
Ġdatalayer news
Ġmoz amb
chem ical
Ġrhetor ic
Ġbenj amin
7 50
d ated
m issions
p ur
w age
Ġt ighter
Ġs ends
Ġs oda
Ġs otheby
Ġo ms
Ġp og
Ġf ren
Ġm ans
ed uc
ro v
Ġre yn
Ġl od
Ġl oud
id y
Ġst ating
ot ing
Ġv ie
Ġy am
Ġcon ced
Ġal an
Ġj ak
Ġtr ay
Ġad en
Ġsp urred
Ġk ro
ip her
ens itive
Ġsal t
Ġmake up
Ġsol ving
Ġdig its
Ġdef ines
Ġbro s
Ġeng ines
Ġchief s
ph ys
Ġep ic
Ġhol istic
Ġamid st
Ġkill er
Ġdecre ases
Ġdecre asing
Ġcelebr ations
Ġcelebr ating
Ġfavor ites
Ġresil iency
ster dam
Ġles lie
Ġramp ed
Ġemb ar
Ġhen d
Ġvill ages
conn ected
Ġtap aria
Ġmuseum s
Ġinhib itor
Ġupgr ades
Ġlicens es
Ġpent agon
Ġskept ical
Ġsla very
Ġkam ala
Ġdup lic
Ġretrie ved
Ġreimbur sement
orient ed
c ock
j as
o op
w ich
x m
å ®
Ġt j
er ate
Ġp ier
es cent
ed ge
Ġd ign
Ġto urs
ic ion
Ġn iger
om ics
Ġg i
Ġg il
ve is
et ra
Ġst igma
im ic
ow itz
Ġde cept
Ġcon glomer
Ġal ve
am os
ul es
Ġsh in
Ġnot ion
ant o
Ġexp ands
Ġk av
du ce
Ġso il
Ġover crow
Ġreport linker
Ġpres cription
Ġar am
Ġass ays
Ġinter ference
vers ion
Ġtech republic
Ġjust ify
Ġ0 6
Ġsch umer
Ġ19 60
ix is
Ġdef ending
Ġel iminated
ah a
Ġ17 4
Ġmult ilateral
ats on
Ġregul ate
Ġfail s
ards on
Ġred es
Ġcit ation
Ġver ify
Ġappear ances
Ġwa ited
Ġut m
umb ered
Ġencour ages
Ġlib r
Ġsil ent
Ġdoub ts
Ġscr apped
Ġscr ambling
Ġpromot ional
Ġexclus ion
rep res
Ġandrew s
Ã¤ n
Ġtroub led
ĠÙĪ Ø§ÙĦ
Ġswitch ing
Ġunderst ands
Ġfavour ite
Ġcoordin ate
Ġomn ichannel
Ġweap on
Ġpu zz
ĠØ¹ ÙĦÙī
Ġrobin hood
Ġnr g
keep er
forest ation
review ed
astr azeneca
dub lin
Ġserop revalence
Ġbottlenec ks
Ġcontempor ary
Ġpeps ico
Ġunde rest
Ġredempt ion
e an
j ay
y ield
ä ¼
Ġt ended
he tic
Ġc lo
Ġw ag
Ġp ax
Ġf iction
Ġb ust
al o
Ġn ash
ur as
ut s
ĠâĢ ķ
Ġwe ird
ch ar
Ġv oc
res our
Ġtr apped
ke ley
Ġsp on
Ġsp ark
ib e
Ġen erg
Ġqu i
Ġam ple
ag an
Ġup stream
Ġoff ensive
Ġmarket ers
Ġrec alls
ok ovic
Ġ5 50
Ġpre print
Ġpre tax
Ġbr a
Ġbr ink
Ġinter val
Ġrep ly
Ġtest im
Ġback b
Ġcost co
Ġprev iew
Ġintern ally
Ġorgan ised
Ġcapital ized
Ġspec ified
Ġstrateg ists
Ġ13 9
Ġshort ing
Ġprice y
ah an
Ġtax pay
Ġ16 9
oms on
Ġtreat y
Ġwatch dog
Ġtable ts
sh ares
Ġpresent ations
wh ite
Ġir r
Ġchar lie
do or
Ġlog o
ij uana
Ġinflation ary
Ġcourt esy
Ġdam ages
clus ive
Ġgrand mother
Ġarrest s
Ġcab in
Ġspan ning
Ġundert aking
Ġsatisf y
Ġbail ey
Ġboy cott
Ġtan ks
Ġpayroll s
Ġexempt ions
dem ocr
Ġescal ating
Ġmoun ted
Ġlob b
Ġkne e
Ġplumm eted
Ġdatas et
Ġveget ables
Ġtribun al
Ġbah rain
Ġinval uable
Ġswim ming
Ġfibro sis
Ġlukas henko
Ġendors ed
Ġbiomed ical
inflamm atory
Ġinhabit ants
Ġundou bted
1 000
e ast
f urt
h ost
l ay
l ich
t el
Ñ ĩ
Ø ¸
Ġs ue
Ġc els
Ġb icy
ar at
Ġl one
Ġn ach
Ġn ih
Ġn vidia
om inated
ur ate
st ocks
ol o
Ġ2 10
Ġv r
est ab
ter y
qu ity
Ġtr ibute
Ġco des
tr ack
Ġsp o
ip ts
Ġi h
Ġout reach
Ġam sterdam
Ġup set
Ġlo ose
Ġman ages
Ġreg ards
Ġshe er
Ġrel ent
Ġrel ates
Ġdes c
Ġcur ric
Ġdown play
Ġdown stream
Ġsch w
Ġadv ise
Ġconf used
cl osed
Ġ15 5
pl ing
Ġeng l
str uction
Ġproject ion
Ġpass ports
row s
Ġdist ant
Ġ31 0
be k
Ġbroad caster
ung en
Ġcommon wealth
Ġcell ular
Ġ199 7
Ġoptim ization
Ġbur d
Ġpen n
Ġspeed s
Ġexam ining
Ġconsequ ently
Ġpeak ed
prof its
Ġminor ities
Ġinsp iration
Ġpriorit izing
Ġjul ho
Ġstream line
Ġphotograp h
Ġhyp othe
Ġwis dom
Ġkat rina
Ġforg ot
Ġfortun ately
Ġprecise ly
Ġrena issance
Ġslam med
depend ent
Ġbez os
orbid ities
saf ety
Ġincar cer
Ġunaccept able
h ia
h aven
i ology
k an
p ace
u itive
x x
Ġt yson
Ġs ba
Ġthe ore
Ġc em
Ġc atherine
Ġw w
Ġp am
it ers
Ġf b
Ġb itter
ed a
Ġl ang
Ġe q
Ġg ent
Ġy ards
Ġhe m
Ġhe patitis
Ġr m
Ġr ud
Ġr ivers
Ġwh ist
am ble
Ġne ural
res a
Ġtr ag
Ġco aches
Ġ' )
Ġgo og
ist as
Ġpr inted
Ġpe pper
Ġcl ash
Ġthere of
Ġhealth ier
Ġinter oper
ident ified
Ġend emic
Ġsur aj
xt ures
Ġair borne
Ġpar ade
Ġloc als
Ġmas ked
Ġlab els
Ġbenef iting
Ġmid day
Ġ16 7
ins ki
ĠÂ ¥
Ġsk ip
Ġste al
Ġparticip ant
Ġca uc
Ġindic ative
Ġ26 0
Ġname ly
Ġrob inson
Ġver mont
Ġintegr ating
Ġland ed
Ġten ure
Ġpolit ician
Ġbir ds
Ġven ice
Ġrent als
Ġjun k
Ġcycl ical
Ġalign ment
Ġpil ing
fin anc
Ġsatisf ied
Ġepidemi ology
Ġanalyz es
Ġingred ient
Ġgun s
Ġautonom y
Ġroutine ly
Ġrub ber
Ġmilest ones
Ġdj okovic
Ġaffili ated
Ġah med
Ġarbit rary
Ġencoun tered
Ġcath olic
arth y
rele ases
Ġhav oc
Ġrestrain ts
Ġabn orm
Ġderm at
Ġnin th
Ġaap l
Ġredd it
Ġrede em
Ġtaxpay ers
c iÃ³n
g erald
l ings
p n
t re
v an
w c
w at
å ¤
Ġt une
re uters
Ġs ut
Ġs ich
it Ã©
Ġb ug
Ġb one
Ġm io
Ġd h
Ġre wards
Ġl dp
Ġg ren
ur ities
st rom
Ġcon go
Ġj d
Ġj uan
ave er
Ġun wa
Ġun cover
Ġac res
Ġsp encer
Ġrec ap
ll er
Ġro th
Ġpre ference
Ġ6 50
Ġ0 5
ind us
Ġz ha
Ġsupp lied
Ġair pl
Ġfl av
Ġpar ad
Ġant itr
aff ir
Ġpot ent
Ġce ase
Ġ18 1
Ġrun ny
Ġfil ter
Ġhard ship
Ġ17 3
Ġdrug makers
Ġdesign ation
Ġguid ing
Ġbi oc
Ġbi olog
Ġevent ual
ris es
Ġ27 5
Ġship ment
Ġver izon
Ġprem ises
Ġren d
Ġarg us
Ġmis con
Ġtransform ative
fect ion
Ġexplo it
Ġciv ic
Ġic eland
Ġconserv atives
Ġadapt ation
Ġpopul ous
Ġdisney land
Ġinsp iring
Ġthr iving
Ġutil ize
Ġod d
Ġnuc le
Ġadequ ately
Ġlever aged
Ġmah aveer
Ġecho ed
Ġng os
Ġdisse min
Ġphilos ophy
Ġpredomin antly
Ġuni verse
Ġreyn olds
Ġundoubted ly
Ġsuraj mal
Ġunwa vering
a uction
e ven
f are
j ones
l le
s ur
t imes
å ľ
Ġt at
Ġa ws
er d
at ivas
Ġw atson
Ġp Ãºblic
Ġf ores
Ġin ception
Ġin security
Ġm ik
ed e
Ġh bo
Ġh anging
Ġl anka
om on
om berg
Ġg hana
Ġst ell
st ud
ill er
Ġcon ferencing
ac a
est hes
Ġse ed
Ġj av
Ġsh ir
Ġab str
Ġle af
ie g
ie u
Ġout line
Ġqu ando
ag h
Ġem ission
Ġpres cribed
Ġdr ones
ugh ters
Ġjust ified
Ġcol our
Ġinform aÃ§Ãµes
int o
Ġtake away
Ġfore going
Ġreal ty
Ġcapital ize
Ġmet han
Ġmain e
Ġsupply ing
Ġvis as
Ġsl ides
Ġ16 4
Ġjour neys
Ġcontract ual
Ġwal ker
Ġhed ging
cy cle
Ġfirm ly
Ġbre ed
Ġbre tt
Ġspace x
Ġnormal cy
Ã§ as
Ġstimul ate
Ġjump ing
Ġmind ful
Ġrenew al
Ġpal mer
Ġpor ter
Ġoverse e
eff icient
Ġanalyz ing
Ġmcc arthy
Ġescal ation
Ġdistribut ing
Ġspons ors
Ġrepurch ases
Ġdisast rous
bal ance
Ġdj ia
Ġmamm oth
vas ive
fight ing
Ġtherm ometer
Ġstro ke
Ġpractition ers
Ġconval escent
Ġdecept ive
Ġantitr ust
0 21
: .
f en
g ame
h c
n ational
o bs
r uss
t ically
x on
å Ľ
er te
en abled
an z
ar an
ar bon
Ġd ir
Ġth orn
Ġst aged
ow ing
se vere
ac ular
âĢĻ :
ul u
Ġne o
oc omprom
ab out
Ġk ap
Ġnew ton
Ġpre f
Ġsc ienced
Ġfir ing
acc ess
Ġcas c
Ġcas inos
te xt
Ġpos it
Ġbo fa
Ġrep lied
ish a
Ġdown s
Ġshow c
ft y
Ġform ing
Ġaccess ories
Ġve ctor
Ġfar mer
Ġce iling
bo oks
omet ric
Ġmid night
Ġsing ing
Ġspecial izes
Ġpet ers
ument ed
Ġrecomm ending
Ġmiss ions
Ġviol ation
Ġgames beat
Ġsyn ergies
Ġengine ered
aut h
Ø± ÙĬ
Ġreopen ings
Ġschedul ing
Ġange l
Ġfeed ing
Ġdraw s
Ġpurs uit
Ġbattle ground
Ġsettle ments
Ġtrail s
Ġjeff eries
Ġjul ian
Ġrom an
Ġunfortun ate
ui Ã§Ã£o
Ġjac ob
Ġvaccin ating
Ġevac uation
Ġdisproportion ate
Ġrestrict ive
nrnr nrnr
Ġscar ce
Ġphr ase
Ġyog a
Ġinterven e
Ġunif orm
Ġcredential s
Ġpredecess or
Ġcock tail
Ġdisappoint ment
Ġsmar ter
Ġjewell ery
Ġhend erson
Ġspon sored
h ave
h ub
j our
m ov
Ã ł
ç »
Ġa uss
Ġf m
ing es
ar io
Ġh ires
Ġh hs
Ġe con
Ġg aza
ct ors
le m
ment ation
Ġcon form
ac ulture
ul ent
ul um
ave l
Ġtr ill
Ġun re
Ġor ph
Ġpl ain
Ġout right
Ġap ol
ber ra
Ġfin ishing
vel and
ens es
Ġfr a
Ġworld s
Ġret ro
Ġ8 76
ump h
ost o
Ġelect ro
Ġ15 3
Ġcapital ization
Ġsou l
Ġ18 5
Ġdist anced
Ġyork ers
Ġdesign ing
Ġlet hal
Ġtem pl
err ane
Ġturn out
Ġpet co
ij i
Ġimmun ocomprom
Ġantib iotic
Ġextr action
Ġconstr ained
Ġexpress ing
ban ks
Ġcollabor ations
Ġexplo itation
amm y
ĠÃ ¢
Ġdur able
Ġdur ante
Ġdomin ate
Ġintr ig
Ġprovision al
Ġresist ant
Ġearth qu
Ð° Ð½
ih ad
Ġvictor ian
Ġcargo es
Ġembr acing
Ġtap ering
Ġsir ius
Ġrevolution ary
Ġreass ured
Ġgh ost
Ġgreg ory
Ġster oid
Ġbern ie
Ġcos met
Ġinherent ly
gre ens
Ġlapt ops
uke e
Ġderiv atives
Ġgab ri
Ġsque eze
Ġhung ary
Ġcyberatt acks
hig hest
Ġblan ket
Ġopio id
Ġmathe mat
Ġmedit errane
Ġmozamb ique
Ġscienced aily
Ġmediterrane an
3 20
b en
d rew
e b
e re
f un
i ks
r ical
x i
Ġs es
Ġs ist
Ġs aint
it ting
it ten
Ġb illy
Ġm Ã©d
Ġd orm
Ġh indu
Ġl ap
ou lin
Ġn m
Ġg ib
le ments
et ics
Ġst ain
se ek
Ġse ating
Ġex tern
Ġch in
res il
qu is
Ġtr ac
Ġres on
Ġsp are
od ox
Ġbut t
Ġdo ordash
ition ed
duct ive
Ġdr illed
Ġcap e
Ġproduct ions
ric a
Ġret al
Ġrep atri
Ġdes ired
Ġcent uries
Ġinst ability
Ġshould er
Ġbl air
Ġed in
Ġpar s
Ġpar as
app ropri
Ġfact ion
Ġmy ri
Ġread er
Ġschool ing
Ġbro oks
Ġche ese
ty pe
Ġ14 2
Ġ14 7
ah l
Ġplat ts
Ġnat ixis
Ġview er
Ġcomb ines
Ġyoun gest
16 9
Ġviol ating
ape ut
Ġacceler ator
Ġgl as
Ġpath ways
wa ukee
Ġexerc ises
Ġnav igating
Ġseat belt
Ġho ok
Ġfat ality
Ġeth iop
Ġsearch ing
Ġreli ant
resp ons
Ùĩ Ø§
Ġincor rect
Ġrefin eries
Ġconclud es
Ġhun ting
Ġmount ains
Ġaz ure
Ġrevers al
Ġdiscoun ted
last ing
Ġdispl ays
Ġexhaust ed
Ġfant asy
Ġlyn ch
Ġcryptocur rencies
Ġbac helor
Ġgate way
dra wn
Ġreferen d
Ġsubur bs
Ġeleph ants
Ġlv mh
Ġinjust ice
= -
c d
c up
f alls
k line
p rop
y o
Ġ umb
Ġa ve
or ia
Ġin her
Ġd ax
Ġto dd
Ġh ills
Ġe book
Ġg he
Ġst if
Ġde x
Ġpro gn
Ġwith drew
Ġse al
op es
Ġcomp rises
el li
ud ed
Ġmar ijuana
Ġcan nes
Ġcan berra
du cing
Ġsc oring
Ġcr acks
Ġar c
Ġdec arbon
ne xt
Ġinform ing
Ġins iders
Ġbillion aires
Ġcustom ized
Ġset h
Ġconf ed
Ġve t
Ġopen ly
Ġmet ab
Ġtyp ho
Ġ17 8
Ġ16 5
10 2
Ġtem p
Ġtem pt
Ġsan ction
Ġque ue
Ġbal lo
Ġregard ed
Ġgl ax
Ġmit igating
Ġconst ell
Ø§Ø ³
35 1
lin ary
Ġconsult ations
Ġattack ing
Ġadvance ment
Ġunique ly
ÙĤ Ø¯
Ġstraight forward
Ġutil ized
Ġtransl ated
Ġhun ter
Ġhun gry
fr ame
Ġrail road
Ġepidemi ologists
Ġterror ism
link ed
Ġanonym ity
not es
Ġpill ar
Ġjosh ua
Ġrh in
invest ors
Ġsuspect s
Ġaqu aculture
bear ing
Ġlegend ary
Ġmish ra
stre et
Ġling ering
Ġcorrel ation
cit iz
Ġscal able
Ġfitz gerald
Ġrober ts
Ġaur ora
Ġserb ia
Ġcareg ivers
Ġoverlook ed
b urn
c led
e en
f h
f ather
h as
h are
o ir
s ample
w id
w ave
Ġ Ñģ
Ġt ian
Ġt ui
Ġs ands
Ġs ierra
Ġc arg
Ġm lb
Ġd ys
Ġto e
ro se
Ġre ais
Ġre affir
Ġth rew
Ġg s
Ġg ug
ur i
ur ry
im an
ad ores
Ġis a
Ġv at
Ġy u
ac ia
ate mal
ul in
Ġj ans
iv ar
Ġinc oming
Ġle ak
Ġ'' );
ust ainable
Ġk os
Ġk pmg
any ahu
Ġup ended
Ġacc idents
Ġlo ves
Ġinter pre
Ġbo ot
Ġbo oming
Ġ0 2
Ġbu oy
Ġtechn ically
Ġz w
Ġins isting
Ġ19 89
Ġdet r
tt en
Ġtop s
Ġ15 7
Ġopen ings
Ġcle aring
Ġcle arer
aw k
Ġ14 6
Ġreco vers
Ġplace ment
Ġhim ss
Ġdeal er
Ġcred ible
Ġstand point
Ġguid es
Ġcy n
sh ad
sh ine
Ġbal ancing
Ġrev isions
Ġir s
Ġca ix
Ġarr anged
ple te
Ġexist ed
Ġcapac ities
Ġcirc ulation
Ġden ies
Ø§Ø ¹
au x
hy th
Ġsex ually
Ġqual ifying
Ġevalu ates
Ġtext ile
Ġmaxim ize
Ġclar ify
Ġos aka
Ġathlet ic
Ġincorpor ate
bu ying
Ġrecip e
Ġfacilit ating
Ġfrustr ating
Ġbackground s
ĠÙĦ ÙĦ
Ġcatastrop he
Ġprohib ited
Ġlev y
Ġkilomet ers
Ġnorthwest ern
Ġprecaution ary
Ġcg d
Ġpropag anda
Ġretrospect ive
Ġcush ion
Ġdelight ed
Ġcytok ine
flu id
Ġnightm are
Ġimmunocomprom ised
) )
c amp
h ics
m ers
p ayer
v ance
w ed
Ø £
Ø º
Ġt ire
Ġc ms
Ġc ats
Ġw yn
Ġp ing
Ġp ile
Ġp umm
Ġin se
Ġg t
ir ut
Ġ2 19
Ġde forestation
Ġv ic
Ġv ive
ith kline
ac her
op ed
qu arters
Ġ20 4
Ġun anim
Ġsh y
um i
el o
Ġad he
Ġad rian
Ġk et
Ġk yr
ag a
Ġup hol
Ġcl ip
Ġso f
Ġsy mp
Ġbu ys
Ġaut or
Ġsal ons
Ġnet anyahu
Ġinst antly
Ġkn ight
Ġdirect ive
Ġ19 5
cl aim
Ġnon profits
Ġcris pr
Ġ15 8
Ġce ment
Ġext ens
da vid
Ġsl ate
Ġmat ched
ph arm
Ġtable t
de gree
Ġreop ens
Ġdiscuss es
Ġcampaign ing
Ġflow ing
Ġimmun ology
Ġimmun ogenicity
Ġrecogn izes
Ġgreen back
Ġentire ty
Ġben zing
Ġfuel ing
Ġconv icted
Ġvo y
Ġvo iced
Ġdil em
Ġpark er
Ġnegoti ated
Ġ{ :.
Ġbench marks
Ġroyal ty
Ġinteresting ly
Ġfrank furt
Ġpul se
Ġrepro duction
Ġcha otic
imp osed
Ġinterv als
Ġeag le
Ġmunicip alities
Ġol iv
Ġow ning
Ġstockp ile
Ġanc ient
Ġhaz ard
Ġambul ance
ifi able
Ġoutsour cing
osm ithkline
Ã¡ri as
Ġbrist ol
Ġresched uled
Ġorg ans
Ġstain less
Ġconstell ation
a ults
h ospital
s l
s ky
s pread
Ġa ument
Ġa uster
in ery
Ġs ony
Ġo st
Ġp est
Ġb om
Ġin k
Ġan esthes
Ġh iding
Ġg v
Ġg an
Ġg em
st ill
ay an
Ġas x
Ġv ogue
Ġj ury
Ġsa bre
Ġco in
Ġor acle
Ġinc ons
ant i
act ory
Ġk yle
ak is
Ġqu int
Ġall erg
Ġmon ument
Ġmon ica
Ġso ar
lud ing
Ġdr ied
Ġdr af
Ġinf ant
Ġreg ain
fe ld
Ġret reat
Ġcur ious
Ġsal ud
Ġsign aled
Ġinst inct
Ġcompan hia
Ġsm s
cr is
xt ure
Ġgu atemal
int ensive
Ġbot tle
Ġ19 34
br and
Ġset back
down s
Ġmem br
Ġpost er
aff ected
Ġless er
Ġ14 3
Ġport ra
Ġhal ting
Ġtax ation
Ġfil ip
ins ight
Ġmor oc
Ġbeh ave
Ġq antas
Ġclin ically
Ġdrop lets
Ġwal greens
Ġprotest ing
Ġline up
sc re
âĢĵ âĢĵ
Ġren der
Ġstar ring
Ġje rem
Ġattack ers
Ġlaws uits
Ġdetect ing
Ġmax well
att i
Ġlay ing
Ġnom inal
Ġinde bted
Ġthr illed
Ġauto immune
Ġpsych ology
Ġneutral ising
Ġsin uses
Ġopp ose
Ġsurround ed
Ġrepro ductive
Ġfrag mented
Ġstuff y
pol ice
Ġstag gering
Ġinterpret ation
Ġbound aries
Ġarbit r
Ġunw illing
Ġcrunch base
Ġpess o
Ġbarg aining
Ġfulfill ment
Ġlon eliness
Ġhamm ered
associ ated
Ġplung ing
amaz on
Ġtestim ony
Ġsirius xm
Ġedin burgh
Ġuphol stered
Ġbenzing a
0 20
c lick
d ings
f is
f acing
n as
t led
æ ĺ
Ġt ale
Ġa ide
Ġs eng
Ġp on
it as
Ġb il
Ġm ate
is ations
is ible
Ġd s
Ġd ensity
Ġto k
Ġh oc
Ġl iz
Ġl ying
il tr
id i
im ated
ment ioned
Ġpro min
Ġy or
Ġr as
est inal
Ġne pal
Ġj ol
Ġch ant
Ġun ic
Ġinc omp
lo vid
Ġnot ify
Ġsp at
Ġsp ear
ich t
Ġam p
Ġdr astic
ens ky
Ġbo ots
ced es
Ġlast ed
Ġanaly se
cr ypt
Ġstock holm
Ġ19 33
Ġcontr a
Ġcontr ary
Ġelect ive
por ous
Ġconsum ed
ex ec
Ġ13 7
Ø§ ÙĤ
Ġshort fall
Ġ18 4
Ġfil med
Ġ16 8
Ġcompet itions
work ers
Ġmater nal
Ġmil waukee
Ġhour ly
Ġaud ited
Ġaud itors
Ġinvestig ational
ograp her
Ġer up
Ġdeterm in
Ġâ ĸ
Ġec ological
Ġsun shine
Ġapart ments
Ġcyber cr
Ġmel t
Ġped est
Ġarchitect s
Ġemb arr
Ġvac u
Ġdan ish
Ġreconcil iations
Ġdatab ases
Ġdivers ify
Ġfulf il
Ġrom ania
ii i
Ġjet blue
bid en
Ġforth coming
Ġcontinent al
Ġmotiv ation
Ġinspect ion
Ġsteven s
Ġstockp iles
Ġstockp iling
Ġforg iveness
Ġmidw ives
Ġplate let
Ġtoug hest
Ġjane iro
Ġunderperform ed
Ġmillenn ials
Ġcondem ned
Ġinterrup tions
Ġaffir med
Ġpron ounced
heav y
ĠpaÃŃ ses
Ġrecru iting
Ġallev iate
Ġbubb les
Ġpax lovid
Ġinteroper ability
financ ial
indus try
Ġglas gow
c at
l ists
l ayer
m ile
p en
r idge
t ou
v ie
Ġ ì
he art
Ġthe ft
Ġc ave
Ġo tc
at ible
Ġw er
an ne
it ous
Ġm our
is k
is en
Ġd ock
Ġd ressed
Ġh ob
Ġh fs
Ġn od
Ġg ur
Ġg ases
Ġbe irut
im mer
Ġwe ars
ch art
Ġy ale
Ġcom orbidities
se pt
Ġj abs
if ty
um ab
um atic
Ġinc ur
av ed
ub er
all oc
Ġen f
Ġap t
Ġper o
Ġcl a
Ġover turn
Ġover weight
Ġover haul
Ġinv itation
ven cy
Ġu c
Ġrem un
gr at
Ġed wards
Ġmy ster
Ġreal ise
Ġnon porous
Ġtim id
Ġche ng
Ġprotect s
aw ays
Ġbid ding
Ġpass ive
Ġsl ots
Ġbar ring
Ġcompet it
cc a
Ġaug mented
Ġcop ing
Ġmic he
Ġcentral ized
Ġmill s
Ġexc itement
Ġquestion ing
Ġred istr
Ġlog ged
off ice
Ġcance ling
Ġ36 4
put ed
Ġconsult ants
Ġpaper work
Ġstandard ized
Ġtreas urer
Ġcru z
Ġrecon sider
Ġadvert isers
Ġalloc ate
Ġple ather
Ġexact ing
Ġpopul ated
Ġfreed oms
Ġeg g
Ġpled ges
Ġmineral isation
Ġsanit ize
abil itation
Ġswit ched
Ġmaster card
Ġstick ing
hour s
Ġesp n
Ġhonest ly
Ġmeta verse
Ġtrick y
Ġkne at
Ġknock ed
foot er
Ġdeterior ation
Ġskept icism
gre en
Ġhug hes
Ġdecent ral
Ġnich olas
Ġdisadvant aged
Ġfeas ibility
Ġphill ips
Ġsynthe tic
Ġstun ning
Ġark ansas
spe ed
Ġreh abilitation
Ġinactiv ated
threat ening
Ġlibr aries
h ailing
j am
s ystem
t ier
u et
v s
y er
Ã Ł
Ġt ak
Ġt ide
Ġt ape
Ġa ert
re ction
Ġp ets
Ġp ued
Ġf c
Ġb og
Ġm ers
Ġto ken
Ġre ap
Ġre election
Ġl ion
Ġl id
Ġl asts
us o
ur rent
Ġfor bear
Ġbe ars
ot hy
Ġy emen
Ġhe ath
Ġr b
Ġr if
ac id
Ġal gae
Ġse ize
Ġex xon
Ġch ry
Ġ( )
Ġ20 6
Ġtr ucking
Ġtr usts
ial e
ab we
Ġinc on
lo e
Ġmar co
Ġexp iration
ine ken
Ġen forcing
Ġup load
Ġte ens
Ġro sen
own er
Ġsc arc
Ġstr ained
Ġreg istry
ian o
uc ci
ang o
Ġke ith
Ġsub group
Ġweek day
Ġrest ored
Ġlow ering
Ġent ers
Ġcar ter
Ġgu ine
Ġbl aming
Ġval or
the quity
Ġnon controlling
uss ions
Ġcre ws
Ġrece ption
Ġfed ex
ling ton
Ġpress es
Ġactiv ated
Ġkey s
Ġ18 9
Ġ17 9
Ġenv igo
Ġcorpor ates
Ġq r
Ġvi ability
Ġste am
err als
Ġprep ay
Ġbrit ons
Ġautom obile
Ġhar vey
Ġtre k
pro of
ann y
Ġlog ging
market report
Ġfoot wear
Ġdomest ically
Ġpath ology
uk i
Ġmach inery
arch y
Ġpropos ition
Ġzo o
Ġber keley
Ġquant ity
Ġquant ities
Ġspect acular
Ġdur ham
Ġgar age
Ġconfident ial
Ġshock ing
Ġresist ed
Ġexceed ing
Ġilleg ally
Ġtot als
Ã¨ s
Ġble ak
Ġtear s
Ġperm ian
Ġsuperv ision
Ġreplic ation
20200 7
Ġanc est
Ġauthentic ation
Ġreserv ations
Ġstap les
Ġexplicit ly
grad uate
imb abwe
Ġcharl otte
Ġobstruct ing
Ġoutwe igh
quarant ine
Ġcem et
Ġabstr act
Ġgug gen
cris is
a ments
c our
e very
e uro
g ender
k ok
l aim
m g
r ise
s ub
w agen
å °
Ġ Ã¡
in tern
Ġc f
Ġw an
Ġp ren
Ġf ing
Ġf its
is uke
ic iency
Ġh orm
Ġg astro
Ġst al
Ġst ones
Ġst uart
im er
Ġde br
Ġv ocal
Ġy ellen
Ġwith drawn
Ġal p
Ġne arest
Ġmo ham
Ġj ah
Ġsa as
Ġwor sen
Ġad here
art is
act ively
Ġsp ire
od ed
Ġpl ag
ks wagen
ib o
ail able
Ġro oted
Ġapp rent
Ġcomm ander
Ġcr ush
Ġstr aw
Ġreg imes
Ġsign aling
Ġest Ã¡
Ġest ado
Ġdirect ing
Ġmy st
Ġgood by
Ġve in
Ġche f
Ġpress ured
Ġmod ular
Ã© g
Ġperform ers
Ġconcer ts
Ġsw abs
Ġcamp bell
Ġsour ced
Ġgre ens
Ġcy t
Ġur ges
ames e
Ġda ughters
Ġprep ares
Ġshop ify
Ġaccount ants
ĠØ Ń
Ùħ Ø§
Ġchair s
pos itive
Ġthought ful
Ġhur ting
net t
cont rol
Ġmer cedes
Ġrein v
Ġframe works
Ø¯ Ø©
Ġexport ers
Ġfem in
Ġeg gs
Ġshock ed
Ġrefin ery
Ġtrail er
Ġpetro chemical
Ġlag ging
Ġell is
Ġbras ile
Ġlyn n
Ġsovereign ty
Ġbrows ing
Ġug anda
Ġrhe umat
Ġtam te
vide o
Ġlith ium
Ġrefr iger
Ġdash board
Ġoccas ions
Ġheal thequity
Ġanal og
Ġscul pt
Ġintim id
Ġpessim istic
Ġtrill ions
Ġapol lo
apeut ics
Ġguggen heim
4 15
a ired
m aster
p iece
t ent
y ard
z i
Ġw ong
Ġw ax
en ess
it ar
Ġf bi
Ġb ach
Ġan o
Ġan ecd
Ġd wind
Ġd iane
Ġh ier
as one
Ġth ai
Ġth omson
Ġn ico
st ated
ir able
ay ed
ad h
ad ay
Ġwe work
Ġde ar
Ġv g
Ġhe ineken
ate ur
Ġse aled
qu est
os o
Ġco o
oun ce
art a
ant icip
Ġle ic
Ġexp o
19 3
Ġk ol
ard ed
Ġqu o
Ġint ake
Ġcl ay
Ġcl ues
Ġcor on
Ġrec lass
Ġag osto
Ġwork flow
Ġro ster
Ġpol ÃŃ
Ġfr ances
ass am
Ġz el
Ġest ados
Ġma id
Ġant hem
Ġreal ised
Ġrece ipts
Ġfound ations
Ġtrave lled
Ġmod ify
Ġbar n
Ġexecut ing
Ġ17 1
Ġ17 7
10 6
Ġge o
Ġsuccess ive
Ġdev oted
Ġcomb ust
Ġhed ges
Ġca fe
Ġpus hes
Ġver d
Ġunl aw
Ġ199 2
Ġantib iotics
Ġassist ed
Ġlt c
Ġbrief ings
Ġlic ence
Ġtraff icking
Ġho ly
Ġbir x
Ġchem istry
Ġcharacter ized
Ġrid ic
Ùĩ Ùħ
Ġburn s
Ġsam uel
Ġdisinfect ant
Ġcolomb ian
Ġweigh s
Ġjim my
Ð¾Ð ²
Ġcham bers
Ġchart ered
Ġtip ping
Ġcooper ate
Ġmolec ule
Ġremind ed
Ġgrapp le
Ġstabil ize
Ġmemo ir
Ġentr ance
dog an
Ġbiopharm aceutical
Ġbrid ges
requ est
Ġanne x
Ġsear ched
Ġsear ches
Ġku wa
Ġpersu ade
Ġconfron ted
Ġcoven ants
orig inal
Ġrug by
Ġhelicop ter
micro soft
Ġniger ian
Ġaram co
Ġcels ius
Ġorph an
Ġglax osmithkline
Ġscarc ity
1 21
b inding
f ed
f unction
i Ã¨
j s
m d
n ax
r at
s qu
t m
t reat
y cle
re ed
re ated
Ġc isco
Ġo ust
Ġw ond
Ġf iat
Ġan k
Ġh ailed
Ġre organ
Ġl omb
Ġn fts
Ġg es
Ġg ould
et a
st all
im ab
Ġit m
Ġhe w
se cond
Ġr ms
ac ious
th ree
Ġj as
Ġch i
Ġco ors
Ġ' );
Ġcomp ounds
Ġhas ht
Ġad p
Ġnot or
ren da
ib i
Ġcl er
Ġag r
Ġcr ashed
Ġbr aces
Ġinter fe
li ances
Ġbo ast
Ġrep ur
Ġrep erc
Ġpat rons
Ġev ade
Ġsm ile
Ġsm ash
Ġresearch ing
uct ions
Ġbank er
Ġreal ities
land o
Ġconsum e
str ong
Ã© t
Ġvis itor
bo ards
Ġtax payer
Ġli ked
Ġleg s
Ġenv ision
Ġstaff ers
Ġwed dings
Ġsuccess or
de z
Ġrele vance
Ġpack ing
Ġarr ives
Ġpet e
Ġmicro bes
Ġmiss ile
Ġlog in
Ġopt ical
Ġimmun o
Ġbat tered
Ġdam asc
Ġer adic
Ġer dogan
Ġgm bh
Ġwall ace
ob last
Ġpan els
35 3
Ġjump s
Ġprec arious
Ġsurv iving
Ġpredict able
Ġcondition ing
Ġconstit utes
Ġpip elines
Ġwild fire
Ġclot ting
Ġtheat rical
Ġmineral s
Ġexceed s
Ġrout ines
Ġbankrupt cies
Ġell en
Ġboun ced
Ġdire itos
Ġinsure r
effect s
Ġsant ander
Ġcamer on
Ġhamp ered
Ġhamp shire
Ġexhaust ive
Ġinstrument al
Ġhorr or
Ġseam lessly
Ġcurtail ed
Ġvin od
Ġphr ases
Ġinaug uration
Ġmicrobi ology
Ġbrow se
Ġstephan ie
Ġfeder ally
Ġcambod ia
Ġcurric ulum
Ġwhist le
Ġzha o
Ġintrig uing
resil ience
Ġreferend um
Ġtypho on
Ġvacu um
Ġcompetit iveness
2 10
4 16
6 70
d ale
f ile
m ant
s pect
ä ½
he y
er ie
Ġw es
an bul
Ġin nings
ar am
Ġd um
Ġd hab
Ġh ort
Ġh ain
Ġl or
Ġl amb
ent in
Ġn ag
Ġst ack
Ġv or
Ġcon grat
Ġal tered
am eth
up p
ge o
Ġ20 7
em ies
em bers
Ġun var
Ġsh ine
tr ust
00 2
Ġ3 20
Ġout flows
Ġper ceptions
Ġme io
Ġoff s
Ġso x
anc ers
Ġro g
Ġro gers
Ġthere after
Ġimp lies
Ġar thr
Ġman us
Ġinf ring
Ġinter cept
Ġmin k
Ġpat ience
20 30
Ġlong standing
Ġgr ind
Ġz imbabwe
cr itical
cent ral
Ġav iv
Ġreal ization
Ġlif eline
Ġ15 9
Ġspec ify
Ġemerg es
Ġport ray
Ġpur ple
go b
Ġmid west
Ġjan et
Ġ31 50
Ġlist ened
Ġcred ited
Ġview ing
Ġmor bid
Ġapplic ants
Ġdom ains
Ġ23 5
Ġ22 8
sc ious
Ġ27 0
Ġx iao
Ġtele vised
Ġmicro fluid
Ġcit i
Ġbrand ed
iment o
Ġanticip ating
Ġdiv or
Ġ38 5
Ġstress ful
Ġtas ked
Ġmix ing
Ġfriends hip
Ġtransition ing
Ġcast ing
Ġmut ation
Ġretire es
Ġspect er
Ġdedic ation
Ġeg m
Ġhall s
Ġpostpon ing
Ġwip ed
har i
Ġwid ening
Ġwitness es
Ġassemb led
Ġdefic its
Ġshap ed
Ġstadium s
Ġunve il
Ġrevers ing
Ġinhib itors
Ġpreval ent
Ġshield s
Ġric hest
Ġgam ble
Ġpure ly
Ġsurviv or
Ġtum ult
Ġampl ified
Ġhu ang
Ġinoc ulation
Ġist anbul
Ġrena ult
Ġwo es
Ġhotsp ot
Ġderiv ative
Ġemotion ally
Ġoccas ional
Ġabsor b
Ġsacrif ices
Ġtradem arks
Ġkaz akh
Ġtunis ia
Ġcyp rus
Ġastronaut s
Ġmead ows
Ġmyri ad
wid th
Ġauster ity
sept ember
Ġdhab i
Ġunvar nished
Ġarthr itis
3 50
c os
d aily
e ared
g os
l ation
l ondon
p rom
s ah
v ia
v isma
in um
Ġc ine
Ġo sh
Ġp ix
Ġb ass
Ġre id
Ġre acted
Ġl act
Ġn ab
Ġn go
Ġfor bes
un ct
Ġbe loved
ir i
ch ron
Ġy osh
Ġcon du
Ġwith stand
Ġwh iting
Ġse as
up id
op ing
ess a
Ġch loroquine
Ġun ite
Ġun equ
Ġle agues
av an
Ġout patient
Ġper ÃŃ
Ġup front
og r
Ġover t
Ġinv ok
Ġpres erving
Ġno i
ec k
Ġjo el
Ġris hi
Ġunder w
Ġget t
Ġmed nax
Ġann ie
Ġweek ends
Ġest ud
Ġgu ang
Ġins ult
Ġins ert
Ġ19 2
Ġ19 8
ix on
down load
tt es
Ġpolic ing
Ġ15 1
Ġ15 2
Ġnear ing
Ġchang er
Ġwr ap
Ġ18 6
cast le
Ġrestric tion
Ġdist ort
Ġ16 1
Ġhand ing
Ġsuc c
Ġstand still
Ġcamp uses
Ġident ical
Ġsuccess ion
Ġneg lig
Ġens ures
Ġemail ed
Ġhar per
Ġx ia
Ġdeep ening
Ġ199 4
Ġdisrup ting
88 3
ane ous
ming ham
iment ary
Ġbur st
Ġwear able
Ø± ÙĪ
Ġuns afe
Ġrein forced
Ġgrand pa
Ġpopul ist
Ġalign center
Ġign oring
Ġharris on
Ġcontribut es
cap tion
cons um
cons olid
Ġtroub les
hr an
Ġimag ined
Ġreck less
Ġinequ ities
Ġliter acy
Ġpap ad
Ġevolution ary
Ġtow ers
Ġsucceed ed
Ġol ive
Ġpu erto
Ġconting ency
Ġshed ding
Ġdeliber ately
Ġvertical s
Ġinters ect
blo omberg
ÂĢÂ ¦
Ġnsa ids
Ġprud ent
Ġmarginal ized
igare ttes
Ġneglect ed
Ġconcess ions
appro ved
Ġparagrap h
Ġkro ger
Ġtj x
Ġtrag ic
hyth m
Ġmoham med
ameth asone
3 44
b low
c io
f ar
f ive
h all
j uly
j ani
l ical
n ity
p ot
u ating
z heimer
Â º
Ġt read
Ġa Ã±
Ġp ensions
Ġb ish
Ġb amb
Ġm olson
Ġd ancing
Ġd tc
as ive
Ġre semb
Ġre eling
Ġl op
Ġl ined
Ġn cov
Ġg ol
le tal
Ġst ir
st ad
Ġv u
Ġcon vey
Ġr uth
Ġ1 000
Ġal f
Ġse min
Ġex ting
Ġj os
qu er
oc umented
Ġtr ash
Ġun worthy
Ġco d
um ber
ap news
el ed
el lo
Ġinc ub
red it
Ġsp a
ub a
ub lished
Ġnew found
Ġ`` ,
Ġpr ayer
Ġen crypt
Ġpe aks
Ġro ver
Ġinv isible
Ġapp liances
Ġdec k
Ġinter f
Ġshe ff
Ġbo asts
Ġend omet
Ġhigh way
ish ment
ound ing
Ġsub way
Ġtechn ip
Ġsm oking
Ġlow e
Ġfl a
ath away
Ġprev ailing
Ġhospital ised
Ġmet h
Ġmet er
Ġmet all
Ġcle veland
Ġprop oses
Ġactiv ate
pr ivate
Ġbar ry
Ġ18 7
Ġsw ath
Ġvol kswagen
Ġ16 3
Ġcommit ting
inc luding
Ġdiff use
Ġafric ans
de al
Ġur l
Ġnorm ality
Ġclos es
Ġprotest er
Ġ22 6
Ġep stein
Ġir respons
Ġnas al
Ġnote worthy
Ġfinance iras
Ġrequest ing
Ġut tar
Ġbud dh
Ġcommitte es
rec irc
Ġmeasure ments
Ġnight cl
Ġblock bus
Ġpolit ic
Ġund ocumented
Ġdiagn ose
Ġexplo red
amm ad
Ġminim ise
Ġhon our
Ġattract ing
Ġbir mingham
Ġcompens ate
Ġped ro
Ġsound ed
Ġtel us
Ġundert akes
lim ab
Ġwis hes
Ġresum ing
Ġbuff alo
Ġ87 67
Ġunders erved
Ġcautious ly
Ġvolunt arily
Ġtourn aments
Ġformat ting
Ġlin ear
Ġvenezuel an
Ġcompound ed
Ġune ven
Ġtact ical
Ġpra ise
artic les
Ġreplic ate
Ġaccompl ished
Ġdesk top
fig ure
build ing
Ġgown s
Ġaccent ure
Ġcot ton
Ġdex amethasone
Ġjans sen
Ġguatemal a
Ġyor kshire
exec utive
Ġreperc ussions
Ġinvok ana
Ġunderw ent
Ġexting u
Ġblockbus ter
2 20
d ling
h ong
j ama
m ag
m und
m inded
n ame
o ce
t ol
t ings
w p
z marketresearch
Ġt apped
in ch
in qu
he c
Ġs as
Ġs ons
Ġc ull
Ġw i
Ġin ner
Ġd ug
Ġd rought
Ġh athaway
Ġre x
Ġl ent
Ġl amp
Ġl uf
Ġl aps
Ġth y
Ġn ir
Ġn athan
et ta
ur b
Ġbe ast
st orm
ch r
Ġv ague
Ġhe ct
Ġhe els
Ġr idge
Ġse p
Ġex em
Ġex cer
Ġmo dule
th y
th ans
ab ad
Ġor lando
el t
Ġus ability
ib u
Ġ3 70
Ġam n
Ġdis connect
Ġint uitive
Ġcl iff
Ġte hran
Ġrec essions
Ġwork flows
Ġem ea
Ġso ap
anc o
Ġinv o
Ġsc ams
Ġpres chool
Ġinf iltr
Ġend ure
gr and
Ġback up
Ġsub mar
Ġsal on
Ġsm el
Ġed itors
ax y
Ġ14 8
Ġlaw maker
Ġdeb uted
Ġwr ight
Ġ18 8
Ġsu ited
Ġsw ings
ai ro
ĠÂ ·
Ġvari ation
Ġmult is
Ġbi osc
Ġda unting
Ġboard ing
pro cess
Ġrespect s
ugg ling
Ġ29 0
Ġfun ny
Ġessential s
Ġimmun otherapy
Ġhost ile
ograp hic
Ġgl enn
Ġsurge on
Ġreb al
mb tu
43 3
Ġoptim ized
Ġps aki
Ġworks hop
Ġround ing
Ø± Ø©
Ġsqu ares
Ġms ft
Ġnov artis
Ġpull back
Ġlay ers
Ġpip e
Ġwild ly
Ġdu o
Ġestablish ments
Ġneut r
Ġspr ings
Ġrefin ers
Ġwid ened
Ã± a
fr ance
Ġsufficient ly
Ġphilipp ine
Ġgy mn
Ġshoot ings
Ġstem ming
Ġbang kok
Ġiraq i
Ġhay es
lif ting
Ġoverwhelming ly
Ġreferen ced
Ġquot es
Ġdatas ets
Ġorth oped
Ġrecre ational
Ġfeas ible
thr u
Ġbenefici aries
Ġpalestin ian
Ġinacc urate
Ġdign ity
Ġconglomer ate
Ġlobb ying
mov ing
citiz ens
Ġdamasc us
Ġendomet ri
thans a
) ?
0 23
5 36
b led
b log
g io
n ie
n ick
r ising
s y
s ensitive
Ð ·
Ġt fg
Ġa ired
Ġs q
Ġp ink
or ah
it ics
Ġf old
Ġb acks
Ġb har
Ġm h
Ġm err
Ġh t
Ġl eron
Ġe ats
ent ry
Ġn ft
Ġn ifty
un ivers
Ġv ibr
Ġpro actively
Ġal d
Ġal zheimer
Ġex cl
op ic
op les
Ġj azz
if rs
ess ler
Ġch urn
qu il
qu ito
Ġnot as
ie ve
Ġsp dr
Ġk i
Ġk ash
Ġk inder
Ġpl ague
Ġnew est
ak r
Ġdis charge
Ġme h
Ġpe w
Ġcomm em
Ġcomm enced
ile ver
Ġinter ruption
Ġresp ected
Ġret aining
Ġdes erves
Ġcontin ually
Ġcol in
Ġcol ored
ond e
Ġsign atures
co vered
Ġdon ating
int estinal
Ġset up
Ġconf using
Ġsol omon
Ġnon interest
Ġplay book
Ġmas on
bo y
Ġmat urities
Ġ18 43
Ġtax i
Ġdemocr acies
Ġvi enna
Ġfig ured
Ġ22 3
Ġ28 0
gn w
Ġboost s
Ġvirt u
Ġred field
Ġiniti ate
dr iving
Ġden nis
Ġben z
Ġten ant
Ø§Ø ¡
Ġdest ro
Ġspeed y
Ġuns ustainable
Ġborrow ed
05 3
Ġoffset ting
Ġafford ability
Ġib d
Ġhear ings
Ġscreen ings
Ġcontribut ors
wr itten
Ġlouis ville
Ġvill a
Ġpetro l
Ġacknowled ging
Ġhel en
Ġdos hi
Ġspons or
Ġrecy cled
Ġess ence
Ġfortun ate
Ġexception ally
Ġjoy ce
Ġlegit im
Ġinquir ies
Ġbh p
Ġcant or
Ġcater ing
Ġcul min
igare tte
Ġlaud er
Ġbenefici ary
Ġprefect ure
Ġunter ne
Ġabund ance
Ġenzy me
Ġforgot ten
Ġcemet ery
Ġgoodby e
Ġleron limab
+ +
. :
1 10
c ity
d in
f et
m ans
p it
p ric
s ubs
w i
è ®
Ġt ory
Ġs ow
Ġf ade
Ġto ss
ro d
Ġh over
Ġl dquo
ou i
Ġn l
il er
Ġg c
Ġst upid
Ġv c
Ġv inc
Ġr anged
Ġwh is
th al
Ġch rome
Ġun identified
Ġco ding
el on
Ġmar tha
Ġk g
Ġk ot
Ġnew born
Ġout dated
Ġen velop
Ġen ergies
iz ers
ich i
Ġam assed
Ġcont end
are t
Ġper ipher
Ġcor ners
Ġind ians
ll i
Ġwork out
Ġwork forces
Ġover head
Ġover shad
Ġsc roll
vel t
Ġstr ive
Ġu z
Ġinf opro
Ġpo le
te x
Ġev p
Ġev ange
Ġgr ain
Ġgr iff
Ġsoc i
Ġz ucker
Ġbl ink
int ro
Ġfl own
Ġpay outs
Ġtake out
Ġsecond hand
Ġsocial ist
Ġve ctors
Ġext ensions
Ġlaw rence
Ġlab elled
Ġport able
Ġhal o
pr ising
pr ints
mar ked
Ġsw ot
Ġli que
Ġplat inum
Ġra ft
Ġbi en
Ġenvironment ally
Ġsan k
Ġ22 2
Ġque ues
Ġflow ers
Ġshut ter
Ġsoft bank
Ġkind ness
Ġcommercial ization
Ġassist ants
18 0
sec ure
Ġmen u
rec ord
Ø§Ø ¦
Ġpen ny
Ġtreas uries
Ġmer it
Ġdefin itions
oph ob
Ġdut erte
iled s
ĠÐ ½
Ġquant ify
Ġroyal ties
Ãº n
Ġbol stered
Ġoutperform ance
Ġpriorit ise
Ġpriorit ized
Ġshr ank
Ġadm its
isol ating
Ġinstruct ed
Ġrival ry
Ġmerch ant
Ġly mph
Ġbuff er
Ġlu ke
Ġhay nes
Ġju ice
Ġfurlough s
Ġcovax in
Ġterritor ial
Ġdemograp hics
Ġdeliber ate
Ġtoler ance
Ġinoc ulated
Ġmul an
stit ution
Ġinaug ural
Ġadminister ing
Ġbread th
Ġlivest re
Ġdere k
Ġpav il
Ġaeros ol
Ġfasc inating
Ġsocio economic
Ġgif ts
Ġhoney well
Ġsul ph
Ġjn j
Ġjohan nes
Ġalve olar
democr acy
Ġpars ons
Ġrhin ovirus
Ġforbear ance
anticip ated
Ġluf thansa
1 25
b ay
b mj
d ia
m oney
u v
v or
x p
Ġt ac
Ġa isc
Ġa uctions
Ġs ink
Ġs ued
Ġc ada
Ġw end
Ġp ant
Ġb od
Ġm eng
Ġm uted
Ġm cla
Ġe ine
ent h
Ġn ast
ur st
Ġfor ty
un es
im os
Ġv int
Ġr w
Ġal ien
Ġj ill
Ġj ain
qu in
her ic
oc a
Ġsh arma
Ġnot ices
Ġle aked
Ġsp ell
ia h
Ġout s
Ġout fit
Ġam at
Ġam it
Ġcl are
Ġcomm issions
ven s
Ġstr angers
Ġbr ave
Ġmay ors
Ġreg imen
Ġpol ish
Ġunder graduate
ric s
Ġtrans act
Ġend ange
Ġtest er
Ġcol ors
Ġrest oration
Ġgu ards
Ġdep leted
Ġant ic
Ġeurope ans
Ġread ings
Ġdig est
Ġnational ist
Ġel imination
Ġmr s
Ġport ions
me as
Ġsever ance
Ġadministr ator
Ġgre t
Ġinstit uto
Ġsuccess es
Ġ21 6
Ġver ge
Ġsusp icion
Ġny mex
ÙĨ Ø§
Ġten et
âĢ¦ âĢ¦
cul os
Ġmeaning fully
Ġrad iation
Ġspot ted
Ġpict ured
Ġsqu awk
Ġ38 4
Ġweak ening
Ġalloc ations
Ġexam ines
Ġexam iner
Ġha em
sa fe
Ġtrip oli
Ġcycl ists
Ġrefin ancing
Ġtel esc
Ġtransl ates
Ġsin opharm
bu ilt
Ġsleep ing
Ġecosystem s
Ġrestart ing
Ġdre aming
Ġkat ie
Ġneighbour ing
Ġspar king
Ġliberal s
Ġunus ually
Ġaver ages
Ġillustr ates
Ġrepay ments
Ġpill ars
Ġparam ount
Ġentr ants
Ġcasual ty
Ġlens es
develop ment
Ġie a
Ġambient e
ĠØ¥ ÙĦÙī
Ġsacrif ice
asset ta
Ġelabor ate
Ġalumin um
pf izer
Ġmast ers
Ġgrat itude
Ġunreal ized
ĠlÃŃ quid
Ġseb ast
Ġbackb one
Ġrelent less
appropri ate
Ġjerem y
Ġleic ester
Ġkuwa it
Ġkazakh stan
Ġpapad atos
Ġendange red
3 60
5 50
f d
g g
i Ã©n
l en
l as
l ung
m os
o be
s pon
å Ĳ
æ ĸ
æ ł
he ar
Ġs ara
Ġs ulf
Ġc ed
Ġo we
Ġw to
Ġf om
Ġb t
Ġin gen
Ġm ong
Ġan i
ar ations
Ġh q
Ġh ors
Ġl ump
Ġl akh
Ġe z
âĢ ľ
ur ances
Ġst all
ol ved
ot ec
ot iation
ac ency
and ez
op oly
Ġch unk
Ġtr ap
Ġun h
Ġco face
tr ade
lo id
Ġpl aint
ib eral
ans ki
Ġap r
Ġap is
Ġqu inn
Ġcl ou
Ġte can
Ġrec lam
so ever
og ene
Ġimp ris
Ġsc am
Ġsc ans
Ġar th
Ġar ctic
Ġreg ression
Ġpol io
Ġtime frame
ach t
Ġmin ist
Ġmed al
olog ically
Ġend uring
Ġend less
Ġoper a
Ġ0 4
20 17
Ġgr ief
Ġ19 1
Ġ19 7
app le
Ġorgan ize
Ġvar ies
Ġche v
gin s
ov ac
Ġwr apped
Ġdist ressed
Ġpower house
Ġmult icent
Ġge off
Ġinstit uted
Ġvide ocon
Ġmil der
Ġaug ment
Ġcontent ious
Ġ+ =
af one
set ting
ĠØ§ÙĦ ÙĨ
Ġgl ut
Ġaid ed
Ġobs c
ob il
Ġâ ī
Ġlib er
Ġund is
Ġder ail
Ġhur dle
Ġfire fight
Ġgrad uation
Ġdow jones
Ġpromot es
Ġgrand father
bl ack
Ġple aded
Ġmad uro
ĠÐ ¾
bour g
ba um
Ġdisapp eared
tic as
Ġpel a
Ġtor res
Ġintr aday
Ġmineral ization
Ġpermanent e
Ġwitness ing
Ġeb ay
Ġfro st
Ġjail s
Ġinstall ations
Ġdistribut or
Ġaw ful
Ġadj acent
Ġsem ester
Ġcub an
Ġinput s
invest or
Ġreluct ance
blo od
Ġgpt value
Ġdisadvant age
Ġtribun als
Ġhann ah
Ġaeros ols
Ġzur ich
brit ain
Ġri ots
Ġinsur rection
Ġtul sa
Ġregener on
Ġkle in
Ġreimag ine
Ġcens orship
Ġabrupt ly
Ġredes ign
åĽ ½
Ġposit ives
Ġextens ively
Ġpesso as
Ġpromin ence
Ġmyst ery
Ġunlaw ful
ĠperÃŃ odo
consolid ated
Ġendometri osis
spon sored
Ġplaint iff
Ġfirefight ers
0 15
3 17
4 50
c king
k ov
l oss
m or
n ob
r ights
r xiv
Ġ ë
Ġt yr
Ġa q
Ġa uch
Ġa Ã§Ãµes
he ro
Ġc ay
Ġo y
at l
Ġw re
or ns
Ġin patient
Ġm end
Ġm ens
ar n
Ġd m
Ġd read
Ġand r
Ġh acking
Ġe ts
Ġe lic
Ġe rect
Ġn im
Ġn assetta
Ġst ub
Ġon shore
im on
im eter
Ġv est
Ġv iv
Ġcom un
Ġr dquo
ul ates
Ġj ihad
Ġch loe
res pect
Ġsa ga
Ġco aching
Ġinc hes
Ġinc isive
ren s
Ġab er
Ġsp ut
Ġk hal
ip e
iz a
Ġpe oples
con tr
con ference
Ġind y
Ġfin ishes
Ġover r
Ġover dose
ace y
Ġsc oot
Ġbr acing
ec hes
Ġinf r
Ġcas elo
Ġend points
ish i
Ġsub du
Ġrest ated
Ġlong itud
Ġ] )
Ġsupp lements
Ġnews room
Ġbl ending
Ġpar cel
Ġ19 6
Ġmanage able
Ġtim ber
Ġtim elines
Ġauthor izing
ey ra
Ġdifferent iate
Ġresult ado
Ġfil ters
go ers
Ġsk ys
Ġestim ation
sh ow
sh op
Ġmic ron
Ġque er
16 0
Ġphys ics
Ġpers ever
Ġ199 1
Ġacceler ates
Ġden ial
Ġbrand ing
Ġspecific ity
Ġindustr ials
44 2
Ġment ally
Ġdoub les
Ġrepl en
Ġpoll ut
Ġsecure ly
ĠÐ ¸
Ġcompl ain
ĠØ§ÙĦØ ¨
Ġbul lying
Ġfle eing
Ġspr aw
Ġpil gr
Ġsle w
Ġimmigr ant
Ġempow ers
Ġvast ly
Ġvalid ated
Ġdial og
Ġoce ans
Ġrandom ised
Ġhill ary
Ġunexpected ly
Ġrain bow
Ġintens ified
bro ok
Ġcorner stone
Ġcontam ination
Ġsem ileds
Ġsurger ies
Ġethnic ity
Ġpreced ent
Ġsom alia
Ġsv p
Ġperpet r
Ġrum ors
Ġunw anted
Ġdepr ivation
Ġpassion ate
Ġdeleg ates
Ġoccasion ally
Ġinn oc
Ġcrus hed
Ġunfold ing
Ġsalv ador
Ġalumin ium
Ġhein rich
Ġfron ts
big gest
bek istan
Ġbiolog ics
Ġsist ema
æĺ ¯
Ġlomb ard
sah aran
Ġlop ez
. âĢ
. ),
/ âĤ¬
b ir
b est
c in
f iles
k it
l ive
m ad
m el
m ich
p id
Ġt and
Ġs ic
Ġs ok
at in
at isf
Ġb izar
ar ial
Ġh osp
Ġh orn
Ġre jo
Ġl ub
Ġn ip
us c
un ity
Ġde ment
Ġpro ves
Ġy ok
Ġhe ter
Ġhe fty
Ġne on
Ġne ur
up loads
if ier
ess ing
oc ity
Ġun ilever
Ġsh aw
ab y
ear ly
00 8
Ġab original
Ġexp ose
Ġk w
ip ei
Ġqu eries
Ġam er
Ġam en
Ġup heav
Ġcor onav
Ġind ul
ber ly
Ġmon de
Ġmon ster
Ġmon zo
Ġapp la
Ġbr y
Ġinf lic
ass ets
Ġcap ped
Ġmin ed
ss on
Ġev s
Ġrest oring
ind ian
Ġher ald
Ġbl ank
Ġfl urry
Ġ19 87
Ġ19 84
Ġcustom ary
br as
Ġconf ection
Ġteam mates
other apeutics
Ġref usal
Ġdef aults
Ġlif es
Ġche er
Ġopen er
Ġmet e
Ġdigital ization
Ġpa wn
Ġ18 3
Ġfil tr
Ġfree zing
Ġbi os
ats u
Ġ24 2
Ġminister ial
Ġ21 3
Ġgold stein
Ġforecast ed
Ġgot t
Ġide ally
25 6
val ued
Ġdeep est
Ġfinal ized
Ġinvestig ator
Ġsusp icious
Ġexpress ly
umb ling
po x
Ġ38 3
Ġscr amble
Ġmusic ian
Ġrein vest
gu ards
Ġnom inated
ĠØ§ÙĦØ ³
Ġoverse es
Ġtick ed
Ġtroub ling
Ġroc ked
Ġsin ovac
Ġthromb otic
imp act
Ġrelax ing
Ġdav ies
dis c
Ġsi em
Ġgal axy
Ġcool ing
Ġomn ic
Ġcontest ed
Ġow ed
Ġcub a
Ġcub ic
Ġevac uated
Ġkir by
Ġnutrition al
Ġforest s
Ġconting encies
contin ent
Ġatmosp heric
Ġdent al
Ġconstruct ed
Ġperpet ual
jp g
Ġsubur ban
Ġbarg ain
Ġtp g
Ġhond uras
Ġjag uar
Ġtort ure
Ġtradem ark
Ġpalestin ians
Ġtu ition
Ġanch or
Ġexponential ly
rah im
Ġtamb iÃ©n
austr alia
Ġkem p
urge on
Ġrhod e
Ġpam ela
Ġgent le
Ġghe bre
Ġembarr ass
Ġremun eration
oce an
Ġreclam ation
+ .
8 49
a ver
c b
d ar
f uel
g art
g ary
g erm
h ops
h ua
n ote
p ared
y our
Ø ¦
æ Ī
Ġt il
Ġt ents
Ġt apping
Ġa e
Ġa um
in fo
Ġs ind
Ġs ont
on al
Ġc Ã³
en ergy
Ġp pt
Ġp nc
Ġp wc
es se
Ġf ts
Ġb ent
Ġd osing
Ġh inder
Ġre ed
Ġre def
Ġl ut
Ġl up
us ers
ur able
ol ution
Ġwe ibo
ch inese
Ġas p
Ġv ida
Ġy ard
Ġcon se
Ġr ico
Ġr pa
Ġ( );
Ġ20 5
ab e
el ong
Ġab ilities
Ġle x
Ġsp ends
Ġk ra
Ġk icks
all a
ia go
Ġ3 30
Ġen quir
Ġen cry
Ġam ber
Ġam Ã©
Ġdis puted
ag ger
Ġmon d
Ġpart e
Ġimp l
Ġsc oop
Ġcr ip
ec o
Ġass ure
fe bruary
Ġrel ay
Ġke ir
Ġ8 44
Ġpresident e
Ġed gar
Ġpay ers
app y
Ġset backs
Ġmeas les
Ġve gan
Ġsim ulations
Ġes per
Ġauthor isation
Ġhead count
Ġsmall est
Ġsl iding
Ġcontrol adora
Ġli k
be e
be v
Ġcompet ent
de ce
Ġrespons ive
Ġste er
Ġprep aid
Ġseason ally
Ġshop per
Ġcampaign ers
Ġsent enced
Ġtele graph
ĠØ ¯
Ġhot test
Ġwa ivers
Ġtransport ed
40 9
11 7
Ġclean ed
Ġarch ived
Ġconv inc
Ġconsist ed
Ġconsist ency
Ġarm our
Ġbull s
Ġcast ro
Ġcapt uring
Ġple a
ĠÐ º
Ġped iatr
ĠÙħ Ø¹
cap ital
Ġjul ia
Ġfrank lin
Ġoccup ational
Ġoccup ied
Ġattor neys
Ġbc j
Ġinspect ions
Ġillustr ation
Ġomn i
Ġsemiconduct ors
Ġtank er
Ġpediatric s
Ġdiscip lined
Ġtermin ology
Ġreward ed
Ġscan ning
Ġrebuild ing
Ġlith uan
Ġhond a
direct or
Ġcommence ment
Ġalexand ra
Ġmultif amily
Ġturbul ent
Ġumb rell
Ġmembr ane
scre en
Ġfing ers
Ġapprent ices
Ġamn esty
Ġsubdu ed
Ġpersever ance
Ġbizar re
Ġencry ption
9 17
a verage
h ad
k t
m ember
m outh
m mbtu
r ice
¸ ı
Ð ¿
ï ¸ı
Ġ ï
Ġt rough
in ent
re b
Ġc ec
Ġf erg
Ġf ared
Ġf ca
Ġan om
Ġh ahn
Ġl loyd
le an
et itive
Ġst urgeon
im iento
Ġwe aken
Ġde le
Ġr iley
am il
Ġne u
Ġex otic
th inking
Ġj ok
Ġ20 8
Ġun st
Ġun sc
Ġsa ge
el ity
Ġmar g
red o
Ġab used
ust omed
Ġk ings
Ġk essler
od ay
Ġpl ates
Ġour s
Ġap ology
Ġam mon
Ġam gen
Ġper th
und ai
Ġfin ed
Ġaf ore
Ġpre jud
Ġcr ane
Ġu ci
Ġlo ading
Ġbus iest
Ġbr yan
Ġar row
Ġdec is
Ġrep osition
Ġpat ron
Ġcur bing
we et
Ġwhere by
Ġsm e
Ġz and
Ġma z
Ġma io
Ġshow case
int endo
Ġins ists
Ġ19 4
Ġprev ents
app s
Ġsol gold
Ġcapital ism
aw i
Ġprocess ors
Ġpow der
Ġsl ugg
Ġbas ics
Ġ18 2
Ġbelie ving
Ġ25 77
Ġdist ill
ÙĦ ÙĬ
10 9
Ġspe eches
Ġrespons ibly
Ġ21 1
Ġeduc aciÃ³n
Ġpract icing
Ġorig ination
ret ary
Ġrev ival
Ġx en
Ġcomment ators
Ġred irect
Ġ26 2
Ġord in
af p
do ing
Ġviol ated
Ġ199 3
Ġprogress ed
Ġkill ings
Ġgl am
Ġselect ive
Ġund et
Ġexplo ded
Ġarch ives
Ġconc urrent
46 4
ĠÃ º
Ġcalcul ating
Ġobser ving
bl ind
Ġwat ches
66 9
Ġcompl imentary
Ġcompl acency
Ġappropri ately
Ġblue print
Ġfle e
Ġrefin ance
Ġflood ed
Ġlisten ers
Ġjul ie
Ġemphas ize
gro wn
Ġincent iv
Ġdispos ition
Ġdisinfect ion
Ġdisplay ing
Ġphotograp hs
ÑĢ Ð°
Ġreass ure
Ġjer ry
lie b
Ġhesit ate
Ġflag ged
Ġabort ions
Ġlibert ies
Ġtum or
Ġgon z
Ġoppon ent
ĠpaÃŃ s
Ġcompassion ate
Ġdisagree ments
vir al
Ġdispers e
Ġundersco red
Ġprolif eration
Ġdiscrimin atory
Ġparaly mp
Ġincom plete
Ġjak arta
Ġaden ovirus
Ġburd ens
Ġmathemat ical
iks en
Ġprogn osis
Ġmoroc co
Ġmete or
dece mber
1 16
1 12
1 15
b at
f its
h ist
o vers
s r
s er
s pl
å ¯
å Ĭ
æ Ń
Ġ ern
Ġt ia
Ġt aper
Ġa aa
Ġs isters
on ier
at al
Ġw and
Ġp g
Ġp ave
or f
Ġf res
Ġb ard
Ġh aus
Ġre app
Ġl an
Ġl ighth
Ġn ail
il der
us d
us able
le ft
Ġst a
un s
Ġon site
Ġbe ings
ol ism
Ġwe chat
Ġas u
Ġpro port
ac ity
est op
Ġne br
up ro
Ġtr acy
Ġtr aced
Ġun fore
Ġun pro
Ġsa o
Ġcomp osed
Ġgo b
Ġres umes
Ġk un
Ġpr ag
Ġout ros
Ġap lic
Ġdis reg
Ġper ry
Ġcl aire
Ġmon te
ok en
Ġover ly
Ġro we
Ġlo oms
Ġass urances
fe rent
Ġjo ke
Ġfr y
Ġfr aser
ress ing
com ings
Ġtest ament
Ġbu en
gr av
Ġsub tle
Ġsec ular
Ġgen oc
br az
Ġpay che
Ġpay ables
Ġcommun al
az o
Ġtake aways
man aged
Ġref res
tal k
Ġgood man
Ġpercent ages
Ġtim othy
str ing
Ġmod ifications
Ġdeb orah
Ġsl ash
Ġsl ashing
erc ul
Ġdistr ust
arm er
ra ud
Ġenv oy
Ġtreat s
Ġretail ing
10 4
10 8
Ġgre y
Ġestim ating
Ġste in
head ed
Ġ27 8
Ġtele f
Ġ29 9
Ġaud its
Ġfear ful
Ġimmun isation
dr ug
Ġcand y
umb a
Ġfav ored
Ġhous ed
rec ogn
Ġblock ade
Ġflu ro
Ġmc en
Ġcard inal
net h
Ġnav igation
Ġisol ating
Ġho ch
ĠÃ ¼
Ġfort is
Ġengage ments
Ġrally ing
Ø¯ ÙĬ
Ġnar r
Ġib id
ĠØ§ÙĦØ Ń
Ġswe ep
Ġts un
road s
Ġattribut es
urg ical
Ġnic ola
elect ric
gro ups
Ġaer ial
Ġnewsp apers
Ġkim berly
Ġkick ing
Ġabb vie
Ġhyp ert
zz i
run ning
Ġindones ian
Ġdiplom at
Ġhel lo
Ġdrag ged
Ġinspect or
Ġphilip pe
Ġaver aging
Ġray onier
Ġbern stein
Ġkir k
Ġhamp er
Ġentre v
Ġdeterior ated
step s
Ġdict ators
Ġtent ative
Ġcomplement ary
Ġsty les
yes us
Ġquad r
Ġtub ercul
Ġprosec ution
Ġpall adium
Ġferr ari
Ġundermin ed
Ġcurt is
Ġprototyp e
Ġovercrow ded
repres ented
Ġincarcer ated
Ġearthqu ake
Ġextern ally
Ġdebr is
squ are
Ġdum oulin
Ġirrespons ible
Ġorthoped ic
Ġzucker berg
Ġjohannes burg
Ġdement ia
Ġcoronav ac
Ġafore mentioned
. ;
3 21
8 95
b os
b bl
g age
g one
k g
p es
p ound
t otal
Ñ İ
ä ¹
he id
Ġw ishing
Ġw aning
Ġp ens
Ġp ork
Ġp unch
es is
or ie
Ġb j
Ġb apt
Ġm ice
al ie
is o
Ġd dos
Ġto es
Ġh se
Ġl ics
Ġe ton
Ġn t
Ġn ue
Ġn ons
Ġg ou
Ġg ill
le v
ut ral
Ġfor rest
im ps
ig ious
Ġis is
Ġhe ights
se at
ate red
Ġj air
if a
em erg
em bro
Ġco bra
Ġcomp lying
Ġmar io
act ic
Ġk c
Ġk p
Ġpl aus
ip se
ug en
Ġout ages
Ġout lines
Ġdis l
Ġper il
ong o
Ġcl ashes
Ġrec urs
Ġrec omb
Ġem an
Ġfin n
Ġimp ressed
Ġimp aired
Ġar n
Ġfe ud
Ġafter wards
ose velt
Ġear ners
ang a
Ġserv ants
Ġbo on
Ġjust ices
Ġdes de
Ġher n
Ġz han
xt on
uct ive
Ġdep rec
Ġins ol
Ġ19 79
br anded
ull ah
cond ition
Ġnon wo
Ġdef enders
Ġlif ec
Ġfound ational
Ġspec ulative
Ġstrateg ically
Ġtrad itions
Ġprop elled
Ġhuman os
Ġbid s
Ġshort comings
Ġsu z
âĢĶ âĢĶ
less ness
ped iatr
Ġsing les
Ġchalleng er
Ġ24 5
Ġ24 8
Ġsafe guards
Ġindivid ually
Ġ21 4
Ġ21 5
Ġsan jay
Ġwal ter
Ġruss ians
Ġprim aries
Ġbal con
Ġbal tim
Ġide ological
que z
Ġhy undai
Ġenc ore
12 3
Ã¡ l
Ġassess es
Ġextr acted
Ġer in
Ġebit d
17 0
17 3
Ġconsolid ate
Ġconsolid ado
Ġlack ed
Ġcheck points
Ġreb el
80 1
Ø§Ø ¬
Ġmal es
lin er
Ġjud ici
Ġeasy jet
Ġnort heastern
Ġscr atch
perform ance
Ġprincip ally
Ġuns ur
Ġtit res
Ġrich ardson
Ġnov o
Ġdil ution
Ġcreat or
ĠÐ ´
Ġrebound ing
Ġsynd ic
Ġoppos ing
Ġindian apolis
Ġ} );
Ġken neth
Ġath lete
Ġpsych iat
can ada
Ġdevast ation
Ġfif ty
Ġshr imp
Ġenhance ment
Ġconven e
Ġparent al
Ġko ch
Ġphotograp hy
dig ital
Ġnan op
Ġload s
Ġinspect ors
Ġaw k
Ġdiss ent
Ġintention ally
Ġscrut in
charg es
Ġampl ify
Ġunderwr iters
Ġbelong ing
Ġwinds or
develop ed
Ġdefer ral
Ġsque ez
Ġcrus hing
Ġinterrup ted
Ġonboard ing
Ġpleas ure
Ġconfron ting
Ġskyrocket ing
Ġvirolog ist
brit ish
Ġthir ty
Ġundersco res
Ġvod afone
Ġende av
Ġloos ening
Ġendor sement
oen ix
Ġmiscon duct
åľ ¨
Ġshir ley
Ġzw ift
Ġinse ct
Ġadhe rence
spread ing
Ġincomp et
Ġgastro intestinal
Ġbamb as
Ġmultis ystem
univers al
Ġald eyra
nob iety
Ġinfr ared
Ġlongitud inal
Ġupheav al
Ġgott lieb
Ġghebre yesus
Ġunfore seen
braz il
b io
c re
c am
c umin
d ish
g ard
h ift
i Ã£o
m w
m ir
t ur
Ġ ict
Ġt ube
Ġa ka
Ġs izable
on line
Ġo z
at ia
Ġw rest
Ġw reak
Ġp ang
it zer
Ġf ares
Ġb aku
al g
Ġan at
Ġd w
Ġd iana
Ġto c
Ġh od
as is
Ġl acks
Ġn intendo
le ague
Ġy um
Ġwh ip
est ate
and ro
Ġch il
Ġch asing
Ġch au
Ġun covered
ke letal
tr acing
Ġcomp liant
end e
Ġad han
ren dra
Ġsp ro
ub man
ub mus
Ġk as
Ġpl ains
our ing
Ġdis mant
Ġup hold
Ġcl if
Ġrec al
Ġacc ustomed
Ġfin ale
Ġro ast
Ġro de
Ġro uge
Ġro oft
Ġro osevelt
pt ive
ord inated
acc ord
Ġno ble
Ġif r
Ġar cher
Ġdec ides
Ġgovern o
ep id
Ġsy m
Ġwhat soever
Ġmed i
Ġrep ression
Ġcontin uation
Ġpat t
Ġcur cumin
Ġcol ony
Ġban ner
Ġtechn icians
Ġgroup e
Ġma e
br al
Ġfact o
cl iff
the med
Ġnational ism
Ġreven ge
ount ers
Ġaff air
Ġpa u
Ġproject ing
Ġsl im
Ġart work
Ġpur due
ÙĦ Ùĥ
ÙĦ ÙĤ
Ġstep pe
Ġbi ases
Ġneg otiation
Ġens ured
Ġcontract or
Ġ21 8
Ġmus culos
Ġcomb inations
Ġmass ively
Ġstat ues
Ġcomment ing
ugg ing
Ġprem ise
Ã¡ rio
Ùħ Ø©
Ġhistor ian
Ġut most
che l
Ġrac ed
pos itioned
Ġlib eration
Ġbur ger
14 7
Ġdia geo
Ġflu x
Ġmac au
Ġdead lines
Ġmc d
Ġgrant ing
Ġuns ure
Ġevalu ations
Ġcapt ures
Ġrein fection
ev ents
part isan
Ġib rahim
Ġtrip led
Ġoverse eing
Ġtend ency
Ġpoly mer
Ġrand all
Ġramp ant
Ġub iqu
Ġtes co
Ġfest ive
Ġadequ acy
Ġimpair ments
98 77
Ġazerbai jani
Ġcp c
Ð¾Ð »
Ġceremon ies
Ġmes oblast
Ġescal ated
Ġrus hing
Ġspirit ual
Ġglass es
Ġremark ably
Ġgam estop
ocy tes
Ġprohib it
Ġpublis hers
Ġwhit ty
Ġtm ubmus
Ġconstruct ive
Ġremed iation
Ġfluid igm
Ġsla oui
Ġunav ailable
Ġcolumn ist
Ġrit ual
mex ico
Ġstap le
Ġcyberatt ack
Ø° Ø§
Ġorient ation
Ġgrass ro
Ġjoan na
Ġbicy cle
estab lished
Ġschw ab
Ġairpl anes
Ġflav ors
Ġfra ught
Ġretal iation
Ġincons istent
Ġportra it
Ġhoc key
Ġguine a
Ġplag ued
Ġmicrofluid ics
Ġtumult uous
Ġnewfound land
Ġbhar at
Ġmcla ren
Ġslugg ish
Ġnebr aska
Ġbaltim ore
Ġjudici ary
Ġunsur prising
Ġadhan om
Ġmusculos keletal
Ġtmubmus d
6 25
b et
b ot
d led
g ap
i ances
j n
l ake
n ut
n amese
s ome
Ð ¹
å ¹
æ Ģ
ð Ŀ
Ġ ue
Ġ ÙĤ
ĥ ½
Ġt ang
on na
Ġo mar
Ġo ught
at iva
Ġp n
Ġp ard
Ġp ell
Ġf um
Ġf ancy
Ġin jected
Ġm izu
Ġan ode
is tries
Ġd ass
Ġd ana
Ġh os
Ġh ood
as ian
Ġre ef
Ġe j
Ġe ases
id an
le aning
et on
et hyl
Ġst ern
un ited
ad ition
Ġwe iss
Ġde w
Ġv iva
Ġpro tr
Ġr age
Ġr ings
Ġr ica
Ġal icia
est r
op ec
Ġat hens
if iers
Ġch ad
ain ment
Ġtr u
Ġun related
Ġun met
Ġun esco
Ġcomp atible
el ig
ear lier
ud ge
Ġmar vel
ren a
Ġle aning
Ġk j
Ġnew castle
ist ar
ib b
Ġbut ler
Ġ3 25
Ġ3 23
Ġpr one
Ġout age
Ġen rol
Ġqu entin
Ġdis hes
Ġme ghan
Ġcl amp
Ġacc use
Ġ4 20
Ġ4 70
Ġimp r
Ġcr m
Ġcons ulate
Ġman uel
Ġinf er
Ġfr an
ass ay
Ġph oenix
Ġrel acion
Ġdes irable
amp etra
Ġaut ocr
erg er
urn ed
Ġgr aft
xt y
Ġbl az
Ġprof iled
Ġstock ing
Ġ19 50
erson ic
Ġday time
Ġ30 9
Ġtop ping
Ġmem e
Ġfam ed
Ġtravel er
Ġdifferent iated
Ġrun ner
Ġrun way
Ġrun ners
Ġrun off
Ġvi k
Ġexpl or
Ġeduc ated
Ġ23 7
Ġslow s
Ġep a
Ġir a
Ġland fall
Ġinflu enc
Ġinflu ences
Ġbur ke
Ġcollabor ators
Ġexplo iting
Ġmaterial ize
Ġbraz en
Ġpain ted
Ġcat hed
Ġder by
Ġprec ip
Ġminim izing
cle ar
Ġ39 6
Ġqual ities
Ġborrow er
Ġnov a
Ġho ard
Ġobser ver
Ġresol utions
Ġpurs ued
Ġtrig gers
Ġdoubt ful
Ġfraud ulent
Ġadvoc ating
Ðµ Ð½
fin ance
Ġaz n
Ġdownturn s
Ġrock y
Ġmotor cycle
Ġacknowled ges
Ġmont ana
Ġviet namese
Ġrelax ation
Ġnarrow ly
Ġillustr ate
Ġdisclaim s
Ġgear ing
Ġteen agers
Ġcow en
Ġreact ing
Ġcooper ative
hous ing
Ġquiet ly
Ġfisher ies
Ġinterpret ations
opin ion
Ġwarrant y
Ġmamm als
trans plant
Ġreserv oir
Ġdump ed
Ġprepar atory
Ġvel ocity
Ġdimin ished
Ġradi ology
Ġrecre ation
Ġmund ial
Ġthorough ly
Ġtrav ail
aya quil
Ġflaw ed
Ġgest ure
Ġcontempl ated
Ġpert aining
Ġpharmac ists
Ġdispens ing
Ġundermin ing
Ġcraf ts
Ġtamp a
Ġabnorm al
Ġcosmet ics
=- =-
cd n
Ġdetr iment
intern ational
Ġrepur p
Ġmanus cript
Ġmorbid ity
Ġosh a
Ġuz bekistan
Ġlique f
Ġpavil ion
Ġarth ur
Ġconfection ery
Ġtubercul osis
ðĿ Ĺ
3 75
a que
c ert
f ired
f inal
g le
i em
j ee
v ax
å ¼
Ġ \
Ġ Ñ
Ġ ==
Ġt ense
Ġt cf
Ġc ous
er res
Ġo em
Ġw icket
Ġp ine
Ġf ights
Ġf vac
Ġb ast
Ġin exp
Ġin effective
ar p
Ġd mit
Ġd ados
Ġh ir
Ġth wart
Ġn k
il ot
il ip
us on
Ġg or
Ġg az
et ti
ut ter
Ġst ats
Ġfor ge
Ġbe ats
ch unk
Ġde port
Ġv as
Ġv and
Ġhe ls
Ġhe aling
Ġr apper
am id
Ġse eds
Ġj ared
qu i
Ġ20 35
Ġsh am
Ġsp ite
Ġk ud
Ġk eto
ip ay
ip linary
Ġ3 80
Ġout er
Ġout set
Ġyear ly
Ġcl ara
con f
ber y
Ġgro cers
Ġso ber
Ġcr ying
Ġbusiness man
old ers
Ġadd itive
Ġtw ist
enc a
Ġrem emb
Ġbo o
Ġret iring
Ġend ured
Ġ8 50
ish nan
Ġsub missions
Ġdown grade
Ġgr ub
Ġgr asp
co b
Ġz ip
Ġz amb
Ġinform a
Ġav a
Ġrisk ing
Ġequ ation
Ġref resh
Ġloc ks
Ġlif elong
Ġright ly
Ġactiv ism
Ġlab corp
Ġ25 3
Ġhapp iness
ody n
ĠÂ ±
inc k
Ġge ared
Ġ24 6
rup ted
Ġjob keeper
Ġpract ically
Ġbill ie
Ġca utions
Ġrespond s
Ġx u
Ġprevent ative
af ar
Ġenc ounters
Ġcommunic ating
Ġut ter
Ã§ os
ĠØ§ÙĦ ÙģÙĬ
Ġquarant ining
26 0
Ġcheck lists
Ġreb ec
Ġterr ain
ma jor
Ġpolit ico
Ø§Ø ·
Ġspecific s
Ġmag net
Ġhur ley
ana ugh
ino a
Ġfit ch
Ġlove ly
Ġscr amb
Ġgrad ing
Ġcu enca
Ġqual ification
Ġqual comm
Øª ÙĬ
Øª Ùħ
Ġlas er
Ġcorre ctions
Ġswe at
Ġts la
Ġtor ch
Ġmerg ed
Ġempow ered
Ġimag ination
Ġburn out
Ġham mer
Ġincorpor ating
Ġgall on
Ġther mo
Ġrestart ed
Ġnur t
Ġfavour able
Ġtruck ers
Ġcoordin ating
Ã¡n dez
Ġble eding
Ġtact ic
Ġfortun es
Ġremind s
Ġky iv
aug ust
Ġobst acle
Ġadoles cent
Ġhorr ible
Ġgav i
Ġfost ering
Ġexplic ativas
Ġdump ing
Ġtelecom s
Ġbath room
ä» ¥
Ġjes us
Ġresh ape
Ġabd ul
Ġbureaucr atic
Ġsynthe sis
Ġtrav is
Ġvirolog y
Ġrational e
Ġunle ash
Ġmicrosc ope
Ġpeg ged
Ġkav anaugh
Ġhypothe sis
jour nal
Ġverd ict
Ġhasht ag
Ġdestro ying
Ġevange lical
Ġrw anda
Ġclou ds
Ġstub born
Ġscoot er
Ġconvinc ing
upro fen
Ġmcen any
Ġhypert ension
Ġcathed ral
Ġrememb ered
, %
0 26
1 40
6 50
b age
c op
d al
e ren
f ut
f ish
h k
m and
n ier
p ill
p od
p ired
à ¥
å Ĩ
ì Ŀ
Ġt aked
Ġa in
Ġa ampetra
in as
Ġw ig
Ġp d
Ġp eng
Ġp airs
Ġf as
Ġb enc
Ġin bound
Ġm ig
ou p
Ġe k
Ġst icks
Ġst acey
Ġst armer
st ering
ol ving
Ġy oshi
Ġcom ic
Ġwh ites
Ġwh ales
am pton
Ġex agger
res ist
qu ila
her ing
Ġun enc
ab al
tr onic
Ġ' ).
Ġac ron
ren o
Ġres ale
Ġle eds
Ġk or
Ġk aw
Ġ$ ,
Ġcan cers
Ġint ang
Ġint imate
ll a
Ġacc red
ary n
Ġcr aw
Ġstr anger
ens en
Ġdec ree
Ġworld tour
Ġsur real
20 7
Ġsub jected
Ġsal iva
Ġher bert
Ġcar r
Ġcar pet
Ġbl uet
Ġcost ing
air d
Ġhig gins
min ster
Ġdef lation
Ġhum id
Ġtim et
Ġterm inated
Ġprogram a
Ġext inction
Ã© al
ism o
Ġinfl ated
Ġsu v
Ġsw at
Ġstand alone
Ġdiff ers
Ġq a
Ġ24 9
Ġ21 7
Ġda isuke
Ġmic rop
Ġpack aged
sc ient
Ġ27 2
Ġquestion na
par in
Ġcit es
Ġver b
Ã³ mic
Ġarg on
Ġdeep en
ÃŃ as
15 2
Ġtur bo
Ġmakes hift
27 0
verse ly
Ġny c
Ġvict ories
17 7
Ġâ Ĺ
14 4
Ġdiv isive
ero on
22 2
Ġjud ged
Ġwel sh
Ġexerc ised
Ġlegisl ators
Ġmer ge
Ġlands cap
Ġsun ny
fl ight
Ġrepe ating
Ġamoun ting
Ġfeed s
Ġid c
Ġprompt ly
Ġtight ly
Ġlou ise
Ġthr ust
Ġdisp atch
Ġoutperform ing
jan uary
Ġsanit ary
Ġta ipei
Ġoccup ation
Ġhurric anes
Ġcolumb us
Ġmes es
Ġelement ary
Ġvig or
Ġmunicip ality
Ġsant iago
govern mental
Ġhorr ific
Ġsed ar
Ġsv fc
Ġdim ension
Ġgut erres
Ġhaz ards
Ġinteract ing
Ġcer ro
Ġdistinct ive
Ġgp i
Ġiph ones
Ġambul atory
ÂĢÂ Ļ
Ġcher ry
Ġdistur b
Ġslo gan
Ġmund o
Ġlivest ock
Ġconfig uration
Ġeco chunk
Ġtamb Ã©m
Ġdelic ious
Ġtri umph
Ġneighbourhood s
Ġirre vers
Ġreins urance
Ġsegreg ated
Ġparad igm
Ġviewer download
Ġave c
Ġunanim ously
Ġanesthes ia
Ġindebted ness
Ġmelt down
acid osis
Ġincon ven
Ġwhistle blow
Ġgrandpa rents
Ġexcer pt
Ġtelesc ope
Ġpau ley
Ġmizu ho
ethyl ene
elig ible
Ġinfluenc ers
Ġketo acidosis
Ġrebec ca
+ ,
5 26
5 29
6 14
9 13
? ?
b ps
c ot
d ise
e ment
g om
i ac
m ith
s ight
t n
w ires
| |
å ĩ
Ġa est
Ġa kin
Ġs ino
on ation
at ched
at ivo
Ġw ir
Ġp end
it ted
Ġf d
Ġf ent
Ġf ung
Ġf usion
Ġb ren
Ġb mo
Ġin eff
Ġm ia
Ġm ak
Ġd ess
ic it
ion a
Ġre he
Ġre ar
Ġl oun
Ġl ud
us ions
Ġst acked
ad an
ch os
ment os
Ġr aff
op athy
Ġj ong
Ġj ha
Ġ20 40
oc cup
Ġtr io
Ġun r
Ġun im
Ġun int
Ġun consolidated
Ġsh ores
Ġco ke
act s
act ing
ub ishi
Ġk ard
ist e
ip h
Ġi as
Ġen emies
Ġme gan
Ġup wards
Ġpe aking
og lob
anc ia
Ġ4 16
Ġpres criptions
Ġbr ace
Ġbr ush
Ġpol anski
Ġcas s
te gr
ert y
ues e
Ġmed itation
com mit
Ġbet h
Ġend ow
Ġdes cent
Ġgen omic
Ġgu ayaquil
Ġnews wires
Ġed ges
Ġfl ames
Ġbot sw
ns on
Ġ19 81
Ġ30 8
Ġhere of
Ġconsum ing
Ġsou p
Ġactiv ation
Ġsw aps
Ġimm ers
Ġ16 6
arm ing
ph al
Ġprodu k
Ġsomet ime
Ġmil hares
Ġdecl aring
Ġwal let
Ġ22 9
Ġgerm ans
Ġhol land
Ġrev ital
Ġrev amp
Ġrap port
Ġsent ences
Ġdi y
ters ley
Ġgl oss
Ġgl imp
pe ace
Ġinflu encing
Ġfoot ing
43 2
Ġmen os
Ġmis under
Ġtransform ational
Ġappe aled
Ġround ed
Ġevol ves
Ġaltern ate
Ġcomplex ities
Ġgrad uated
cor ing
Ġpropos ing
Ġcu ando
Ġpod ium
face book
Ġattract iveness
Ġcast e
Ġsett ling
Ġsubstant ive
Ġconsequ ential
Ġdownload s
Ġbul g
Ġawa it
Ġharm on
wr ight
Ġclar ke
Ġrestr ucture
Ġta ubman
Ðµ ÑĢ
Ġroc ks
Ġfrag mentation
Ġdigit ization
Ġsi xty
Ġsho e
Ġillustr ated
Ġkar l
Ġsoph ie
Ġcontainer id
Ġteen ager
Ġess ay
Ġron ald
ĠØ¹ ÙĨ
Ġhat tersley
Ġpublis hes
Ġwhit mer
Ġdispar ate
Ġcatalyst s
Ġlind a
Ġinters ection
Ġgang s
found ed
Ġprud ential
Ġrup ees
Ġcis o
enz ie
Ġnest lÃ©
Ġrecru ited
Ġecl ipse
Ġhein z
Ġshep her
Ġfid elity
Ġlaund ering
Ġsequential ly
Ġaston ishing
Ġpuzz le
Ġstell ar
Ġmethan e
Ġpetco ke
Ġethiop ia
Ġisa ac
Ġvic arious
Ġtok ens
Ġmyster ious
Ġguang zhou
Ġammon ia
Ġgenoc ide
Ġbluet ooth
Ġglimp se
2 21
3 18
b ill
f x
f if
f ans
j er
l os
l ift
l angu
m ot
m ac
n ell
p aper
r ata
s av
s ale
t arg
è Ģ
Ġt c
Ġt in
Ġt aps
Ġs ig
Ġc ma
Ġo val
at hed
at ics
Ġw ards
en i
Ġp cs
it ated
Ġb is
Ġb ame
Ġb fs
Ġin appropriate
Ġm ing
Ġm um
Ġm old
Ġd aly
Ġto ys
ic z
Ġre intro
Ġl anc
Ġl inton
Ġn erve
Ġn Ãº
om ach
et ies
Ġis ab
Ġr ies
Ġal mond
est ar
am y
am ous
Ġj al
Ġj ake
if s
Ġch ol
Ġch rom
os ity
Ġsa uce
ke eping
Ġsh aking
Ġhas h
ear ning
Ġac l
00 4
Ġab ol
av i
Ġk ins
Ġnew mark
Ġ3 40
Ġ3 49
Ġen rich
Ġcont ex
Ġper vasive
ag ency
Ġro cca
Ġsc are
Ġar renda
Ġinvest s
uc cess
Ġrem embers
Ġtrans itory
Ġend notes
Ġrep airs
Ġdes criptions
ne utral
Ġcur ated
Ġgen omics
ond o
ater ial
ind o
Ġent ries
Ġest r
Ġma har
Ġ19 3
Ġ19 30
Ġrisk ier
the se
Ġdef ect
Ġdef ender
per cent
Ġmaj e
Ġmaj ors
Ġlim a
Ġdigital isation
Ġprop on
Ġmod ification
Ġshort ened
Ġhead aches
Ġhal le
Ġsu a
Ġ25 9
Ġli qu
Ġhand les
Ġra f
10 5
Ġunt urned
Ġaustr ian
inc inn
Ġge ological
Ġcase y
Ġbi opsy
Ġmoney ist
Ġeas iest
Ġens uing
de ath
Ġste ering
Ġdom ino
Ġseg u
Ġpresent ly
Ġ23 3
Ġ23 6
Ġ23 9
Ġ22 1
Ġbal d
hen g
Ġespec ial
Ġbre ached
Ø§ÙĦ ÙĬ
Ġ29 6
af a
Ġmiss es
Ġtrust worthy
Ġwa ive
jo y
Ġassist ing
Ġcirc les
ÙĪ ÙĤ
Ġbur berry
load ed
Ġhur ts
Ġsuper hero
Ġnav ig
Ġstress ing
Ġrich mond
yl an
Ġrecon struction
Ġpush back
39 4
Ġrein forcing
Ġmodern ization
Ġexport ed
Ġmel inda
Ġven ous
Ġib uprofen
Ġfem ales
Ġcab ins
Ã¤ r
Ġamort ized
Ġfalse ly
Ġintr a
Ġintr aven
wr iter
Ġpled ging
Ġspir al
Ð¸ ÑĤ
Ġfu elled
Ġexhib its
Ġwid en
Ġtrain er
Ġdivers ifying
Ġunknown s
Ġfacilit ated
Ġlag ged
Ġhyp e
Ġhyp ersonic
wear y
Ð½ Ñĭ
Ġtail or
Ġapprec i
Ġbc g
igue z
Ġunders coring
Ġmir acle
Ġmcc orm
Ġnan ob
Ġrefer ral
Ġsac ra
pay ing
Ġanonym ously
Ġbag gage
Ġlabel ed
research andmarkets
Ġtank ers
Ġboss es
Ġrh ino
Ġpump ed
wal let
Ġtum ble
Ġunlock ing
Ġdefend ants
Ġmultip lying
Ġgraph ics
Ġsuic idal
Ġnomine es
Ġcure vac
Ġremed ies
Ã©r io
Ġcurfe ws
Ġpione ering
Ġsid elines
Ġharass ed
Ġbacter ial
Ġdict ator
Ġfred die
Ġadvent ure
Ġdimin ish
Ġreloc ate
Ġot is
Ġrav aged
æľ ī
Ġunfold ed
Ġpatri otic
Ġcategor ized
sing le
Ġpresum ptive
Ġquad rup
Ġrevel ation
Ġphilanthrop ic
Ġtong a
Ġlaund ry
Ġpoison ing
Ġdesert ed
ĠÃ©t Ã©
Ġtempl ate
fun ctional
Ġkos ovo
Ġbuoy ed
david son
Ġridic ulous
Ġinterfe re
Ġcine world
Ġhover ing
Ġblink en
Ġsput nik
Ġfts i
Ġmarg aret
Ġtia a
Ġtsun ami
Ġrecurs os
Ġlifec ycle
Ġawk ward
Ġgrassro ots
gom ery
incinn ati
1 30
3 19
3 80
8 75
b ud
f ected
g ie
l ate
n m
o inted
r h
r in
r anging
Ġt ah
Ġa al
Ġa ch
re aching
Ġc ans
Ġc ite
Ġo mitted
at able
Ġw ie
Ġb ands
Ġin und
Ġin bev
al ian
is i
Ġd eng
Ġto dos
ic he
Ġh ag
Ġre illy
Ġe fe
Ġn z
us a
Ġg d
Ġst ems
Ġfor ged
Ġbe i
ad vert
Ġwe ld
Ġis hares
Ġv om
Ġhe ated
Ġr ams
Ġr ho
ac ute
Ġal ipay
Ġse o
Ġse us
Ġex cel
th ia
Ġch un
oc ard
Ġun used
Ġsa g
ke ys
Ġby pass
Ġco ve
tr acking
Ġcomp act
ear nings
Ġwas ted
Ġmar ie
Ġac re
Ġus eless
Ġle aks
Ġ'' ;
Ġexp orter
Ġnew man
Ġcan opy
Ġpr c
Ġpr Ã©
Ġqu inoa
Ġall iances
Ġdis mal
Ġte quila
so on
Ġem my
Ġapp ra
Ġ4 40
Ġsc ent
Ġno on
Ġbr ig
Ġdr one
Ġafter ward
Ġinf ants
Ġreg en
Ġpo et
Ġtw ins
one ws
Ġfr ies
Ġfr uits
te am
ina i
ind ers
ind ustr
Ġsince re
Ġsupp ression
Ġgu zman
Ġbl end
Ġteam work
Ġnon banks
Ġhospital isations
Ġhum e
Ġ15 32
pl aced
Ġfam ously
ex per
Ġprop el
ri k
ri ans
Ġdevelopment al
Ġbene ath
Ġcal gary
erc ial
Ġlat am
Ġ25 1
Ġ25 7
Ġ31 4
ins ured
be fore
10 97
ash tra
Ġbor ne
Ġ24 1
Ġunc le
de v
Ġda as
ik i
Ġaddress able
Ġ23 2
Ġlater al
Ġsimilar ities
Ġ28 4
Ġ28 9
ret ail
Ġstat istic
Ġfre eman
Ġx box
Ġbre wing
25 5
Ġ26 3
Ġ26 5
ĠØ ±
Ġphys i
Ġwa its
Ġwa ived
Ġcommerc ially
Ġfight ers
Ġmand ating
Ġgl imps
pe z
Ġdeterm ines
Ġbur ied
Ġsyn chron
Ġdiagn oses
Ġsens ible
Ġflo ors
amm ers
Ġcat tle
Ġprinc eton
Ġfit ting
Ġstress es
Ġteac hes
Ġtom my
Ġclim bs
Ġfort night
bl own
Ġperspect a
vent ional
Ġincl u
Ġmention ing
des k
Ġdisapp ro
health y
Ġpoly ethylene
Ġlux em
Ġtaiwan ese
nr c
Ġcere bral
Ġalleg ation
Ġconcept ual
Ġlength s
Ġhaw kish
serv ices
Ġforum s
Ġmemor and
Ġargent ine
Ġnan otech
Ġconver gence
Ġfranch ises
Ġexacerb ate
Ġsher iff
Ġdestr uctive
anche z
Ġsimpl er
Ġrecept ors
sed ar
Ġbnt x
Ġapolog ize
âĢĭâĢĭ âĢĭâĢĭ
cnn next
Ġsupervis ory
Ġoak land
Ġoat ly
Ġrodr igo
Ġrodr iguez
Ġpunish ment
Ġunderpin ned
isp here
Ġais le
Ġbout ique
Ġmits ubishi
Ġpare x
viol ence
Ġcorrid or
Ġcorrid ors
Ġstef an
Ġenthusi astic
resour ces
Ġcauc us
Ġpumm els
cour t
Ġcyt odyn
Ġimmuno assay
Ġdivor ce
Ġsucc umb
Ġjos Ã©
Ġnightcl ubs
Ġvibr ant
Ġvint age
Ġgeoff rey
Ġfiltr ation
Ġumbrell a
Ġunsc athed
Ġgob ier
ĠÃ¼ ber
ilip pe
Ġunenc umbered
Ġbotsw ana
fif th
langu age
Ġmahar ashtra
! )
/ .
0 11
0 70
1 19
b urs
d uring
h men
i ott
k art
l iness
n cov
t b
w he
z es
Â Ń
Ã ¸
Ġ à¤
Ġt ig
he ss
Ġs j
Ġs ket
Ġs ights
Ġs way
Ġs anchez
Ġc ir
Ġp pm
Ġf pn
Ġin mate
Ġm uc
is b
is ite
ar ro
ic io
Ġh oll
Ġh iro
Ġre neg
Ġl m
Ġl ips
Ġn ol
Ġn ous
im i
ad er
ow er
ill ary
Ġv oid
Ġy un
Ġhe ather
Ġal aph
est ers
Ġmo ly
up date
op ping
Ġat r
Ġch ats
oc hem
Ġtr anche
ke f
Ġsh al
Ġsh un
Ġor ic
ap ing
ap art
el media
art ime
ant on
Ġus da
Ġab ide
Ġk t
Ġk hari
od ing
Ġap h
Ġall ison
Ġam ateur
ag her
Ġup ends
Ġpe pt
Ġcor ral
ore al
Ġag n
Ġag grav
Ġso ho
Ġover due
Ġcomm uting
Ġimp ly
Ġimp art
Ġcr s
Ġcr an
Ġcr uel
ord o
Ġcoun sell
Ġreg ained
Ġserv i
Ġla ure
ink i
Ġrep o
Ġfinanc ed
Ġpat ric
20 28
Ġsec rets
Ġgen etics
Ġcar ole
Ġbl ake
Ġfl out
Ġval ent
Ġ19 88
Ġintern acional
Ġfore x
Ġdef errals
Ġopen ness
Ġshort falls
Ġdeb it
Ġbar ometer
mar king
Ġlat ina
Ġsw an
Ġsw ung
ale af
Ġdistr action
Ġ25 6
stand ard
Ġmor ale
Ġste wards
ik er
Ġsus sex
lf riend
Ġaud iting
Ġprem ie
Ġprem iers
Ġren owned
Ġpers ists
Ġbreak out
Ġvers at
set t
Ġtherap ist
tech nology
Ġden ying
roll ing
Ġcult ures
Ġmis er
14 5
Ġsn acks
Ġflo ated
Ġlt l
equ ity
Ġansw ering
65 4
Ġ33 1
Ġdavid son
Ġ55 7
Ġfit ted
Ġtit elmedia
47 8
Ġcam eroon
Ġexpans ions
Ġalloc ating
Ġid le
Ġha iti
Ġproced ural
Ġna rendra
Ġ} ;
Ġbol stering
Ġvac ations
eff ler
Ġresc ued
ĠÙĪ Ùħ
Ġstream lined
sp ace
Ġwithdraw ing
Ġmont gomery
Ġstret ches
americ ans
Ġ89 3
Ð¾Ð ¼
Ġaggreg ated
ran ked
Ġinject ions
Ġintens ifying
Ġang lo
ä¸ Ģ
Ġsac red
Ġband width
Ġsurpass ing
ĠØ¨ Ø§ÙĦ
Ġcohort s
Ġdiscover ing
Ġtear gas
Ġteen age
Ġunn amed
Ġzh ou
weight ed
Ġdeterior ating
Ġwarrant ed
Ġug ly
Ġml n
inf ected
Ġoc ado
Ġjudg ments
cut ting
äº Ĩ
Ġbron x
Ġveget able
Ġsmooth ly
Ġuncon ventional
asp x
Ġpret end
Ġresid ual
Ġiq r
prem ise
Ġmull er
Ġprest igious
Ġeurop a
Ġtorn ado
Ġgrav ity
Ġlone ly
Ġgoog l
Ġgabri el
Ġvive k
alloc ated
Ġchry s
Ġfemin ist
Ġclay ton
Ġextingu ishment
Ġvirtu oso
Ġlegitim acy
Ġovershad owed
Ġhors es
Ġspraw ling
Ġkra ft
Ġnonwo vens
Ġrooft op
Ġhels inki
ĠâĹ ı
Ġluxem bourg
Ġfpn v
0 50
0 24
4 99
5 33
6 80
8 33
c z
d imer
f illed
f amily
k al
m ax
m ount
s hips
s ided
t ro
t aking
v able
w aves
y les
å º
å į
Ġ ud
Ī Ĵ
Ġa or
in st
he on
Ġc incinnati
Ġo g
Ġw fh
Ġp oured
Ġf h
Ġb aird
Ġm w
Ġm imic
ar se
ar ag
Ġd ic
ic as
Ġh c
Ġh ij
Ġh iking
Ġre usable
Ġl inger
il ia
Ġg ian
Ġg aff
Ġst ing
Ġst ip
Ġst omach
Ġon wards
Ġbe a
ir al
im arc
ad v
ad ia
ig ar
ot es
Ġcom cast
Ġr hythm
Ġal to
Ġse in
Ġ20 9
Ġsh a
Ġco ating
Ġco herent
Ġor b
ap o
oun ted
ren berg
Ġexp ir
Ġsp un
ug a
ard e
iz aÃ§Ã£o
Ġam anda
Ġcor related
Ġwork day
Ġfin est
Ġinv iting
Ġ4 30
Ġsc our
Ġcr ist
Ġinter connected
Ġpos ing
Ġbo f
Ġbo il
Ġla wn
Ġlast ly
20 2
20 15
Ġquarter back
ind ex
Ġsch aff
Ġnet sc
Ġinst alling
Ġsm ok
eral a
Ġcar ly
Ġbl m
int el
Ġemploy ing
Ġ30 5
Ġref urb
Ġnext gen
Ġimport ers
Ġpop ped
Ġlock ing
Ġauthor ize
Ø§ ÙĬ
Ġmod ules
ri um
Ġtravel s
ah o
Ġbuild ers
Ġlear ners
Ġtax able
Ġmid field
Ġ31 5
Ġsing ular
Ġbuy back
Ġrele g
Ġsuggest ion
Ġjob seek
Ġ23 4
Ġwal ensky
Ġever bridge
Ġrap ed
Ġstat istically
Ġexc eto
Ġrose cliff
Ġdetail ing
Ġexist ential
Ġprov oked
Ġcit adel
Ġprem iere
ÃŃ gen
Ġcommunic ated
ograp h
Ġage ing
Ġben nett
ĠĠĠĠĠĠĠĠ ĠĠĠĠ
Ġlight ning
Ø§Ø ¨
29 6
Ġpen ney
Ġweb b
Ġflo rence
Ġworth y
Ġmc cl
45 2
Ġrespir ators
ĠÃ ¨
Ġip os
39 2
ipp led
Ġmur thy
play er
Ġmel issa
Ġcert ifications
Ġven us
Ġalternative ly
ĠØ§ÙĦØ °
Ġfem a
Ġcircumst ance
Ġstra it
Ġtool kit
Ġgar bage
Ġbab a
Ã¤ t
86 3
Ġventure beat
Ġclar ion
Ġbol ivar
Ġgir lfriend
Ġsanit iser
Ġoverwhel m
Ġwid ow
Ã± as
Ġthom pson
Ġrail ways
Ġassemb ling
Ġextraordin arily
Ġapprec iated
Ġcp g
Ġnarrow ed
Ġaccum ulation
Ġintermedi Ã¡rias
Ġbengal i
Ġgrap hs
Ġbreakthrough s
Ġpump s
Ġbern ard
Ġnu est
Ġleban ese
Ġcc p
Ġremed y
Ġfranchise es
Ġdepth s
Ġaven ues
Ġportug uese
Ġnich t
Ġpaus ing
Ġdeleg ation
Ġgenuine ly
Ġbureaucr acy
Ġpray ers
Ġpresum ably
Ġflaw s
Ġwy oming
Ġinval id
prot ected
Ġcomparative ly
Ġdell a
Ġeleph ant
Ġfried man
Ġrenov ation
Ġbrun o
Ġwound ed
Ġcontrad ict
Ġbiomark er
Ġbiomark ers
00000000 0000
Ġembar ked
russ ia
auth ors
Ġecon Ã³mic
Ġunre ason
Ġcaix a
Ġdilem ma
iÃ¨ re
Ġbish op
citizens hip
fet ch
pric ed
æł ¸
Ġchev ron
germ any
Ġferg uson
Ġnarr atives
Ġebitd are
Ġincompet ence
Ġ\ -
Ġintang ibles
Ġkard ash
Ġalaph ilippe
Ġservi Ã§os
0 47
0 39
3 22
8 50
b ach
c u
f il
f ur
k on
k at
l ance
l aur
n or
s ix
t ag
v ak
Ġ ^
Ġt us
Ġt et
Ġt ucker
Ġt into
Ġs ang
Ġthe sis
er os
Ġw als
en as
Ġp em
an et
Ġf oc
Ġf art
Ġf iji
Ġb s
Ġb ing
Ġb am
Ġb ert
Ġm ant
Ġd b
Ġd ab
Ġd aw
Ġh ak
Ġh omet
Ġre bo
Ġre semble
Ġl me
Ġth irds
Ġe og
le ton
Ġst iff
Ġbe e
st ones
ĠâĢ ŀ
Ġde e
ill ips
Ġr bi
Ġex h
Ġex agen
Ġj og
qu ire
Ġun ith
Ġun well
Ġun aware
Ġco bb
um ble
end ent
Ġad obe
Ġmar in
ren ched
Ġres ent
Ġres ur
ie va
Ġk ant
Ġ3 99
Ġcan ned
Ġout ra
Ġop ting
Ġqu il
Ġall ied
Ġdis gr
ag as
Ġcor d
Ġro gan
Ġinv ented
Ġ5 000
Ġ4 15
Ġimp ella
Ġsc ammers
Ġstr ade
uch i
Ġlo osen
Ġno ah
Ġser ial
Ġbr aves
Ġbr ighter
Ġfr acking
Ġ7 20
Ġmed ics
Ġla x
Ġtest ify
we re
Ġaut opsy
Ġcol t
ound ed
Ġsec re
Ġgr up
Ġgr aves
Ġcar rie
Ġshould ers
Ġdirect ives
Ġcountry side
ful l
cond itions
Ġref uses
Ġlif ts
Ġpost ure
Ġpot ter
Ġauthor itative
Ø§ Ùģ
bo ost
Ġfil ib
Ġhard cover
Ġvol can
Ġopportun istic
Ġ25 4
Ġsubs et
Ġ31 7
atic an
inc re
Ġmanufact ures
ck er
Ġbuy out
Ġhalf way
Ġfig uring
Ġdev ise
Ġunderstand able
Ġ28 6
Ġautom ob
hic le
Ġtre vor
Ġinnov ators
Ġsustain ably
Ġnormal ized
Ġtur b
Ġinvestig ative
Ġreason ing
Ġcaliforn ians
11 8
Ġconstr ued
26 4
Ġfoot fall
13 5
ĠĠĠĠĠĠĠĠ ĠĠĠ
Ġlib or
Ġlib yan
Ġps a
hol es
Ġtex ts
leg al
Ġworks hops
Ġheart land
Ġround up
33 1
Ġmethod ologies
Ø± Ùĥ
Ø± Ø¶
Ġ55 59
Ġanim ated
Ġcondition al
Ġclick ing
90 8
ho e
Ġapart heid
Ġhor owitz
Ġthank fully
Ġnegoti ators
Ġmad den
Ġmel an
Ġwood ward
48 4
Ġgar rett
Ġpoly mers
Ġprison er
Ġgov t
Ġemb argo
Ġaggress ion
Ġcorrect ional
Ġfu j
fin ity
Ġshr unk
Ġencourage ment
Ġsin us
Ġconven ed
comp an
Ġobserv atory
Ġrecip es
Ġstream lining
Ġrandom ly
Ġcarol ine
Ġboy friend
Ġsymb otic
Ġjail ed
Ġcb ils
Ġell iott
Ġintens ify
Ġdiscover ies
Ġcrack ed
Ġupgr ading
Ġunp op
Ġdefe ated
Ġfish kin
Ġtermin ate
Ġfabric ation
oper ating
Ġtm ac
Ġroche lle
Ġtrop hy
Ġcomed ian
think able
dec ade
Ġstrip e
Ġquot as
Ġdor is
Ġdor sey
Ġvel onews
Ġreject ing
Ġrip e
Ġconcess ion
ĠÐ¿ ÑĢ
Ġchal cob
Ġflour ish
prem ises
Ġjeopard y
ĠniÃ± os
usal em
Ġchand an
Ġdense ly
Ġalar med
Ġcoat ings
Ġfright ening
imic rob
ĠpÃºblic a
Ġsymp athy
Ġwer den
Ġheath row
Ġrif les
ĠÃ¡ re
Ġnico le
Ġencrypt ed
Ġantic ancer
Ġgret chen
Ġcay man
continent al
Ġunst able
Ġlighth izer
Ġplaus ible
Ġpang ol
Ġsacra mento
Ġregen eration
isb ane
Ġnetsc out
Ġchalcob amba
0 19
0 16
0 22
1 101
4 20
4 12
4 70
5 27
8 23
b ike
b ish
b den
c ust
c out
c oll
d at
d ad
e ight
f rench
l ian
m any
m atch
n ect
o ct
t ree
z el
æ ī
é ĩ
Ġt ib
Ġa a
Ġa os
in als
re lease
Ġs izing
Ġc any
Ġc ah
Ġw ade
Ġp ond
it ant
Ġf izz
Ġb ak
Ġb ucking
Ġm ell
ed u
Ġan il
ar f
ic os
Ġh ugh
Ġh ats
Ġre ag
Ġl il
Ġl und
Ġl ira
Ġg ucci
ve hicle
Ġst oring
Ġfor go
st aff
ir m
Ġwe jo
Ġv ials
Ġv ivid
Ġv ending
Ġv ander
Ġv atican
Ġhe parin
ul ators
Ġne e
Ġex od
Ġex ert
up er
op tim
Ġat os
if ted
os ha
oc aly
Ġtr iv
Ġun thinkable
Ġsh an
Ġsh ak
um ann
tr ial
Ġor ion
Ġ' ;
igh am
ud s
Ġad e
Ġad ler
Ġmar ched
Ġus o
Ġres idency
Ġle ve
19 0
19 5
Ġsp iking
Ġk om
Ġk ara
Ġk erala
Ġnew com
ia is
Ġout n
Ġqu ir
Ġqu ibi
Ġcor al
Ġmarket places
Ġte gn
Ġind em
Ġind ÃŃgen
so le
Ġmon soon
ok ie
Ġdo oms
Ġthan ked
Ġro aming
Ġinv asive
Ġ4 80
Ġcr p
Ġcr ashes
lud e
Ġlo effler
Ġser ge
Ġbr isbane
Ġdr ain
Ġcons erve
Ġman e
Ġreg iÃ£o
li o
Ġneed le
ach i
Ġph u
Ġbo j
com put
Ġtrans gender
Ġsur rog
Ġsur charges
Ġcur aleaf
20 23
Ġann um
Ġcent r
Ġfund aciÃ³n
Ġgr ains
Ġz ika
Ġcar p
Ġest Ã£o
Ġpar adox
Ġ19 85
Ġ19 82
med ical
Ġsecond ly
Ġlos ers
Ġmy ocard
ene w
Ġteam ed
Ġref rain
Ġperiod ically
Ġwar mer
min s
Ġdel inqu
Ġauth ored
Ġ11 00
Ġperson as
ex istent
Ġdifferent ial
els en
be ijing
Ġunt apped
Ġadministr ations
Ġvari eties
Ġbi anche
30 2
Ġeduc ating
sh ould
Ġdev ote
ik h
Ġbroad en
Ġpract ising
Ġ28 2
Ġautom ating
Ġill icit
21 7
Ġclass ics
Ġever core
Ġ27 6
Ġ27 9
Ġmoder ated
Ġsent iments
Ġ26 4
par k
par able
Ġlog ical
ÃŃ an
ÃŃ veis
Ġinfrastr uct
Ġsuff ers
Ġdam n
Ġfront ier
mb io
43 5
13 7
ob ject
Ġlight ly
Ġoptim izing
Ġcou pon
Ġselect ing
Ġcross ings
Ġsuper b
Ġbrief ed
Ġnav arro
Ġrespir atÃ³
uit ton
Ġenh ances
Ġscr ip
77 7
Ġtas man
Ġhon ors
Ġthank ful
Ġcomplic ate
Ġnom ura
Ġdownload ed
Ġbox ing
Ġpel o
Ġsurpr ises
Ġpsych ologist
Ġbirth s
Ġ< .
Ġvac ant
Ġfest ivals
Ġroc kef
Ġter ry
Ġenhance ments
Ġelev ate
Ġpul p
Ġko hl
Ã¶ r
Ġaccommod ations
Ġveter inary
Ġmarked ly
Ġproportion ate
Ġreass uring
Ġdrag on
Ġdin ers
pol itics
Ġshield ing
Ġble ach
Ġrepurch ased
Ġdiscip lines
Ġhyper car
Ġsymbol ic
Ġplate lets
wal k
Ġtrick le
Ġdim on
Ġsimpl ify
Ġempower ment
Ġflip board
Ġstretch ing
dra ft
Ġmi xtures
Ġmos ul
Ġplumm eting
Ġorth odox
Ġfert ility
Ġoutp aced
Ġyan ke
Ã©m ie
azer bai
Ġrelie ve
acon ian
Ġrod gers
Ġlum umba
Ġduc hess
Ġrevis it
Ġkab ul
Ġconced ed
Ġwag ner
Ġreaffir med
Ġcyn thia
Ġpix el
Ġexem pl
Ġbiosc iences
Ġneutr ality
Ġmerr ill
subs criptions
Ġingen uity
Ġminist Ã©rio
Ġpollut ants
Ġinnoc ent
Ġheter ogene
Ġlup us
Ġlithuan ia
Ġfluro test
Ġarn old
Ġchil bl
accord ing
Ġubiqu itous
Ġprotr acted
Ġzamb ia
Ġhumid ity
dise ase
imarc group
Ġhomet own
Ġunpop ular
Ġrockef eller
- ,
0 25
0 34
3 15
3 24
4 27
8 60
9 16
c ile
f u
g ust
j ab
j ik
n orth
n ove
n yl
p able
p ush
t as
t ank
v ine
z ar
Ð ³
Ñ ħ
æ Ķ
Ġt art
Ġt cm
Ġa vert
in is
Ġs cept
Ġc ib
Ġc igarettes
at on
Ġw artime
en ary
Ġp iment
Ġin h
Ġin advert
Ġm sc
Ġm vp
Ġd uct
Ġd az
Ġd uck
Ġd ips
Ġd uda
ic ting
Ġl ac
Ġl akes
Ġl Ã³
Ġe ater
Ġe there
âĢ ĳ
le z
ur d
Ġfor bid
Ġbe acon
ce pts
ol ia
ill on
Ġv uitton
Ġr ust
Ġr ib
Ġr ipped
ac ar
ac ket
Ġal ice
Ġal loy
Ġal ison
ter r
Ġex ited
Ġj ays
Ġj bs
ge v
oc ket
Ġtr aces
Ġun ify
Ġun idos
Ġun healthy
Ġun allocated
Ġsa k
Ġsa ke
Ġsa iling
Ġsh u
Ġco ates
Ġcomp elled
lo oks
Ġmar ty
Ġac ordo
ant ib
Ġab usive
Ġle o
Ġle vin
Ġexp osures
Ġout str
Ġap ache
Ġqu ota
Ġall ot
Ġcont re
Ġyear book
Ġdis place
are lli
Ġcl ue
Ġcl ause
Ġmarket ed
Ġag u
Ġover re
Ġ5 60
Ġpre term
Ġcomm ute
Ġthere to
Ġsc attered
Ġu igh
Ġser a
Ġbr igham
ec ciÃ³n
Ġar d
Ġar iel
Ġdr aconian
Ġinter state
rent e
ident al
Ġunder gone
Ġrem inding
olog ic
Ġrep ublished
Ġglobal ization
Ġeu rom
Ġev ap
Ġcent ro
ind ra
Ġnet s
Ġvaccine es
Ġstock ed
ict ional
Ġ19 20
Ġant ico
Ġant imicrob
Ġmarch ing
Ġvar ad
Ġdel ib
Ġpartic ulate
ex ist
Ġpow ering
Ġperform s
Ġsmall pox
Ġbas f
Ġli en
Ġlocal ized
Ġenv is
Ġgre et
Ġident ities
Ġq e
50 1
50 6
Ġ24 4
30 1
Ġmus h
Ġsan ct
Ġ23 8
Ġhed ged
Ġbill ing
Ġ22 4
Ġboard ed
Ġep it
Ġclass ify
Ġmass acre
uck land
Ġability lab
Ġx l
Ġorganiz es
Ġdi as
Ġ26 6
16 6
16 7
Ġcit rix
book ing
Ã³ l
Ġtransport ing
Ġgreen peace
Ġland owners
Ġfront lines
26 3
18 5
17 1
umb led
Ġcult ivate
po ke
Ġcollabor ated
Ġmag dal
Ġexplo ited
Ġment ality
Ġmc g
Ġeditor ials
oph ys
36 3
Ġtit an
Øª ØŃ
Øª Øµ
Ġtom ato
omb re
Ġwat ts
Ġincl ined
Ġfeed stock
Ġentertain ing
Ġstrict est
Ð¾ ÑĢ
met re
Ġsharp est
ht m
Ġdan one
Ġmun ich
Ġnic arag
Ġmerc y
Ġmerc ant
Ġfulf illed
Ġcere al
Ġelev ator
Ġluc id
Ġmist aken
Ġbes hear
Ġkid n
Ġpiv oted
Ġbehaviour al
Ġintent ional
Ġjac obs
Ġsho ots
Ġang le
ä¸ º
Ġinhib iting
Ġric her
Ġconver ting
Ġsteep est
Ġster il
Ġvenezuel ans
col lection
Ġexacerb ating
Ġreward ing
Ġva ugh
inter rupted
Ġthreshold s
sup port
Ð» Ð¸
äº º
Ġmillenn ium
Ġkiss ing
mill er
Ġpron ounce
Ġmicrobi ologist
Ġbour la
mid t
jah r
Ġrevel ations
Ġcoven ant
Ã¡ri os
Ġfi xtures
Ġchop py
Ġconstitu ents
Ġdelic ate
Ġcree k
Ġobr ador
Ġextrem ists
Ġlem on
Ġfreel ancers
Ġflock ed
Ġshin zo
Ġhem isphere
Ġrend ered
Ġtrac ers
Ġrheumat oid
Ġsubmar ine
dia gn
Ġwend y
Ġets y
Ġnim ble
Ġreplen ish
Ġlombard y
Ġomnic ell
amil iar
Ġhoch ul
Ġrecomb in
Ġchau vin
Ġifr ame
Ġpatt erson
Ġyoshi h
Ġtimet able
Ġirrevers ible
Ġendow ment
ĠnÃº mer
Ġmoly bden
Ġpatric ia
Ġchrys ler
Ġunith olders
Ġexod us
Ġtegn ell
Ġchilbl ains
nyl am
Ġmagdal ena
Ġmolybden um
0 77
3 14
b in
b ond
c ro
c irc
c igarette
d b
f marketreport
g ies
l it
m un
r ine
s il
s im
s ocial
y e
y ang
Ø ¤
Ù Ģ
æ Ĺ
é Ģ
Ġt sa
Ġs ot
Ġs log
Ġc iento
Ġw ow
Ġw out
Ġw ings
Ġw ield
Ġp is
Ġp ared
es a
Ġf ang
Ġf uk
Ġb op
Ġb ess
Ġan z
ar ios
Ġd ong
Ġd iving
Ġd well
ic ides
Ġh ove
Ġh ints
as aki
Ġre ver
Ġre agan
Ġl r
Ġl is
Ġn il
Ġn ause
Ġn ixon
id u
ut er
ut ris
Ġst ut
Ġst ig
im age
ad ded
ig a
ot hes
Ġde lete
Ġas o
Ġv utris
Ġy as
Ġcon versely
Ġhe p
Ġr wa
Ġwh opping
Ġal ban
am ation
and ers
Ġne ill
th ly
Ġtr abal
Ġun interrupted
Ġsa gan
Ġsh ining
Ġsh attered
Ġmar l
Ġac hes
act ivity
Ġres in
Ġexp ires
19 6
Ġsp ont
Ġk ris
Ġpl aza
Ġ3 45
Ġ3 33
Ġpr ix
Ġpr gt
Ġout sized
Ġout lining
ue es
Ġen cl
iz umab
Ġpe a
Ġrec laim
Ġacc retion
Ġdo j
Ġem iss
Ġfin als
Ġover coming
Ġinv oked
Ġimp ul
Ġcr ater
Ġcr ashing
Ġpres erv
Ġstr ipped
Ġif ric
Ġdr um
Ġman o
Ġpol uiÃ§Ã£o
Ġass ort
Ġinter cepts
Ġcas o
te e
ric ted
Ġmed ically
Ġmed tronic
Ġtrans m
Ġrep os
Ġrep aid
Ġdes ks
Ġ8 88
000 1
ick ers
Ġhigh ways
Ġpublic ity
fore ign
Ġgr a
Ġgr iev
its u
Ġz ach
Ġz ah
Ġest a
Ġgu itar
Ġval e
Ġ19 76
app a
Ġfact ions
Ġfut ur
Ġway ne
Ġplay ground
Ġve to
Ġche x
Ġmet ast
Ġfur ious
Ġcle ver
ex clusive
Ġdifferent i
Ġdisc rete
Ġposs ession
to ok
Ġsl ice
Ġbar nes
Ġmat s
Ġmat te
Ġbas eless
Ġart em
Ġsw ord
Ġdist inction
Ġsouth ampton
ph ot
be h
Ġstand off
Ġgre eted
30 5
Ġminister io
Ġdesp air
Ġturn er
Ġeduc ator
Ġwest minster
Ġcoll ision
Ġmass es
Ġspecial ised
Ġca a
Ġhy dr
Ġindic ado
Ġdi arr
Ġbre aching
Ġpet erson
Ġ26 7
Ġprevent able
Ġ29 5
ĠØ ¬
12 9
Ġnormal ization
Ġviol ate
Ġattr action
15 9
88 8
11 1
Ġkill s
Ġgl ance
Ġgl ory
Ġcirc ul
Ġmit igated
Ġbrand on
Ġmark ers
70 1
Ġlearn t
14 6
Ġec m
Ġyield ed
Ġsn apping
load ing
Ġsqu ats
Ġcelebr ates
Ġarm enia
uff le
36 7
Ġenjo ys
yl ene
Ġfilm maker
Ġcomput ational
Ġrecon cile
Ġcast illo
Ġtext iles
Ġpull s
Ġfort ress
Ġeth an
Ġfix ing
gu id
Ġid aho
Ġwealth ier
Ġcruc ially
Ġcounter meas
Ġwrong doing
Ġalle ging
Ġvan essa
Ùĥ ÙĦ
Ġjun ete
Ġtend ered
Ġreli ably
Ġdur ability
resp onse
Ġcontext ual
Ġatl as
Ġpeace fully
Ġpsych iatric
wr ite
Ġtra umatic
hr w
Ġcorrect ed
Ġimplic it
onom y
Ġhybr ids
Ġsum s
Ġparent ing
Ãª s
Ġrom antic
Ñģ Ðº
Ġware housing
Ġpun ished
cn mo
Ġtun ed
Ġske wed
Ġalt os
awa ited
Ġwilliams on
Ġjer usalem
Ġble w
Ġax a
Ġgeograph ically
Ġmol ina
Ġentrepreneurs hip
sm ith
Ġcompound ing
Ġash ley
Ġevac uees
Ġvit ro
Ġjackson ville
Ġtransf erring
Ġsher idan
Ġdun n
Ġcaf eter
Ġrum ours
Ġdistingu ished
aza ar
Ġprosper ous
Ġalber to
Ġconcert ed
Ġcorn ell
Ġsimultane ous
Ġtumb ling
Ġvin cent
aco cha
Ġjes se
Ġriot ers
Ġsafeguard ing
Ġdiver gence
Ġprofound ly
Ġphill ip
Ġfet ched
Ġskyrocket ed
Ġadmit ting
Ġtut oring
Ġthir teen
Ġsupervis ors
Ġencompass es
Ġsib lings
Ġree ves
è¿ Ļ
Ġshout ing
ä¼ Ĭ
Ġtheore tically
Ġaument o
Ġallerg ic
Ġerup ted
Ġredistr ibuted
Ġprepay ment
treat ment
Ġhain a
Ġsheff ield
Ġunterne hmen
atl antic
Ġcaselo ad
mich ael
Ġtand em
Ġyok oh
Ġforrest er
transplant ation
Ġdetriment al
Ġliquef ied
Ġmaje ure
Ġnanob odies
Ġfilib uster
nove mber
Ġethere um
Ġantico ag
Ġvutris iran
Ġjunete enth
Ġcafeter ias
3 13
4 30
5 10
5 60
7 45
a ids
a Ã±
b ag
c ort
f ib
f ind
i ary
k ill
k ore
l ib
l oud
m ass
m ca
n als
n bc
p he
r ual
r ador
s ay
u jah
v irt
z b
å Ĵ
æ µ
ç Ľ
Ġ vern
Ġt ories
Ġt iers
Ġa ig
Ġa uckland
Ġs igma
Ġc un
Ġc ip
Ġc mc
Ġo le
Ġw mt
en o
es ars
Ġf ob
Ġb imon
Ġin gest
Ġin eligible
Ġm uit
is y
is ans
Ġd ine
Ġd uk
Ġto do
Ġh int
Ġh iat
Ġl ans
Ġl ori
ent es
Ġn ed
Ġn ou
Ġn oc
Ġn ongo
Ġg ly
Ġg ust
ct oral
et us
et ically
un ion
ce o
Ġwe in
Ġv uel
Ġv oss
Ġv ault
Ġv icious
Ġy oon
Ġr Ã©s
ac as
op ause
Ġj ung
Ġat omic
res ident
Ġtr ia
em ie
Ġun author
tr acked
lo an
Ġnot with
Ġgo ve
Ġgo res
Ġgo ose
Ġle ach
Ġexp edia
19 1
19 4
Ġsp ared
ub ern
Ġk ios
Ġk Ã¶
ist ani
Ġout sk
Ġen bridge
Ġen closed
Ġqu ery
ag ne
Ġme a
Ġte resa
ber ger
Ġdo v
Ġwho ever
Ġaf l
Ġover th
lic ations
Ġstr ides
Ġbr akes
Ġdr ake
Ġact u
Ġinf usion
Ġinter change
Ġtw inges
uc iÃ³n
ert on
Ġrem itt
Ġ7 75
Ġmin er
Ġmin ted
Ġmin istries
Ġdem o
Ġla z
Ġrel a
Ġpat ches
Ġpat rol
ne z
Ġaut op
Ġsub ordinated
Ġgen ius
ost a
Ġgr ands
Ġsm ashed
Ġz um
Ġz uma
Ġent renched
Ġcar maker
Ġval iant
Ġlos es
Ġappro ves
Ġsol ved
Ġnon partisan
Ġcre c
Ġche ney
Ġfar c
Ġfar fetch
Ġallow ances
Ġsit u
Ġdeb Ãª
Ġcal am
Ġbar rett
Ġpast or
Ġsw orn
Ġfood service
Ġfree port
Ġ25 5
ier a
Ġmid term
Ġmid point
Ġ31 3
ph is
Ġfall ujah
Ġprofess ors
Ġ24 7
Ġseason ed
Ġbill ed
Ġshop lifting
ret ire
pro ducing
ann ah
Ġinterview ing
Ġ26 8
Ġnas cent
Ġnas car
Ġrob b
Ġnormal ize
Ġren ting
Ã¡ t
Ġhot line
Ġpers isted
Ġmargin ally
Ġimmun os
Ġnecess ities
Ġevid enced
Ġrat tled
Ġtur k
Ġroll er
Ġextr ac
Ġden ounced
crip ts
17 4
Ġsurge ons
Ġcheck point
43 1
43 8
13 9
Ġcandid acy
Ġchrist ina
Ġ36 7
Ġyield ing
Ġsil va
Ġtex ans
29 0
35 2
Ġmag u
Ġsepar at
amed ia
Ġconv oy
Ġsick ness
Ġvo a
Ġ39 2
Ġfire f
Ġfire works
Ġ55 5
ox ford
uff ed
Ġuns uccess
Ġqual idade
Ġtit ans
Ġcouncil s
Ġsun set
Ġtoll s
Ġhor iz
05 7
Ġ> ,
Ġattend ants
bl ock
Ġ34 8
Ġmad ison
play ers
Ġcompl aining
bre xit
Ġsand le
Ġgar nered
Ġnotice able
ien a
Ġsanit izers
Ġfu elling
ĠÃł s
Ġneutral ization
Ġiv an
Ġexhib ited
Ġexhib itors
56 2
Ġhighs nobiety
Ġfrag ments
Ġremo ves
Ġcomprom ising
Ġrain fall
Ġsout heastern
Ġfo i
Ġovers aw
Ġram adan
Ġang us
Ġantivir als
Ġcompr ise
Ġow ens
pdf google
Ġevac uate
Ġbrook field
Ġnu anced
del i
del hi
Ġmi xture
Ġty bre
Ġosc ars
Ġprivile ged
Ġphenomen al
Ġassert ed
Ġru in
Ġru iz
Ġreloc ation
Ġslo vak
Ġcoinc ided
Ġdere lic
mr ise
Ġhart man
osm ia
Ġmanip ulation
Ġanch ored
Ġecl ips
nt ures
Ġservic er
Ġunle ashed
fact or
ĠniÃ± as
Ġjama ica
Ġmaur ice
Ġfreel ance
atÃ³ rio
Ġbuc ket
Ġlod ging
Ġpier re
Ġnash ville
Ġtheore tical
Ġdir ty
Ġ876 80
Ġconfed eration
Ġinterpre ted
Ġtire lessly
Ġgv hd
Ġpedest rians
Ġunequ al
consum ing
Ġinterf aces
Ġgymn astics
Ġkinder gart
Ġsebast ian
Ġvideocon ferencing
bir th
Ġdecis ively
Ġdisreg ard
Ġgrub hub
Ġscramb led
resist ant
Ġwhistleblow er
commit tee
Ġintraven ous
industr ial
Ġcorral es
Ġwals h
Ġpiment a
ĠlÃ³ pez
Ġantimicrob ial
Ġdelib eration
Ġtomato es
Ġyokoh ama
åĴ Į
Ġbimon thly
Ġhiat us
Ġnongo vern
Ġoutsk irts
ĠdebÃª ntures
, ...
0 40
2 25
2 26
2 29
3 10
3 77
4 29
4 28
5 15
5 22
6 87
7 70
7 29
8 25
9 75
c ases
d ered
d ham
f ake
f iction
g b
g ent
j esse
n amed
p el
p ite
q s
s ites
s ales
t ie
t ics
w omen
è ĥ½
Ġ ics
Ġ ida
Ġt x
Ġt ir
Ġt res
Ġt Ã©
Ġa un
he k
Ġs os
Ġs inking
Ġs inai
Ġc x
Ġc ct
Ġc ep
at ars
Ġw ines
Ġw ished
Ġw ired
Ġp he
Ġp anc
Ġp ains
Ġp iled
es cal
or ox
it us
Ġf p
Ġf and
Ġf end
Ġb ore
Ġb ite
Ġin ning
Ġin duce
Ġd bs
Ġd ented
Ġl ions
Ġl ure
Ġth umb
Ġe hr
Ġn j
Ġn aph
Ġn hl
Ġn airo
Ġn ombre
il ater
Ġst atic
un c
un berg
un inck
ay e
im oto
Ġde leted
ill as
Ġv ant
Ġr d
Ġr ct
Ġwith hold
Ġwith holding
Ġal can
Ġal nylam
am ic
am ine
ter ms
Ġne ces
op eration
Ġch or
Ġch ine
res ent
Ġtr aba
Ġun bel
ab ank
Ġinc ap
Ġad a
Ġad ity
Ġmar r
red ith
ren der
ine z
Ġsp or
Ġk od
ast e
Ġpl ight
Ġ3 75
Ġ3 200
Ġcan al
iz ado
Ġall ergies
Ġcont ests
Ġdis gust
Ġme redith
Ġoff ense
Ġag on
og y
Ġmon uments
Ġmon opol
Ġ5 29
Ġ5 883
ign s
Ġsup ers
Ġsup rem
Ġcomm uters
Ġimp ed
pt ic
Ġcr c
acc rual
ital y
Ġfe in
ite x
Ġinter ns
Ġinter stit
ian i
Ġunder valued
Ġyour s
Ġ7 47
Ġ7 193
ress ive
Ġdem ise
Ġret reated
Ġbet ray
Ġrep r
Ġback ers
20 6
20 14
Ġev il
Ġban non
Ġgen worth
Ġonly fans
ind iat
Ġgr ams
Ġsupp orter
Ġimpact o
Ġcall ers
ient es
Ġfol k
med rxiv
Ġant agon
osp i
Ġmeas urable
Ġorgan ising
Ġref ine
Ġloc ate
Ġknow les
Ġelect orate
Ġsim ulated
Ġspec ially
ex pl
yp e
Ġpa ola
Ġdisc rep
Ġbar rick
Ġart istic
Ġpast a
Ġsw elling
Ġpur se
Ġ25 2
Ġ25 8
Ġdist ances
Ġlocal ised
ph il
ash a
Ġvari ability
Ġsk ies
Ġbi otherapeutics
Ġdece uninck
Ġmater na
Ġcop s
cal if
Ġ28 5
Ġill um
21 2
21 3
sc ott
Ġide ology
ÙĬ Ø³
Ġever grand
Ġmill ones
Ġ27 1
Ġ27 7
Ġorganiz er
Ġhy der
Ġprov oc
Ġexch anged
do ctoral
Ġtrust ees
Ġcance lling
27 1
pos ium
ming ton
Ġreb ell
Ġmark os
Ġcult ivation
iment os
Ġserious ness
Ġabs urd
Ġterr ifying
Ġbur lington
Ġec mo
Ġcongress man
reg istered
Ġstory t
35 8
Ġconsult ed
Ġrad ically
Ġrespir ator
Ġ45 2
Ġange ls
Ġnov ak
ho le
Ġprofession ally
05 6
05 8
Ġexpans ive
Ġmut ate
Ġrein state
Ġrein forces
34 8
Ġcomplic ating
Ġexam inations
ĠÐ ¼
Ø¯ Ø±
Ġmel ania
des pite
Ġtend ering
Ġfle ets
Ġsequ enced
Ġgar c
Ġken ney
Ġorganis ms
Ġital ia
ien ne
Ġclar ified
Ġfraud sters
Ġrestr aining
Ġemphas izing
Ġfintech s
ĠÃ© conom
comp liance
Ġsurf aced
Ġgard ner
Ġcann on
Ġlag arde
Ġinstruct ors
Ġgall eries
Ġgall agher
tok yo
Ġpersist ence
Ġbes poke
Ð¾Ð ´
Ġcoc aine
Ġocean wide
Ġbehaviour s
Ġalb any
Ġkat z
Ġpivot ing
Ġaband oning
Ġislam ist
Ġlabel ing
Ġsoph ia
test ing
Ġsant os
Ġstabil ized
Ġbrook ings
Ġnbc universal
Ġsom ani
Ġcs os
Ġandro gen
Ġecho ing
Ġmultip lied
uls ion
Ġsouthwest ern
dist ance
Ġdispar ity
product ive
Ġbron ch
rele vant
Ġincumb ents
Ġnord ic
Ġconscious ness
Ġoutp acing
Ġcategor izes
Ġpav ed
ĠÙĥ Ø§ÙĨ
Ġrip ple
Ġcis os
vp n
Ġbullet in
Ġkrist en
Ġcyp ri
Ġresid ences
Ġrelie ved
Ġbund es
orig in
Ġencompass ing
Ġflatten ing
Ġlect ure
Ġprolif er
Ġobr ig
Ġescap ed
imens ional
Ġanders son
Ġendor se
Ġfertil izer
Ġfren zy
char acter
ç» ı
Ġmetab olic
Ġgt x
claim ed
Ġdecentral ized
stall ine
Ġcler k
Ġbuddh ist
Ġvinc i
stitution al
ĠlÃŃquid o
Ġunh appy
Ġenquir ies
Ġprag matic
Ġfinn ish
Ġinsol vency
pill ar
Ġjobseek er
Ġautomob iles
enew swire
Ġnause a
Ġnotwith standing
deli very
Ġnaph tha
Ġunbel iev
Ġevergrand e
. âĢĭ
0 35
0 46
0 85
3 12
3 40
5 66
5 32
6 17
6 67
8 70
c old
c aus
d as
d ow
d uty
f ter
h un
l at
m k
m ines
n ature
r r
s i
s al
s erving
t age
u h
u o
v l
Ġt uc
Ġt roll
Ġa ub
Ġa ins
in ho
he ed
re ra
Ġs ido
on o
Ġc mo
at hetic
Ġw ird
Ġw af
Ġw rought
Ġw oul
en ic
en ch
en ers
en fr
Ġp ct
Ġp Ã©
Ġb its
Ġm v
al ph
is iÃ³n
ar med
ar ians
Ġd ss
Ġd hl
Ġto tten
ic ide
ic iÃ³n
ro t
Ġl b
Ġl ia
Ġn ive
Ġn caa
id is
Ġg orge
et ric
Ġbe ans
ce ls
ch annel
Ġde i
Ġhe ap
Ġr az
Ġr azer
Ġal ess
ul o
ul ing
Ġse i
and y
Ġne ville
Ġmo vers
Ġat Ã©
qu iao
Ġun controlled
Ġun affected
Ġsh i
Ġsh irt
ab as
Ġwor ris
Ġinc hed
Ġad hes
Ġmar ry
Ġsp aced
Ġk ang
Ġk ane
Ġ3 000
Ġ3 35
Ġ3 46
Ġpr i
out break
Ġi ke
Ġout sp
Ġam ino
Ġdis com
are a
Ġcl ashed
Ġcor rupt
Ġte va
Ġdo en
Ġem per
ign ment
Ġ4 12
Ġsc ales
Ġcr ippled
Ġpres cribe
Ġif n
Ġser ological
ec ran
Ġar ter
Ġman eu
Ġpo el
Ġpol estar
Ġgovern ed
Ġcas a
Ġbec ker
Ġfr ames
te ga
Ġear ns
Ġph osp
Ġret we
Ġla ug
Ġcontin ents
Ġbu ilder
Ġback yard
Ġsub groups
Ġsal ad
Ġgr as
Ġgr ids
Ġimpact ful
Ġcar avan
Ġest Ã©e
Ġbl n
Ġinform ational
Ġshare holding
Ġfl ame
Ġday ton
Ġant is
Ġ30 2
Ġ30 7
Ġreal m
Ġdef i
Ġsim p
ars us
Ġspec imens
Ġmet re
Ġlim bo
Ġel ast
orth odox
Ġexec s
ten ess
Ġpa ed
Ġpa ired
Ġperform er
ah i
Ġhal ved
Ġstre amed
Ġlear ns
Ġlear nings
Ġsw all
Ġhard ships
Ġtal es
na i
ra f
Ġ31 2
Ġhand outs
Ġdiff ering
ped s
Ġbi ased
Ġbor a
Ġbor ough
Ġ24 3
Ġdece ler
Ġcy stic
Ġneg atives
Ġste re
Ġste aling
ames h
Ġbroad est
Ġ28 8
Ġforecast ers
Ġwest lake
Ġline age
Ġ27 3
pro spect
ann ie
Ġca esars
Ġx x
oid s
Ġpersonal ised
25 9
par alle
12 73
Ã¡ veis
Ġviol encia
ÃŃ st
Ġattr actions
Ġimplement ations
han i
Ġacce pts
88 6
dr ix
Ġnatural gas
pos ing
Ġgm v
17 5
Ġreb ounds
43 9
Ġlight weight
ls berg
Ø§Ø ¶
Ġsn p
Ġspecific ations
29 9
asts igns
Ġcompar ability
hel ial
Ġcard inals
33 7
Ġsuper int
Ġga ug
Ġ33 7
Ġ33 9
Ġele ven
Ġ39 7
Ġtreas ure
Ġemp res
95 1
200 9
90 2
Ġholiday makers
Ġfilm makers
log ic
39 3
Ġrein stated
66 6
Ġber nal
Ġcharacter ised
Ġlatin x
Ġlatin os
100 7
Ġhen drix
Ġamort isation
aph osa
kins on
can ad
Ġathlet ics
Ġnic olas
Ġmm cf
Ã± o
Ġeld er
Ġvalid ate
Ġalleg es
Ġdial ing
Ġrepro gram
Ġluc as
Ġanth rop
Ġlee way
Ġni elsen
Ġheads ets
Ġkr ish
Ġram aphosa
Ġjac inda
Ġsho ok
Ġescal ate
zo om
Ġmap le
Ġshall ow
Ġlin ers
Ġfer rous
Ġcow an
Ġcow ork
Ġpump ing
Ġfib re
Ġperce ive
fir med
ĠdÃ© c
Ġsher ry
Ġstag gered
anth a
Ġring central
sche ma
Ġaccident ally
Ġvigil ance
Ġcart oon
Ġdict ate
Ġtouc hes
Ġepicent re
Ġdealers hips
Ġsacr ific
Ġasc ot
Ġuncom mon
Ġcatal og
Ġnord strom
Ġaffir m
Ġkin severe
Ġlaud ed
Ġpv c
Ġaspir ations
Ġfi xture
Ġmoh amed
Ġmanifest ations
Ġunreal istic
Ġhut ch
su ite
Ġexped ite
Ġpear son
Ġbere jik
engine ered
Ġharness ing
hard t
Ġunderest imate
Ġsut ton
Ġdraf ted
Ġcybercr iminals
Ġreclass ified
ĠaÃ± os
Ġkash mir
Ġgriff in
Ġfom c
Ġundis closed
Ġplaintiff s
Ġaber de
Ġhosp ice
Ġherald ed
Ġsiem ens
Ġmond iale
Ġunpro ven
Ġpayche x
Ġrefres hing
Ġsym posium
Ġrelacion adas
Ġexplor atory
Ġrepurp osed
Ġdmit ry
Ġcontex ts
Ġarrenda mento
Ġmemorand um
Ġcarly le
Ġtib et
Ġcany on
ĠindÃŃgen as
Ġdooms day
Ġcountermeas ures
Ġhoriz ons
Ġwoul fe
Ġtotten ham
Ġworris ome
ecran es
Ġnaturalgas intel
Ġberejik lian
. /
2 24
3 30
3 26
5 40
6 15
7 65
8 28
9 77
b ons
c ular
d ress
e fe
f p
g ue
i able
k k
l v
l iving
l iter
m arg
p ath
p acking
u vant
w ani
y u
Ñ Ĩ
Ñ Ī
Ù ı
Ġa rose
in ib
re place
Ġs z
Ġs Ã©
Ġs ung
on c
Ġthe or
Ġc res
Ġc ute
Ġc ros
Ġc cs
Ġo lig
Ġo ster
at hered
Ġw ick
Ġw ane
or ated
or get
or ph
an os
it ious
Ġf erv
Ġb ci
Ġin ch
Ġin action
Ġm ou
Ġm istr
Ġm uk
Ġan os
ar ms
Ġd urch
ic iencies
ion age
Ġh il
Ġh ie
as se
Ġl ak
Ġl ug
Ġth unberg
Ġe iner
Ġn w
Ġn gu
Ġn odes
Ġg aga
le en
ut ch
Ġst ab
Ġst okes
Ġfor am
un as
st he
st akes
ce y
ol er
Ġwe is
Ġis i
Ġv ans
Ġv ying
Ġr ation
Ġr iff
ac om
Ġal ger
ul i
Ġse y
Ġse iz
Ġse ism
Ġne ars
Ġmo g
th ood
Ġj aw
Ġj amm
Ġch ow
Ġch ron
Ġch ik
os ion
her tz
em Ã¡s
Ġsa uc
Ġsa ves
um en
vid o
Ġcomp ost
Ġcomp lied
Ġad emÃ¡s
Ġnot ting
00 7
Ġab i
Ġle i
ie ren
Ġsp ree
Ġk ospi
Ġpl acent
Ġ3 21
Ġpr ic
Ġout cry
Ġap ocaly
are z
Ġcor by
Ġind ies
Ġind ict
Ġind itex
so ver
anc a
Ġover d
Ġpart on
Ġimp ending
Ġimp unity
Ġu al
Ġman ually
Ġass ass
Ġinter pol
ep loy
ass a
Ġunder water
Ġmed als
Ġbo red
Ġrep arations
Ġfinanc ia
ne ill
ne va
20 4
Ġtechn ician
Ġher tz
Ġz ients
Ġbl ues
Ġdep le
Ġsystem atically
Ġins urg
Ġ19 40
Ġ19 86
Ġ19 73
br ier
ax ter
Ġaccess ory
Ġsol vency
Ġwar fare
Ġche mbio
Ġaff lu
Ġrecord ings
ov io
str a
Ġless en
ri os
Ġlab rador
Ġdeb ilit
Ġcal le
to o
Ġsu as
Ġtal ents
Ġra ab
ins pired
10 7
Ġmor ales
Ġgre eting
Ġpoint ers
Ġconn or
rel ations
Ġdev ops
Ġhed gies
Ġcollect s
Ġclass ical
Ġhol oca
Ġsund ance
Ġrespect ful
Ġtrack ers
Ġbre ake
Ġtele work
Ġ26 1
Ġreflect ive
16 3
16 4
ont rol
Ġaud i
12 4
employ ment
Ġintegr ates
Ġpers ec
Ġwind ing
40 3
Ġbat ting
Ġiniti ating
27 3
27 5
Ã§ o
Ġcirc ulated
Ġcirc ulate
ios ity
18 2
Ġmit chel
17 2
Ġaid ing
ÙĪ ÙĬ
ÙĪ Ø±
43 7
13 1
13 4
Ġselect ively
Ġ35 5
Ġ35 8
au er
Ġmag gie
Ġnor man
44 8
Ġder ive
Ġjud ging
Ġ39 0
Ġcook ed
Ġweak est
Ġamb ig
Ġmer its
Øª Ø¹
fl ation
Ġoption al
Ġtransition ed
Ġmov istar
Ġcreat ures
Ġpark inson
Ġadapt able
Ġles bos
Ġpip er
Ġnom inations
ĠØ§ÙĦØ µ
Ġcro atia
Ġsand ra
health care
Ġdomin ion
Ġgeorg ieva
Ġeye wear
Ġsle e
Ġacute ly
Ġrs v
Ġtask force
09 4
Ġtick ing
Ġspl its
Ġpassword s
Ġvac ancies
Ġimage object
Ġsanit izing
Ġnic ol
Ġreck ons
Ġpit ched
Ġlag os
Ġpin point
98 2
Ġfly nn
Ġtan z
Ġshap es
Ġdav os
Ġreass ess
Ġdrag ging
Ġloyal ists
Ġboom ers
Ġnik ki
iy ah
Ġgear s
Ġsupposed ly
Ġseafood source
Ġadj uvant
Ġremind ers
Ġpac quiao
Ġstag n
Ġbac on
Ġtoler ated
Ġtoler ability
Ġger ry
Ġauthentic ating
Ġcasual ties
Ġsuscept ibility
Ġbelong s
Ġfred er
Ġmerchand ising
Ġsummar izes
Ġtransmiss ibility
Ġunderperform ance
Ġjes ke
æľ Ĺ
Ġpatri ot
Ġrit chie
Ġpermit ting
Ġoutsour ced
neg ie
Ġrestrain t
ocon version
Ġjc p
Ġpremature ly
spe aking
Ġtransmit ting
Ġdish was
Ġabund ant
austr alian
................................ ................................
Ġrf id
Ġpotato es
Ġsegreg ation
qual ified
Ġirr ational
Ġfores cout
russ ian
Ġinher ited
Ġdecarbon ization
Ġsanction ed
pharm aceutical
Ġvoy age
Ġoliv ier
Ġotc q
Ġrefriger ated
Ġbach chan
Ġdwind ling
Ġoffs ets
Ġestud o
Ø±ÙĪ Ø³
Ġintersect ions
Ġhect ares
Ġenvelop e
Ġperipher al
Ġtransact ional
Ġimpris oned
Ġâī ¥
Ġnip pon
Ġprejud ice
Ġxen ophob
Ġsqueez ed
Ġkud low
Ġtaked a
Ġquestionna ire
Ġbald win
Ġinund ated
Ġnol an
Ġunreason able
laur a
virt ual
Ġcct v
prospect us
Ġholoca ust
0 80
0 37
2 40
3 23
3 46
5 70
6 40
7 13
8 24
8 77
8 32
9 43
9 22
b ol
c ked
c ollar
d an
e ks
f el
f lo
f air
h ans
k owski
l ain
n acle
r x
s omet
t ors
w ang
y ers
z m
Ã ¯
Ø ¥
æ Ŀ
ç İ
è ¯
ë ĭ
Ġ erm
Ġt inder
Ġt arsus
Ġa Ã©
in ate
re ve
Ġs ous
Ġs ark
Ġc in
Ġc en
Ġc out
Ġc ider
Ġo se
at ural
Ġw izz
en berg
Ġp ga
Ġp oul
an ath
Ġf en
Ġf ence
Ġf ont
Ġf uma
Ġb end
Ġb aly
Ġb aking
Ġin verse
Ġm ald
Ġd g
Ġd x
Ġd ice
Ġto sh
Ġto by
ic er
Ġh ote
Ġre ju
Ġl s
Ġl ars
Ġl ugg
Ġe ch
Ġn ia
Ġn erd
Ġg uru
ĠâĢ Ļ
ol ith
ad icate
ad vis
Ġis oen
Ġas semble
Ġv all
Ġy i
Ġcon g
Ġhe mat
Ġr angers
Ġr nas
ac et
Ġal ta
am ai
ul d
Ġse u
Ġmo ck
Ġat e
Ġat ivos
if ting
res ults
Ġ( ).
Ġun acc
Ġun insured
Ġun paralle
Ġsh akes
ab rata
el ia
lo d
lo x
Ġwas hed
Ġnot ched
Ġac et
00 3
Ġus her
Ġle vi
19 8
Ġsp ouse
Ġk ush
Ġk aine
Ġim balance
Ġ3 26
Ġi ata
Ġen gel
Ġcont Ã¡
Ġpe el
Ġcl aud
Ġag i
Ġmon opoly
Ġacc or
ok a
Ġem ir
Ġro tten
Ġinv ention
Ġinv esco
Ġ5 18
Ġ4 29
Ġ4 36
ire r
Ġimp rop
Ġimp erson
Ġsc m
Ġstr ives
Ġlo ren
Ġlo vers
Ġno em
Ġbr ake
Ġreg al
Ġreg rets
fe e
Ġ6 75
Ġfirst ly
Ġfr ail
Ġfr amed
aus s
li k
Ġunder cut
Ġear marked
Ġke ller
ne b
Ġ9 50
Ġeven ly
ond a
Ġsch a
Ġsch wart
co at
Ġz a
Ġz he
ved o
Ġcar ve
Ġcar makers
Ġcar oly
Ġcar lsberg
Ġcar negie
Ġbl acks
Ġshow rooms
ient e
Ġpar ity
Ġ19 65
Ġ19 71
Ġcustom ization
br ien
Ġpay er
Ġintern aÃ§Ãµes
Ġant ony
Ġnon farm
min i
Ġsecur it
Ġplay offs
Ġpartic le
Ġsim pson
Ġpost ers
Ġpost doctoral
Ġperson a
Ġprop hyl
Ġdeb ating
Ġdeb abrata
Ġcomple teness
Ġart if
Ġvol vo
Ġmid stream
Ġinit iation
Ġra o
Ġra id
be aut
ĠÂ ¿
Ġbeh n
ator ial
Ġge orget
itor ies
Ġdemocr acia
Ġcy l
Ġdepart ing
Ġclos ings
Ġblo ody
Ġunderstand ably
Ġ22 7
Ġrev al
Ġrespect ing
Ġred dy
Ġred eploy
25 7
Ġocc idental
Ġprov oke
16 5
Ġmicro b
Ġren o
Ã¡ ria
Ġdeep ened
Ġdivid ing
27 4
dr ive
Ġer p
Ġer ik
Ġer adicate
18 4
17 6
Ġeuro vision
fer rous
Ġfa a
ob ank
Ġbase ment
Ġmis use
80 5
Ġ36 2
23 1
23 6
Ġ35 6
Ġsyn ergy
âĢ¦ .
Ġmag ical
Ġsens ation
Ġmal artic
Ġmich a
Ġflo at
Ġdead liest
Ġworks pace
Ġground water
Ġcard iff
Ġorigin ating
Ġround table
Ġrad ware
Ġplant ed
Ġsuper star
Ġsqu ir
Ġpredict ors
46 3
Ġlands l
Ġbull ion
Ġpod e
Ġpod em
Ġtv s
Ġton n
Ġmut ually
Ġok ta
66 3
ĠÐ ±
ĠÐ ³
Ġwealth iest
Ġstrengthe ns
Ġcharacter ize
Ġjun ta
Ġgar ner
Ġgar cia
Ġrand y
met ros
Ġmaxim izing
Ġintr ins
Ġvac ancy
report ocean
Ġagend as
Ġincorpor ates
Ġrig id
Ġscot ia
sp ot
Ġft p
Ġdefic iency
ili ated
Ø¨ Ø±
Ġearn est
Ġfab io
Ġpin nacle
Ġintrodu ces
coun ter
Ġtan ked
Ġelectron ically
hand le
Ġfox conn
Ġmemor able
Ġinject ing
Ġboun cing
Ġmu h
Ġlie u
Ġmotiv ations
Ġnik ola
Ġneuro science
Ġdiss atisf
Ġpand Ã©mie
Ġdebut s
Ġforg iven
Ġfluct uate
Ġky odo
Ġlifest yles
oper ative
Ġtoil ets
Ġjen ner
Ġjen ny
Ġscand als
Ġcommand ers
Ø¶ Ø®
Ġabr aham
Ġsid el
ãĢ ģ
Ġsubur b
Ġcollaps ing
Ġdealers hip
Ġuncon scious
Ġbureaucr ats
Ġlon gev
Ġyan acocha
cry stalline
Ø° Ùĩ
Ġtut or
Ġaffil iation
Ġpv t
Ġdiscour aged
Ġgenes is
Ġmanip ulate
Ġgran ular
Ġprefect ures
Ġkay ak
plan ned
Ġdeduct ions
Ġadvers arial
graph ics
Ġwool ly
Ġmits ui
âĳ ł
Ġunderest imated
yield ing
Ġdownplay ing
å¤ §
auth ored
Ġstif el
Ġbom bs
Ġmonument al
Ġâĸ ł
Ġbrasile ira
Ġhier archy
ĠpolÃŃ ticas
Ġwond ered
Ġank ara
Ġcongrat ulations
Ġrog lic
ogr ams
Ġolive ira
Ġdtc ff
Ġswath s
Ġamat il
respect ive
Ġbry ant
Ġcrip pling
Ġproport ions
Ġbuen os
epid emi
Ġvigor ously
Ġinconven ience
Ġliqu or
Ġmidfield er
azerbai jan
Ġeater ies
Ġpronounce ments
Ġyoshih ide
Ġvuel ta
Ġmagu ire
Ġslovak ia
Ġinterstit ial
Ġelast om
Ġindict ment
Ġfuma Ã§a
Ġhote z
Ġreju ven
Ġlugg age
Ġisoen ergy
Ġlongev ity
0 27
0 13
0 14
4 14
6 89
7 39
7 34
8 13
a ques
b ling
b ott
c ion
d ivid
e val
f ing
h ren
h asa
i ap
i ative
k om
k erson
n ative
o q
o ok
p ac
p ub
r b
r ance
r ates
s ars
u ay
v r
w ic
z ers
Ã ®
å ¸
ç §
ç Ĳ
è ī
Ġt aco
in en
in fect
Ġs f
Ġs od
Ġs ip
Ġs og
Ġs ene
on i
Ġc to
Ġc Ã´
er na
at r
Ġw c
Ġw ur
Ġw oo
Ġp ts
Ġp und
Ġp ale
Ġp orn
it ic
it ate
it ures
Ġf s
Ġf erm
Ġf ading
Ġb ior
Ġin ert
Ġm ri
ing roup
ar u
ar ket
Ġd ix
Ġto hm
ic ist
ic hen
Ġh ic
Ġh ilar
Ġl ull
Ġe id
Ġe lling
ent ing
Ġn ok
Ġn ath
Ġg ad
Ġg aut
ve t
Ġst oked
un ted
st own
ir is
im ating
ow i
Ġit unes
Ġv ested
Ġv ingroup
Ġy o
Ġcon or
Ġcon way
Ġhe t
Ġr ack
Ġr ains
Ġr amesh
Ġal tr
ort ion
Ġse rena
Ġex its
Ġex iting
Ġmo j
Ġmo bs
Ġmo gu
up ply
op ath
Ġj m
Ġat ivo
Ġch ore
ge al
oc s
Ġun official
Ġsa hin
Ġsh um
ab h
tr ue
tr avel
Ġor tega
oun g
Ġad i
art ed
00 6
Ġgo fund
Ġle vers
Ġle yen
ib ir
Ġ3 43
Ġpr iest
Ġi x
Ġop Ã§Ãµes
Ġam r
Ġme jor
Ġup hill
Ġcl orox
Ġrec alling
so ff
Ġgro s
Ġwork load
Ġover time
Ġinv oke
Ġapp ian
Ġ4 10
Ġ4 33
Ġ4 65
Ġimp etus
lic ity
Ġsc ler
Ġu y
Ġbus hel
Ġar un
Ġafter market
Ġmay ork
Ġass ists
Ġ6 10
Ġ6 46
Ġtw tr
ep o
Ġunder ne
ric ks
Ġmed ha
Ġmed idas
Ġthem atic
Ġdes ar
Ġdes erved
Ġ8 40
ina fter
Ġaut onation
20 1
Ġsub po
Ġdown time
Ġprot ecciÃ³n
Ġz m
Ġz immer
Ġresearch jesse
Ġcar a
cr unch
Ġma ure
[...]
