{
  "version": "1.0",
  "truncation": {
    "direction": "Right",
    "max_length": 128,
    "strategy": "LongestFirst",
    "stride": 0
  },
  "padding": null,
  "added_tokens": [
    {
      "id": 0,
      "content": "<|endoftext|>",
      "single_word": false,
      "lstrip": false,
      "rstrip": false,
      "normalized": false,
      "special": true
    }
  ],
  "normalizer": null,
  "pre_tokenizer": {
    "type": "ByteLevel",
    "add_prefix_space": false,
    "trim_offsets": true,
    "use_regex": true
  },
  "post_processor": {
    "type": "ByteLevel",
    "add_prefix_space": true,
    "trim_offsets": false,
    "use_regex": true
  },
  "decoder": {
    "type": "ByteLevel",
    "add_prefix_space": true,
    "trim_offsets": true,
    "use_regex": true
  },
  "model": {
    "type": "BPE",
    "dropout": null,
    "unk_token": null,
    "continuing_subword_prefix": "",
    "end_of_word_suffix": "",
    "fuse_unk": false,
    "vocab": {
      "<|endoftext|>": 0,
      "!": 1,
      "\"": 2,
      "#": 3,
      "$": 4,
      "%": 5,
      "&": 6,
      "'": 7,
      "(": 8,
      ")": 9,
      "*": 10,
      "+": 11,
      ",": 12,
      "-": 13,
      ".": 14,
      "/": 15,
      "0": 16,
      "1": 17,
      "2": 18,
      "3": 19,
      "4": 20,
      "5": 21,
      "6": 22,
      "7": 23,
      "8": 24,
      "9": 25,
      ":": 26,
      ";": 27,
      "<": 28,
      "=": 29,
      ">": 30,
      "?": 31,
      "@": 32,
      "A": 33,
      "B": 34,
      "C": 35,
      "D": 36,
      "E": 37,
      "F": 38,
      "G": 39,
      "H": 40,
      "I": 41,
      "J": 42,
      "K": 43,
      "L": 44,
      "M": 45,
      "N": 46,
      "O": 47,
      "P": 48,
      "Q": 49,
      "R": 50,
      "S": 51,
      "T": 52,
      "U": 53,
      "V": 54,
      "W": 55,
      "X": 56,
      "Y": 57,
      "Z": 58,
      "[": 59,
      "\\": 60,
      "]": 61,
      "^": 62,
      "_": 63,
      "`": 64,
      "a": 65,
      "b": 66,
      "c": 67,
      "d": 68,
      "e": 69,
      "f": 70,
      "g": 71,
      "h": 72,
      "i": 73,
      "j": 74,
      "k": 75,
      "l": 76,
      "m": 77,
      "n": 78,
      "o": 79,
      "p": 80,
      "q": 81,
      "r": 82,
      "s": 83,
      "t": 84,
      "u": 85,
      "v": 86,
      "w": 87,
      "x": 88,
      "y": 89,
      "z": 90,
      "{": 91,
      "|": 92,
      "}": 93,
      "~": 94,
      "¡": 95,
      "¢": 96,
      "£": 97,
      "¤": 98,
      "¥": 99,
      "¦": 100,
      "§": 101,
      "¨": 102,
      "©": 103,
      "ª": 104,
      "«": 105,
      "¬": 106,
      "®": 107,
      "¯": 108,
      "°": 109,
      "±": 110,
      "²": 111,
      "³": 112,
      "´": 113,
      "µ": 114,
      "¶": 115,
      "·": 116,
      "¸": 117,
      "¹": 118,
      "º": 119,
      "»": 120,
      "¼": 121,
      "½": 122,
      "¾": 123,
      "¿": 124,
      "À": 125,
      "Á": 126,
      "Â": 127,
      "Ã": 128,
      "Ä": 129,
      "Å": 130,
      "Æ": 131,
      "Ç": 132,
      "È": 133,
      "É": 134,
      "Ê": 135,
      "Ë": 136,
      "Ì": 137,
      "Í": 138,
      "Î": 139,
      "Ï": 140,
      "Ð": 141,
      "Ñ": 142,
      "Ò": 143,
      "Ó": 144,
      "Ô": 145,
      "Õ": 146,
      "Ö": 147,
      "×": 148,
      "Ø": 149,
      "Ù": 150,
      "Ú": 151,
      "Û": 152,
      "Ü": 153,
      "Ý": 154,
      "Þ": 155,
      "ß": 156,
      "à": 157,
      "á": 158,
      "â": 159,
      "ã": 160,
      "ä": 161,
      "å": 162,
      "æ": 163,
      "ç": 164,
      "è": 165,
      "é": 166,
      "ê": 167,
      "ë": 168,
      "ì": 169,
      "í": 170,
      "î": 171,
      "ï": 172,
      "ð": 173,
      "ñ": 174,
      "ò": 175,
      "ó": 176,
      "ô": 177,
      "õ": 178,
      "ö": 179,
      "÷": 180,
      "ø": 181,
      "ù": 182,
      "ú": 183,
      "û": 184,
      "ü": 185,
      "ý": 186,
      "þ": 187,
      "ÿ": 188,
      "Ā": 189,
      "ā": 190,
      "Ă": 191,
      "ă": 192,
      "Ą": 193,
      "ą": 194,
      "Ć": 195,
      "ć": 196,
      "Ĉ": 197,
      "ĉ": 198,
      "Ċ": 199,
      "ċ": 200,
      "Č": 201,
      "č": 202,
      "Ď": 203,
      "ď": 204,
      "Đ": 205,
      "đ": 206,
      "Ē": 207,
      "ē": 208,
      "Ĕ": 209,
      "ĕ": 210,
      "Ė": 211,
      "ė": 212,
      "Ę": 213,
      "ę": 214,
      "Ě": 215,
      "ě": 216,
      "Ĝ": 217,
      "ĝ": 218,
      "Ğ": 219,
      "ğ": 220,
      "Ġ": 221,
      "ġ": 222,
      "Ģ": 223,
      "ģ": 224,
      "Ĥ": 225,
      "ĥ": 226,
      "Ħ": 227,
      "ħ": 228,
      "Ĩ": 229,
      "ĩ": 230,
      "Ī": 231,
      "ī": 232,
      "Ĭ": 233,
      "ĭ": 234,
      "Į": 235,
      "į": 236,
      "İ": 237,
      "ı": 238,
      "Ĳ": 239,
      "ĳ": 240,
      "Ĵ": 241,
      "ĵ": 242,
      "Ķ": 243,
      "ķ": 244,
      "ĸ": 245,
      "Ĺ": 246,
      "ĺ": 247,
      "Ļ": 248,
      "ļ": 249,
      "Ľ": 250,
      "ľ": 251,
      "Ŀ": 252,
      "ŀ": 253,
      "Ł": 254,
      "ł": 255,
      "Ń": 256,
      "Ġt": 257,
      "Ġa": 258,
      "in": 259,
      "he": 260,
      "re": 261,
      "Ġs": 262,
      "on": 263,
      "Ġthe": 264,
      "Ġc": 265,
      "er": 266,
      "Ġo": 267,
      "at": 268,
      "Ġw": 269,
      "en": 270,
      "Ġp": 271,
      "es": 272,
      "or": 273,
      "an": 274,
      "it": 275,
      "Ġf": 276,
      "Ġb": 277,
      "Ġin": 278,
      "Ġm": 279,
      "ing": 280,
      "ed": 281,
      "al": 282,
      "Ġan": 283,
      "is": 284,
      "ar": 285,
      "Ġd": 286,
      "Ġto": 287,
      "Ġof": 288,
      "ic": 289,
      "Ġand": 290,
      "ion": 291,
      "ro": 292,
      "Ġh": 293,
      "as": 294,
      "Ġre": 295,
      "Ġl": 296,
      "ou": 297,
      "Ġth": 298,
      "Ġe": 299,
      "ent": 300,
      "Ġn": 301,
      "il": 302,
      "âĢ": 303,
      "om": 304,
      "id": 305,
      "us": 306,
      "Ġg": 307,
      "ve": 308,
      "ct": 309,
      "le": 310,
      "Ġ-": 311,
      "et": 312,
      "ly": 313,
      "Ġ--": 314,
      "ur": 315,
      "ut": 316,
      "Ġst": 317,
      "Ġfor": 318,
      "un": 319,
      "Ġon": 320,
      "Ġbe": 321,
      "st": 322,
      "ĠâĢ": 323,
      "ir": 324,
      "ation": 325,
      "ay": 326,
      "ce": 327,
      "ol": 328,
      "im": 329,
      "ver": 330,
      "ad": 331,
      "ig": 332,
      "ow": 333,
      "Ġthat": 334,
      "Ġwe": 335,
      "Ġis": 336,
      "ot": 337,
      "ch": 338,
      "Ġit": 339,
      "Ġ2": 340,
      "Ġde": 341,
      "Ġas": 342,
      "ment": 343,
      "ill": 344,
      "Ġv": 345,
      "Ġpro": 346,
      "Ġy": 347,
      "Ġcon": 348,
      "ers": 349,
      "Ġcom": 350,
      "Ġhe": 351,
      "se": 352,
      "Ġr": 353,
      "ith": 354,
      "Ġ1": 355,
      "ac": 356,
      "âĢĻ": 357,
      "Ġwith": 358,
      "Ġwh": 359,
      "Ġal": 360,
      "est": 361,
      "am": 362,
      "ate": 363,
      "ter": 364,
      "ul": 365,
      "ort": 366,
      "Ġse": 367,
      "and": 368,
      "Ġne": 369,
      "Ġex": 370,
      "ies": 371,
      "Ġmo": 372,
      "ld": 373,
      "up": 374,
      "op": 375,
      "th": 376,
      "Ġj": 377,
      "Ġat": 378,
      "if": 379,
      "Ġare": 380,
      "ess": 381,
      "Ġch": 382,
      "res": 383,
      "qu": 384,
      "os": 385,
      "ge": 386,
      "Ġ(": 387,
      "ave": 388,
      "her": 389,
      "Ġ20": 390,
      "ain": 391,
      "oc": 392,
      "ect": 393,
      "Ġtr": 394,
      "em": 395,
      "Ġun": 396,
      "ity": 397,
      "Ġsa": 398,
      "ke": 399,
      "ive": 400,
      "Ġby": 401,
      "Ġsh": 402,
      "Ġco": 403,
      "ial": 404,
      "um": 405,
      "ab": 406,
      "rom": 407,
      "tr": 408,
      "Ġor": 409,
      "Ġ'": 410,
      "vid": 411,
      "Ġfrom": 412,
      "Ġcomp": 413,
      "ap": 414,
      "Ġhave": 415,
      "oun": 416,
      "ts": 417,
      "ĠâĢľ": 418,
      "port": 419,
      "ĠâĢĿ": 420,
      "igh": 421,
      "Ġhas": 422,
      "iv": 423,
      "Ġthis": 424,
      "Ġsaid": 425,
      "el": 426,
      "end": 427,
      "Ġwor": 428,
      "Ġinc": 429,
      "lo": 430,
      "ear": 431,
      "ud": 432,
      "Ġyou": 433,
      "Ġad": 434,
      "Ġwas": 435,
      "Ġnot": 436,
      "Ġmar": 437,
      "red": 438,
      "art": 439,
      "Ġac": 440,
      "00": 441,
      "'s": 442,
      "Ġgo": 443,
      "Ġwill": 444,
      "ions": 445,
      "ant": 446,
      "ould": 447,
      "act": 448,
      "ren": 449,
      "Ġus": 450,
      "Ġres": 451,
      "Ġab": 452,
      "Ġle": 453,
      "ome": 454,
      "Ġ''": 455,
      "ust": 456,
      "ie": 457,
      "Ġexp": 458,
      "ine": 459,
      "19": 460,
      "av": 461,
      "Ġmore": 462,
      "Ġsp": 463,
      "Ġ202": 464,
      "ub": 465,
      "Ġk": 466,
      "ast": 467,
      "od": 468,
      "Ġpl": 469,
      "Ġnew": 470,
      "ure": 471,
      "Ġim": 472,
      "ist": 473,
      "ks": 474,
      "``": 475,
      "Ġ``": 476,
      "ip": 477,
      "all": 478,
      "ib": 479,
      "Ġbut": 480,
      "any": 481,
      "Ġ$": 482,
      "ated": 483,
      "ia": 484,
      "ther": 485,
      "Ġ3": 486,
      "ans": 487,
      "Ġcan": 488,
      "Ġpr": 489,
      "out": 490,
      "ket": 491,
      "ff": 492,
      "ak": 493,
      "Ġi": 494,
      "ug": 495,
      "ard": 496,
      "Ġout": 497,
      "Ġthey": 498,
      "Ġour": 499,
      "Ġcovid": 500,
      "Ġtheir": 501,
      "our": 502,
      "Ġits": 503,
      "Ġop": 504,
      "ue": 505,
      "Ġen": 506,
      "iz": 507,
      "ich": 508,
      "Ġap": 509,
      "Ġqu": 510,
      "Ġall": 511,
      "Ġam": 512,
      "Ġcont": 513,
      "Ġyear": 514,
      "Ġdis": 515,
      "are": 516,
      "Ġper": 517,
      "age": 518,
      "ag": 519,
      "ations": 520,
      "ical": 521,
      "ong": 522,
      "du": 523,
      "Ġint": 524,
      "irus": 525,
      "Ġme": 526,
      "Ġup": 527,
      "Ġwhe": 528,
      "Ġpe": 529,
      "ase": 530,
      "Ġcl": 531,
      "Ġcor": 532,
      "con": 533,
      "und": 534,
      "Ġoff": 535,
      "Ġmarket": 536,
      "ĠĠ": 537,
      "illion": 538,
      "Ġte": 539,
      "ight": 540,
      "ack": 541,
      "ance": 542,
      "der": 543,
      "ice": 544,
      "Ġrec": 545,
      "for": 546,
      "Ġind": 547,
      "ber": 548,
      "ore": 549,
      "able": 550,
      "Ġag": 551,
      "so": 552,
      "ll": 553,
      "og": 554,
      "Ġwhich": 555,
      "Ġmon": 556,
      "ail": 557,
      "Ġacc": 558,
      "Ġgro": 559,
      "ors": 560,
      "Ġwork": 561,
      "Ġbeen": 562,
      "ople": 563,
      "ok": 564,
      "Ġpeople": 565,
      "Ġdo": 566,
      "Ġem": 567,
      "ide": 568,
      "Ġwho": 569,
      "Ġother": 570,
      "Ġfin": 571,
      "Ġso": 572,
      "Ġaf": 573,
      "Ġthan": 574,
      "anc": 575,
      "ous": 576,
      "Ġalso": 577,
      "Ġover": 578,
      "Ġro": 579,
      "own": 580,
      "Ġwere": 581,
      "Ġabout": 582,
      "ike": 583,
      "Ġinv": 584,
      "day": 585,
      "Ġapp": 586,
      "ments": 587,
      "ary": 588,
      "ime": 589,
      "alth": 590,
      "emic": 591,
      "Ġ5": 592,
      "form": 593,
      "ign": 594,
      "ays": 595,
      "Ġ4": 596,
      "ace": 597,
      "ents": 598,
      "Ġsup": 599,
      "ire": 600,
      "very": 601,
      "Ġpart": 602,
      "ates": 603,
      "Ġreport": 604,
      "ities": 605,
      "Ġpre": 606,
      "Ġcomm": 607,
      "ven": 608,
      "Ġthere": 609,
      "Ġimp": 610,
      "lic": 611,
      "pt": 612,
      "Ġsc": 613,
      "Ġcr": 614,
      "Ġhealth": 615,
      "ord": 616,
      "lud": 617,
      "andemic": 618,
      "onav": 619,
      "Ġcompany": 620,
      "ile": 621,
      "ake": 622,
      "vel": 623,
      "Ġ2020": 624,
      "onavirus": 625,
      "Ġpres": 626,
      "Ġstr": 627,
      "Ġfir": 628,
      "Ġcoun": 629,
      "Ġpandemic": 630,
      "ally": 631,
      "acc": 632,
      "Ġone": 633,
      "uch": 634,
      "Ġu": 635,
      "ings": 636,
      "Ġcoronavirus": 637,
      "ital": 638,
      "Ġlo": 639,
      "ition": 640,
      "Ġno": 641,
      "iness": 642,
      "Ġbus": 643,
      "ence": 644,
      "Ġif": 645,
      "Ġsome": 646,
      "Ġser": 647,
      "Ġbr": 648,
      "Ġhad": 649,
      "ree": 650,
      "ec": 651,
      "Ġar": 652,
      "Ġlike": 653,
      "ult": 654,
      "Ġfe": 655,
      "duct": 656,
      "ock": 657,
      "Ġinclud": 658,
      "Ġdr": 659,
      "Ġmillion": 660,
      "Ġhow": 661,
      "Ġcons": 662,
      "Ġbusiness": 663,
      "Ġafter": 664,
      "Ġvacc": 665,
      "old": 666,
      "Ġman": 667,
      "Ġmay": 668,
      "Ġinvest": 669,
      "ens": 670,
      "Ġwould": 671,
      "low": 672,
      "Ġact": 673,
      "Ġinf": 674,
      "try": 675,
      "Ġreg": 676,
      "Ġpo": 677,
      "vern": 678,
      "Ġadd": 679,
      "Ġpol": 680,
      "ugh": 681,
      "Ġdec": 682,
      "Ġass": 683,
      "Ġhis": 684,
      "uring": 685,
      "Ġstate": 686,
      "Ġgovern": 687,
      "Ġtime": 688,
      "fe": 689,
      "ite": 690,
      "Ġinter": 691,
      "Ġ6": 692,
      "conom": 693,
      "Ġtw": 694,
      "Ġfirst": 695,
      "ep": 696,
      "Ġjo": 697,
      "Ġcas": 698,
      "one": 699,
      "Ġpub": 700,
      "ased": 701,
      "Ġbec": 702,
      "Ġris": 703,
      "Ġeconom": 704,
      "Ġfr": 705,
      "Ġwhen": 706,
      "ian": 707,
      "Ġsy": 708,
      "ass": 709,
      "rent": 710,
      "aus": 711,
      "ating": 712,
      "ame": 713,
      "ices": 714,
      "ident": 715,
      "uc": 716,
      "ines": 717,
      "ose": 718,
      "li": 719,
      "vers": 720,
      "Ġunder": 721,
      "Ġwee": 722,
      "Ġwhat": 723,
      "Ġcould": 724,
      "Ġthese": 725,
      "enc": 726,
      "ational": 727,
      "te": 728,
      "lect": 729,
      "Ġnow": 730,
      "Ġworld": 731,
      "Ġneed": 732,
      "lob": 733,
      "ert": 734,
      "ach": 735,
      "Ġcap": 736,
      "Ġget": 737,
      "Ġproduct": 738,
      "Ġdat": 739,
      "Ġpos": 740,
      "ade": 741,
      "Ġany": 742,
      "Ġear": 743,
      "Ġglob": 744,
      "Ġrem": 745,
      "Ġshe": 746,
      "rop": 747,
      "Ġmonth": 748,
      "ility": 749,
      "Ġyour": 750,
      "ures": 751,
      "ory": 752,
      "Ġph": 753,
      "ric": 754,
      "Ġresp": 755,
      "reat": 756,
      "ang": 757,
      "aly": 758,
      "Ġ7": 759,
      "ual": 760,
      "ell": 761,
      "rough": 762,
      "Ġmin": 763,
      "Ġmost": 764,
      "hed": 765,
      "ĠâĢĶ": 766,
      "ress": 767,
      "ild": 768,
      "Ġdem": 769,
      "ious": 770,
      "Ġeff": 771,
      "ues": 772,
      "Ġmed": 773,
      "ning": 774,
      "Ġincre": 775,
      "Ġserv": 776,
      "ected": 777,
      "olog": 778,
      "Ġinto": 779,
      "Ġdata": 780,
      "Ġbo": 781,
      "Ġret": 782,
      "com": 783,
      "Ġtrans": 784,
      "Ġbet": 785,
      "ced": 786,
      "ting": 787,
      "gh": 788,
      "Ġend": 789,
      "ited": 790,
      "ific": 791,
      "Ġla": 792,
      "read": 793,
      "ink": 794,
      "iss": 795,
      "Ġrep": 796,
      "Ġprovid": 797,
      "Ġwhile": 798,
      "Ġrel": 799,
      "Ġke": 800,
      "Ġtech": 801,
      "Ġ&": 802,
      "==": 803,
      "Ġjust": 804,
      "Ġlast": 805,
      "Ġoper": 806,
      "Ġthem": 807,
      "Ġduring": 808,
      "Ġgrow": 809,
      "Ġdes": 810,
      "Ġ8": 811,
      "Ġtest": 812,
      "Ġmany": 813,
      "Ġ2021": 814,
      "amp": 815,
      "Ġgovernment": 816,
      "lp": 817,
      "cess": 818,
      "Ġlead": 819,
      "Ġglobal": 820,
      "000": 821,
      "Ġquar": 822,
      "erm": 823,
      "Ġstud": 824,
      "Ġtwo": 825,
      "sear": 826,
      "loy": 827,
      "Ġfinanc": 828,
      "Ġcontin": 829,
      "Ġpat": 830,
      "Ġsur": 831,
      "Ġthose": 832,
      "ick": 833,
      "ne": 834,
      "Ġhelp": 835,
      "ough": 836,
      "ina": 837,
      "Ġ0": 838,
      "Ġthrough": 839,
      "Ġbu": 840,
      "ause": 841,
      "ss": 842,
      "Ġcur": 843,
      "we": 844,
      "velop": 845,
      "Ġresear": 846,
      "Ġsee": 847,
      "ative": 848,
      "Ġeu": 849,
      "eric": 850,
      "arg": 851,
      "Ġhigh": 852,
      "Ġ9": 853,
      "Ġaut": 854,
      "Ġ10": 855,
      "erg": 856,
      "gr": 857,
      "Ġanaly": 858,
      "Ġback": 859,
      "Ġdevelop": 860,
      "ploy": 861,
      "ted": 862,
      "Ġcol": 863,
      "Ġpublic": 864,
      "ish": 865,
      "20": 866,
      "gan": 867,
      "ise": 868,
      "Ġann": 869,
      "ange": 870,
      "ound": 871,
      "io": 872,
      "Ġsub": 873,
      "Ġsec": 874,
      "Ġsuch": 875,
      "Ġwell": 876,
      "ward": 877,
      "Ġev": 878,
      "urn": 879,
      "Ġcent": 880,
      "Ġweek": 881,
      "Ġincluding": 882,
      "Ġban": 883,
      "Ġdown": 884,
      "Ġsal": 885,
      "ump": 886,
      "ied": 887,
      "ics": 888,
      "Ġeven": 889,
      "ince": 890,
      "Ġdif": 891,
      "Ġagain": 892,
      "fore": 893,
      "Ġprot": 894,
      "iew": 895,
      "Ġnum": 896,
      "Ġgen": 897,
      "Ġonly": 898,
      "ond": 899,
      "..": 900,
      "Ġrest": 901,
      "ater": 902,
      "Ġfinancial": 903,
      "Ġfund": 904,
      "Ġtechn": 905,
      "Ġsign": 906,
      "Ġquarter": 907,
      "Ġameric": 908,
      "Ġsupport": 909,
      "Ġgroup": 910,
      "wn": 911,
      "ost": 912,
      "ind": 913,
      "Ġindus": 914,
      "Ġsch": 915,
      "Ġlong": 916,
      "les": 917,
      "Ġnet": 918,
      "line": 919,
      "Ġ201": 920,
      "ible": 921,
      "Ġgr": 922,
      "Ġinst": 923,
      "Ġyears": 924,
      "Ġcompan": 925,
      "Ġher": 926,
      "co": 927,
      "its": 928,
      "Ġcases": 929,
      "Ġkn": 930,
      "Ġcompanies": 931,
      "Ġwhere": 932,
      "Ġsm": 933,
      "Ġsoc": 934,
      "Ġaccord": 935,
      "Ġdon": 936,
      "round": 937,
      "ons": 938,
      "Ġvaccine": 939,
      "irect": 940,
      "eral": 941,
      "ross": 942,
      "Ġbecause": 943,
      "Ġsince": 944,
      "bs": 945,
      "Ġoffic": 946,
      "ĠâĢĵ": 947,
      "stem": 948,
      "Ġchina": 949,
      "Ġ[": 950,
      "Ġlow": 951,
      "Ġbefore": 952,
      "Ġz": 953,
      "ared": 954,
      "ved": 955,
      "Ġent": 956,
      "Ġ]": 957,
      "Ġresearch": 958,
      "Ġsupp": 959,
      "Ġrequ": 960,
      "Ġimpact": 961,
      "Ġvirus": 962,
      "Ġcar": 963,
      "Ġevery": 964,
      "cr": 965,
      "Ġshould": 966,
      "xt": 967,
      "Ġest": 968,
      "Ġpresident": 969,
      "uct": 970,
      "ood": 971,
      "Ġcall": 972,
      "Ġgu": 973,
      "Ġadv": 974,
      "Ġnews": 975,
      "Ġbl": 976,
      "Ġma": 977,
      "Ġinform": 978,
      "ential": 979,
      "Ġprof": 980,
      "aking": 981,
      "Ġmake": 982,
      "Ġdep": 983,
      "Ġshare": 984,
      "Ġshow": 985,
      "int": 986,
      "ient": 987,
      "ior": 988,
      "ject": 989,
      "Ġdirect": 990,
      "Ġaccording": 991,
      "Ġair": 992,
      "Ġed": 993,
      "ives": 994,
      "),": 995,
      "ft": 996,
      "Ġfl": 997,
      "ights": 998,
      "Ġstill": 999,
      "Ġcost": 1000,
      "ork": 1001,
      "ath": 1002,
      "Ġbot": 1003,
      "Ġsystem": 1004,
      "Ġval": 1005,
      "Ġstock": 1006,
      "Ġins": 1007,
      "tries": 1008,
      "'t": 1009,
      "ivers": 1010,
      "Ġcust": 1011,
      "cent": 1012,
      "Ġexper": 1013,
      "Ġstart": 1014,
      "Ġuse": 1015,
      "Ġpar": 1016,
      "ns": 1017,
      "ict": 1018,
      "Ġplan": 1019,
      "Ġbillion": 1020,
      "Ġsays": 1021,
      "Ġcountry": 1022,
      "Ġbeing": 1023,
      "Ġ19": 1024,
      "Ġinte": 1025,
      "ands": 1026,
      "Ġprev": 1027,
      "ology": 1028,
      "Ġav": 1029,
      "ful": 1030,
      "Ġcustom": 1031,
      "erson": 1032,
      "ces": 1033,
      "br": 1034,
      "Ġpay": 1035,
      "Ġhome": 1036,
      "Ġfol": 1037,
      "ular": 1038,
      "ults": 1039,
      "ients": 1040,
      "app": 1041,
      "cer": 1042,
      "rest": 1043,
      "med": 1044,
      "Ġiss": 1045,
      "Ġcare": 1046,
      "Ġday": 1047,
      "Ġcommun": 1048,
      "Ġatt": 1049,
      "hing": 1050,
      "az": 1051,
      "Ġmonths": 1052,
      "Ġthree": 1053,
      "als": 1054,
      "Ġlook": 1055,
      "ily": 1056,
      "ull": 1057,
      "Ġaround": 1058,
      "ief": 1059,
      "ution": 1060,
      "Ġset": 1061,
      "Ġthink": 1062,
      "Ġemploy": 1063,
      "Ġtake": 1064,
      "air": 1065,
      "Ġintern": 1066,
      "cond": 1067,
      "Ġgrowth": 1068,
      "Ġcurrent": 1069,
      "Ġdet": 1070,
      "ool": 1071,
      "Ġform": 1072,
      "Ġrisk": 1073,
      "Ġnumber": 1074,
      "Ġfore": 1075,
      "rope": 1076,
      "Ġequ": 1077,
      "hip": 1078,
      ").": 1079,
      "Ġfact": 1080,
      "Ġfollow": 1081,
      "Ġant": 1082,
      "Ġtrump": 1083,
      "osp": 1084,
      "Ġinformation": 1085,
      "Ġsecond": 1086,
      "ix": 1087,
      "Ġlos": 1088,
      "Ġmuch": 1089,
      "Ġconf": 1090,
      "Ġrecent": 1091,
      "Ġmeas": 1092,
      "Ġorgan": 1093,
      "led": 1094,
      "Ġfut": 1095,
      "Ġgoing": 1096,
      "down": 1097,
      "Ġappro": 1098,
      "Ġsay": 1099,
      "Ġsales": 1100,
      "Ġmy": 1101,
      "urs": 1102,
      "Ġvery": 1103,
      "ax": 1104,
      "Ġstates": 1105,
      "Ġeurope": 1106,
      "une": 1107,
      "ency": 1108,
      "Ġcontr": 1109,
      "Ġ2019": 1110,
      "Ġown": 1111,
      "Ġmarch": 1112,
      "ween": 1113,
      "Ġhig": 1114,
      "tt": 1115,
      "ertain": 1116,
      "Ġbetween": 1117,
      "ene": 1118,
      "ateg": 1119,
      "Ġagainst": 1120,
      "Ġ30": 1121,
      "eng": 1122,
      "Ġteam": 1123,
      "Ġaccess": 1124,
      "Ġvar": 1125,
      "Ġeffect": 1126,
      "Ġdue": 1127,
      "itive": 1128,
      "Ġinfect": 1129,
      "Ġindustry": 1130,
      "Ġeconomic": 1131,
      "Ġbig": 1132,
      "iod": 1133,
      "Ġannoun": 1134,
      "Ġacross": 1135,
      "Ġsocial": 1136,
      "Ġway": 1137,
      "ials": 1138,
      "Ġ12": 1139,
      "man": 1140,
      "Ġtop": 1141,
      "imate": 1142,
      "Ġremain": 1143,
      "Ġbank": 1144,
      "Ġdemand": 1145,
      "ience": 1146,
      "Ġservices": 1147,
      "other": 1148,
      "lease": 1149,
      "Ġcountries": 1150,
      "Ġread": 1151,
      "ants": 1152,
      "ision": 1153,
      "Ġref": 1154,
      "Ġloc": 1155,
      "Ġperiod": 1156,
      "ares": 1157,
      "Ġsol": 1158,
      "Ġresults": 1159,
      "osed": 1160,
      "ospital": 1161,
      "Ġreal": 1162,
      "Ġwar": 1163,
      "ouse": 1164,
      "Ġdiffe": 1165,
      "cl": 1166,
      "the": 1167,
      "tal": 1168,
      "ering": 1169,
      "Ġdig": 1170,
      "Ġnon": 1171,
      "Ġboth": 1172,
      "Ġnational": 1173,
      "bers": 1174,
      "ets": 1175,
      "Ġdid": 1176,
      "Ġhospital": 1177,
      "min": 1178,
      "Ġgood": 1179,
      "Ġmanage": 1180,
      "Ġsecur": 1181,
      "land": 1182,
      "uss": 1183,
      "Ġschool": 1184,
      "Ġplay": 1185,
      "ps": 1186,
      "ists": 1187,
      "uary": 1188,
      "Ġnext": 1189,
      "Ġpolic": 1190,
      "reak": 1191,
      "Ġdef": 1192,
      "ered": 1193,
      "ying": 1194,
      "Ġknow": 1195,
      "Ġmem": 1196,
      "Ġelect": 1197,
      "Ġcris": 1198,
      "Ġimport": 1199,
      "sel": 1200,
      "view": 1201,
      "Ġbro": 1202,
      "ized": 1203,
      "Ġcre": 1204,
      "Ġsen": 1205,
      "Ġfac": 1206,
      "Ġlevel": 1207,
      "Ġmade": 1208,
      "Ġpercent": 1209,
      "Ġchild": 1210,
      "Ġexpect": 1211,
      "Ġdel": 1212,
      "Ġhum": 1213,
      "Ġbel": 1214,
      "tion": 1215,
      "Ġpartic": 1216,
      "Ġve": 1217,
      "Ġrece": 1218,
      "por": 1219,
      "verage": 1220,
      "Ġauth": 1221,
      "Ġsim": 1222,
      "Ġreported": 1223,
      "Ġlif": 1224,
      "per": 1225,
      "Ġtim": 1226,
      "Ġreven": 1227,
      "Ġthen": 1228,
      "Ġfuture": 1229,
      "arge": 1230,
      "====": 1231,
      "Ġdays": 1232,
      "Ġche": 1233,
      "Ġ11": 1234,
      "ars": 1235,
      "Ġwant": 1236,
      "Ġhere": 1237,
      "Ġmas": 1238,
      "Ġ15": 1239,
      "Ġ/": 1240,
      "Ġopen": 1241,
      "Ġpost": 1242,
      "gram": 1243,
      "ves": 1244,
      "aff": 1245,
      "ute": 1246,
      "ms": 1247,
      "Ġfound": 1248,
      "iven": 1249,
      "Ġcapital": 1250,
      "Ġtold": 1251,
      "ization": 1252,
      "ner": 1253,
      "Ġfar": 1254,
      "Ġpot": 1255,
      "Ġtrave": 1256,
      "pl": 1257,
      "Ġinterest": 1258,
      "Ġaddition": 1259,
      "Ġprotect": 1260,
      "Ġterm": 1261,
      "tions": 1262,
      "ety": 1263,
      "Ġspec": 1264,
      "Ġtechnology": 1265,
      "Ġmet": 1266,
      "Ġworkers": 1267,
      "Ġfur": 1268,
      "Ġcrisis": 1269,
      "ically": 1270,
      "Ġmaj": 1271,
      "Ġperson": 1272,
      "ount": 1273,
      "Ġpatients": 1274,
      "gest": 1275,
      "Ġpop": 1276,
      "Ġaff": 1277,
      "Ġconsum": 1278,
      "itions": 1279,
      "ined": 1280,
      "Ġlim": 1281,
      "Ġtotal": 1282,
      "ission": 1283,
      "ised": 1284,
      "Ġdigital": 1285,
      "ron": 1286,
      "ivid": 1287,
      "iting": 1288,
      "ĠĠĠĠ": 1289,
      "Ġel": 1290,
      "ize": 1291,
      "atch": 1292,
      "Ġstrateg": 1293,
      "Ġdise": 1294,
      "ty": 1295,
      "Ġrecord": 1296,
      "ww": 1297,
      "Ġfed": 1298,
      "Ġnear": 1299,
      "mber": 1300,
      "Ġprogram": 1301,
      "Ġtrad": 1302,
      "ned": 1303,
      "Ġfam": 1304,
      "Ġspread": 1305,
      "gin": 1306,
      "Ġcle": 1307,
      "ble": 1308,
      "Ġmajor": 1309,
      "Ġce": 1310,
      "Ġmain": 1311,
      "Ġfour": 1312,
      "Ġface": 1313,
      "ever": 1314,
      "Ġallow": 1315,
      "ds": 1316,
      "Ġob": 1317,
      "sis": 1318,
      "Ġeconomy": 1319,
      "aw": 1320,
      "Ġeng": 1321,
      "Ġcontro": 1322,
      "Ġsame": 1323,
      "ex": 1324,
      "Ġ13": 1325,
      "ov": 1326,
      "str": 1327,
      "Ġlock": 1328,
      "Ġchange": 1329,
      "ready": 1330,
      "Ġright": 1331,
      "ling": 1332,
      "Ġless": 1333,
      "Ġdeath": 1334,
      "yp": 1335,
      "ason": 1336,
      "Ġprop": 1337,
      "Ġunited": 1338,
      "Ġpress": 1339,
      "ued": 1340,
      "iving": 1341,
      "Ġpotential": 1342,
      "ather": 1343,
      "Ġcash": 1344,
      "Ġmanagement": 1345,
      "Ġchang": 1346,
      "Ġes": 1347,
      "Ġalready": 1348,
      "Ġauthor": 1349,
      "Ġprocess": 1350,
      "Ġsupply": 1351,
      "Ø§": 1352,
      "Ġhouse": 1353,
      "ote": 1354,
      "Ġexpected": 1355,
      "Ġamong": 1356,
      "Ġ14": 1357,
      "Ġsou": 1358,
      "ially": 1359,
      "Ġcontinue": 1360,
      "itical": 1361,
      "Ġuk": 1362,
      "Ġkeep": 1363,
      "Ġdoes": 1364,
      "Ġsect": 1365,
      "Ġext": 1366,
      "Ġmod": 1367,
      "Ġworking": 1368,
      "Ġinvestors": 1369,
      "da": 1370,
      "Ġshares": 1371,
      "Ġactiv": 1372,
      "Ġstudy": 1373,
      "Ã©": 1374,
      "Ġforward": 1375,
      "Ġhuman": 1376,
      "Ġpow": 1377,
      "Ġmeet": 1378,
      "iversity": 1379,
      "Ġanother": 1380,
      "Ġreco": 1381,
      "Ġloss": 1382,
      "Ġbid": 1383,
      "ocus": 1384,
      "ending": 1385,
      "ional": 1386,
      "Ġreturn": 1387,
      "Ġput": 1388,
      "ked": 1389,
      "Ġemploye": 1390,
      "Ġused": 1391,
      "Ġmarkets": 1392,
      "Ġvis": 1393,
      "Ġfurther": 1394,
      "orth": 1395,
      "ri": 1396,
      "Ġsit": 1397,
      "Ġlikely": 1398,
      "Ġshort": 1399,
      "Ġchall": 1400,
      "bo": 1401,
      "Ġemerg": 1402,
      "ability": 1403,
      "Ġsignific": 1404,
      "Ġincrease": 1405,
      "Ġprice": 1406,
      "Ġexec": 1407,
      "Ġmeasures": 1408,
      "ey": 1409,
      "ocks": 1410,
      "Ġjune": 1411,
      "ination": 1412,
      "ten": 1413,
      "Ġinternational": 1414,
      "nal": 1415,
      "Ġtravel": 1416,
      "tle": 1417,
      "Ġavail": 1418,
      "Ġhowever": 1419,
      "Ġcity": 1420,
      "Ġpa": 1421,
      "Ġtoday": 1422,
      "ril": 1423,
      "ished": 1424,
      "Ġlaw": 1425,
      "Ġcond": 1426,
      "Ġdifferent": 1427,
      "Ġlab": 1428,
      "Ġdevelopment": 1429,
      "Ġproject": 1430,
      "Ġhigher": 1431,
      "Ġbusinesses": 1432,
      "ired": 1433,
      "ister": 1434,
      "Ġdeb": 1435,
      "Ġkey": 1436,
      "Ġpass": 1437,
      "get": 1438,
      "ry": 1439,
      "year": 1440,
      "Ġcour": 1441,
      "Ġmr": 1442,
      "Ġhold": 1443,
      "hes": 1444,
      "ained": 1445,
      "Ġbene": 1446,
      "Ġstrong": 1447,
      "ness": 1448,
      "ages": 1449,
      "Ġhead": 1450,
      "Ġproducts": 1451,
      "Ġlarge": 1452,
      "Ġanalysis": 1453,
      "Ġperform": 1454,
      "ah": 1455,
      "Ġport": 1456,
      "king": 1457,
      "istr": 1458,
      "Ġfew": 1459,
      "Ġcomple": 1460,
      "Ġfull": 1461,
      "mpt": 1462,
      "Ġhal": 1463,
      "Ġfocus": 1464,
      "Ġresult": 1465,
      "Ġsignificant": 1466,
      "Ġconcer": 1467,
      "Ġonline": 1468,
      "Ġincome": 1469,
      "Ġ//": 1470,
      "Ġbenef": 1471,
      "nes": 1472,
      "Ġoutb": 1473,
      "ases": 1474,
      "Ġcal": 1475,
      "ism": 1476,
      "look": 1477,
      "Ġrate": 1478,
      "Ġdisc": 1479,
      "ustr": 1480,
      "Ġinvestment": 1481,
      "Ġsmall": 1482,
      "ys": 1483,
      "Ġlockdown": 1484,
      "ually": 1485,
      "Ġposs": 1486,
      "acy": 1487,
      "Ġapril": 1488,
      "ving": 1489,
      "Ġbuild": 1490,
      "me": 1491,
      "to": 1492,
      "Ġgreat": 1493,
      "Ġcustomers": 1494,
      "Ġplace": 1495,
      "Ġbetter": 1496,
      "pr": 1497,
      "Ġsl": 1498,
      "erc": 1499,
      "Ġbar": 1500,
      "Ġstre": 1501,
      "Ġearly": 1502,
      "Ġfind": 1503,
      "'re": 1504,
      "rence": 1505,
      "orm": 1506,
      "Ġchildren": 1507,
      "uly": 1508,
      "Ġpriv": 1509,
      "Ġbest": 1510,
      "Ġwithout": 1511,
      "Ġmat": 1512,
      "mar": 1513,
      "ention": 1514,
      "Ġbas": 1515,
      "way": 1516,
      "Ġart": 1517,
      "Ġwr": 1518,
      "Ġeach": 1519,
      "Ġimportant": 1520,
      "Ġ18": 1521,
      "Ġlat": 1522,
      "just": 1523,
      "ains": 1524,
      "cept": 1525,
      "Ġinfl": 1526,
      "Ġlear": 1527,
      "Ġstatements": 1528,
      "Ġmedical": 1529,
      "utions": 1530,
      "Ġquest": 1531,
      "Ġpast": 1532,
      "Ġsu": 1533,
      "atory": 1534,
      "Ġadmin": 1535,
      "Ġmean": 1536,
      "Ġsw": 1537,
      "Ġthough": 1538,
      "ember": 1539,
      "Ġrun": 1540,
      "Ġtax": 1541,
      "Ġstocks": 1542,
      "Ġredu": 1543,
      "Ġfood": 1544,
      "Ġimm": 1545,
      "row": 1546,
      "Ġexecut": 1547,
      "Ġimpro": 1548,
      "Ġfil": 1549,
      "ale": 1550,
      "Ġhop": 1551,
      "Ġ100": 1552,
      "Ġpolicy": 1553,
      "cast": 1554,
      "Ġhard": 1555,
      "ilities": 1556,
      "Ġdeli": 1557,
      "lose": 1558,
      "Ġvalue": 1559,
      "rap": 1560,
      "oci": 1561,
      "ton": 1562,
      "Ġannounced": 1563,
      "uf": 1564,
      "Ġservice": 1565,
      "Ġproduction": 1566,
      "aving": 1567,
      "Ġdisease": 1568,
      "Ġpur": 1569,
      "Ġbelie": 1570,
      "ulation": 1571,
      "Ġcontrol": 1572,
      "Ġcome": 1573,
      "Ġtyp": 1574,
      "Ġprices": 1575,
      "Ġbiden": 1576,
      "Ġdistr": 1577,
      "Ġmove": 1578,
      "asing": 1579,
      "Ġpositive": 1580,
      "Ġrevenue": 1581,
      "Ġtal": 1582,
      "ergy": 1583,
      "Ġavailable": 1584,
      "Ġtimes": 1585,
      ".,": 1586,
      "go": 1587,
      "nings": 1588,
      "Ġfree": 1589,
      "Ġprovide": 1590,
      "Ġrights": 1591,
      "portun": 1592,
      "ended": 1593,
      "ality": 1594,
      "Ġ17": 1595,
      "omet": 1596,
      "Ġleaders": 1597,
      "Ġvol": 1598,
      "crib": 1599,
      "Ġopportun": 1600,
      "âĢĶ": 1601,
      "Ġ25": 1602,
      "iday": 1603,
      "Ġli": 1604,
      "gress": 1605,
      "Ġadded": 1606,
      "ier": 1607,
      "Ġmid": 1608,
      "na": 1609,
      "Ġweeks": 1610,
      "ttps": 1611,
      "Ġrestric": 1612,
      "Ġleg": 1613,
      "Ġgener": 1614,
      "ird": 1615,
      "Ġdist": 1616,
      "hold": 1617,
      "Ġsubs": 1618,
      "Ġmight": 1619,
      "Ġlocal": 1620,
      "Ġyork": 1621,
      "Ġable": 1622,
      "Ġassoci": 1623,
      "ified": 1624,
      "Ġ16": 1625,
      "arm": 1626,
      "Ġsouth": 1627,
      "Ġemployees": 1628,
      "Ġclose": 1629,
      "Ġjoh": 1630,
      "ra": 1631,
      "oms": 1632,
      "Ġchief": 1633,
      "stand": 1634,
      "Ġsever": 1635,
      "Ġjan": 1636,
      "less": 1637,
      "Ġ31": 1638,
      "Ġbased": 1639,
      "Ġinit": 1640,
      "els": 1641,
      "ield": 1642,
      "Ġenv": 1643,
      "Ġsecurity": 1644,
      "Ġoil": 1645,
      "ph": 1646,
      "Ġhand": 1647,
      "ived": 1648,
      "Ġhapp": 1649,
      "Ġstaff": 1650,
      "Ġagree": 1651,
      "ody": 1652,
      "Ġoffer": 1653,
      "Ġhim": 1654,
      "Ġcosts": 1655,
      "ening": 1656,
      "Ġtarg": 1657,
      "Ġdeal": 1658,
      "Ġlife": 1659,
      "atic": 1660,
      "Ġlit": 1661,
      "Ġfall": 1662,
      "Ġprevious": 1663,
      "ÙĦ": 1664,
      "ural": 1665,
      "Ġhist": 1666,
      "ider": 1667,
      "Ġplat": 1668,
      "Ġlist": 1669,
      "Ġtreat": 1670,
      "Ġra": 1671,
      "Ġprior": 1672,
      "ins": 1673,
      "be": 1674,
      "Ġcommit": 1675,
      "Ġupd": 1676,
      "ocr": 1677,
      "Ġadjust": 1678,
      "ners": 1679,
      "iron": 1680,
      "Ġsept": 1681,
      "Ġreally": 1682,
      "Ġsuc": 1683,
      "Ġvir": 1684,
      "Ġretail": 1685,
      "Ġwhether": 1686,
      "ising": 1687,
      "Ġoperations": 1688,
      "pect": 1689,
      "Ġuniversity": 1690,
      "Ġvaccines": 1691,
      "ai": 1692,
      "Ġenergy": 1693,
      "Ġpower": 1694,
      "Ġwom": 1695,
      "10": 1696,
      "ral": 1697,
      "Ġoutbreak": 1698,
      "Ġcred": 1699,
      "Ġlot": 1700,
      "Ġleast": 1701,
      "ĠÂ": 1702,
      "ash": 1703,
      "aring": 1704,
      "Ġunt": 1705,
      "Ġcompared": 1706,
      "Ġjuly": 1707,
      "akes": 1708,
      "Ġincreased": 1709,
      "Ġusing": 1710,
      "Ġcompet": 1711,
      "Ġadministr": 1712,
      "Ġspe": 1713,
      "Ġofficials": 1714,
      "Ġstand": 1715,
      "Ġnat": 1716,
      "Ġeffort": 1717,
      "work": 1718,
      "based": 1719,
      "Ġwithin": 1720,
      "Ġplans": 1721,
      "new": 1722,
      "Ġaustr": 1723,
      "Ġcamp": 1724,
      "ged": 1725,
      "Ġwed": 1726,
      "Ġsour": 1727,
      "lier": 1728,
      "Ġvari": 1729,
      "Ġview": 1730,
      "Ġ50": 1731,
      "Ġ200": 1732,
      "Ġtesting": 1733,
      "ufact": 1734,
      "lished": 1735,
      "Ġplatform": 1736,
      "Ġmor": 1737,
      "Ġdrug": 1738,
      "Ġhit": 1739,
      "Ġfederal": 1740,
      "inc": 1741,
      "Ġbeh": 1742,
      "ator": 1743,
      "Ġmult": 1744,
      "aging": 1745,
      "Ġoperating": 1746,
      "Ġseen": 1747,
      "Ġmanufact": 1748,
      "Ġdirector": 1749,
      "Ġjour": 1750,
      "Ġfollowing": 1751,
      "Ġrepres": 1752,
      "Ġfive": 1753,
      "Ġanalyst": 1754,
      "Ġgre": 1755,
      "Ġmonday": 1756,
      "onse": 1757,
      "Ġdiff": 1758,
      "Ġearnings": 1759,
      "Ġtoo": 1760,
      "ped": 1761,
      "Ġaverage": 1762,
      "inated": 1763,
      "Ġmedia": 1764,
      "care": 1765,
      "Â·": 1766,
      "Ġge": 1767,
      "Ġcase": 1768,
      "Ġenviron": 1769,
      "Ġdesign": 1770,
      "Ġstep": 1771,
      "ators": 1772,
      "Ġrates": 1773,
      "ck": 1774,
      "Ġident": 1775,
      "umm": 1776,
      "Ġsaf": 1777,
      "itor": 1778,
      "Ġcorpor": 1779,
      "Ġdemocr": 1780,
      "Ġamerica": 1781,
      "Ġresponse": 1782,
      "Ġsk": 1783,
      "side": 1784,
      "Ġet": 1785,
      "Ġguid": 1786,
      "Ġinstit": 1787,
      "Ġthird": 1788,
      "Ġestim": 1789,
      "ample": 1790,
      "Ġsing": 1791,
      "Ġbi": 1792,
      "Ġlower": 1793,
      "ats": 1794,
      "Ġmoney": 1795,
      "Ġq": 1796,
      "Ġseveral": 1797,
      "Ġyet": 1798,
      "Ġlarg": 1799,
      "Ġbor": 1800,
      "Ġprofess": 1801,
      "Ġchalleng": 1802,
      "50": 1803,
      "Ġamerican": 1804,
      "Ġbuy": 1805,
      "uesday": 1806,
      "Ġacqu": 1807,
      "Ġregul": 1808,
      "Ġaustral": 1809,
      "Ġothers": 1810,
      "Ġtuesday": 1811,
      "Ġmaking": 1812,
      "Ġcut": 1813,
      "ada": 1814,
      "Ġsug": 1815,
      "Ġvide": 1816,
      "Ġuntil": 1817,
      "ium": 1818,
      "Ġhttps": 1819,
      "Ġstay": 1820,
      "Ġvi": 1821,
      "aining": 1822,
      "Ġgiven": 1823,
      "Ġplease": 1824,
      "Ġ24": 1825,
      "Ġdece": 1826,
      "Ġstatement": 1827,
      "cc": 1828,
      "uation": 1829,
      "Ġtren": 1830,
      "Ġbecome": 1831,
      "Ġthings": 1832,
      "ursday": 1833,
      "Ġgeneral": 1834,
      "Ġprodu": 1835,
      "Ġthursday": 1836,
      "Ġcy": 1837,
      "Ġlet": 1838,
      "ibut": 1839,
      "Ġpoin": 1840,
      "ively": 1841,
      "rup": 1842,
      "Ġseptember": 1843,
      "Ġrelated": 1844,
      "ĠâĢĺ": 1845,
      "oll": 1846,
      "ends": 1847,
      "Ġhalf": 1848,
      "term": 1849,
      "Ġinclude": 1850,
      "acks": 1851,
      "Ġsuccess": 1852,
      "Ġeas": 1853,
      "aim": 1854,
      "Ġwatch": 1855,
      "Ġmater": 1856,
      "Ġafric": 1857,
      "Ġunc": 1858,
      "Ġevents": 1859,
      "hers": 1860,
      "ler": 1861,
      "Ġdepart": 1862,
      "Ġtable": 1863,
      "Ġneg": 1864,
      "ense": 1865,
      "Ġsafe": 1866,
      "Ġexecutive": 1867,
      "Ġens": 1868,
      "Ġindivid": 1869,
      "de": 1870,
      "Ġrespons": 1871,
      "Ġmembers": 1872,
      "Ġcertain": 1873,
      "30": 1874,
      "Ġcontact": 1875,
      "Ġsympt": 1876,
      "Ġste": 1877,
      "head": 1878,
      "Ġpoint": 1879,
      "Ġsomet": 1880,
      "Ġenvironment": 1881,
      "Ġdecember": 1882,
      "Ġadditional": 1883,
      "Ġemail": 1884,
      "Ġcommunity": 1885,
      "Ġrestrictions": 1886,
      "Ġoffice": 1887,
      "Ġtem": 1888,
      "aily": 1889,
      "nesday": 1890,
      "Ġwednesday": 1891,
      "Ġtrade": 1892,
      "Ġclin": 1893,
      "Ġpossible": 1894,
      "Ġsix": 1895,
      "Ġrecovery": 1896,
      "Ġclear": 1897,
      "Ġrele": 1898,
      "Ġmust": 1899,
      "Ġparticular": 1900,
      "Ġmil": 1901,
      "Ġcontract": 1902,
      "Ġearlier": 1903,
      "Ġprom": 1904,
      "Ġindividual": 1905,
      "Ġ@": 1906,
      "Ġproble": 1907,
      "Ġminister": 1908,
      "Ġended": 1909,
      "Ġdesp": 1910,
      "err": 1911,
      "ienc": 1912,
      "%.": 1913,
      "Ġtarget": 1914,
      "inese": 1915,
      "Ġeuropean": 1916,
      "Ġperformance": 1917,
      "Ġ21": 1918,
      "apan": 1919,
      "Ġmus": 1920,
      "Ġexpl": 1921,
      "Ġwin": 1922,
      "lement": 1923,
      "Ġissues": 1924,
      "Ġaug": 1925,
      "Ġnearly": 1926,
      "Ġdecl": 1927,
      "Ġturn": 1928,
      "Ġexperience": 1929,
      "bruary": 1930,
      "Ġlive": 1931,
      "self": 1932,
      "Ġhour": 1933,
      "Ġcop": 1934,
      "ger": 1935,
      "Ġpartners": 1936,
      "ately": 1937,
      "Ġcontent": 1938,
      "Ġur": 1939,
      "%,": 1940,
      "ping": 1941,
      "Ġchinese": 1942,
      "aces": 1943,
      "Ġapplic": 1944,
      "Ġgold": 1945,
      "Ġterms": 1946,
      "Ġfriday": 1947,
      "ots": 1948,
      "aged": 1949,
      "ames": 1950,
      "Ġpolice": 1951,
      "Ġconn": 1952,
      "Ġdaily": 1953,
      "Ġdom": 1954,
      "Ġfebruary": 1955,
      "ware": 1956,
      "Ġquick": 1957,
      "Ġsystems": 1958,
      "Ġsafety": 1959,
      "Ġseg": 1960,
      "Ġeduc": 1961,
      "Ġgas": 1962,
      "Ġorder": 1963,
      "ened": 1964,
      "Ġfig": 1965,
      "Ġwhy": 1966,
      "ference": 1967,
      "...": 1968,
      "Ġrelease": 1969,
      "Ġjournal": 1970,
      "Ġfunds": 1971,
      "Ġhaving": 1972,
      "sh": 1973,
      "Ġlatest": 1974,
      "Ġdespite": 1975,
      "Ġpresent": 1976,
      "ogle": 1977,
      "Ġjanuary": 1978,
      "rel": 1979,
      "ify": 1980,
      "Ġmasks": 1981,
      "ibility": 1982,
      "Ġconfir": 1983,
      "Ġcredit": 1984,
      "Ġrisks": 1985,
      "Ġlimited": 1986,
      "Ġda": 1987,
      "Ġjapan": 1988,
      "ably": 1989,
      "Ġnorm": 1990,
      "Ġdev": 1991,
      "Ġconditions": 1992,
      "Ġsuggest": 1993,
      "Ġcaus": 1994,
      "Ġlooking": 1995,
      "Ġadministration": 1996,
      "Ġsurve": 1997,
      "Ġwomen": 1998,
      "Ġrepresent": 1999,
      "ik": 2000,
      "Ġsan": 2001,
      "Ġjob": 2002,
      "Ġdecision": 2003,
      "ift": 2004,
      "Ġdeaths": 2005,
      "Ġcn": 2006,
      "ured": 2007,
      "Ġsell": 2008,
      "Ġbroad": 2009,
      "ilar": 2010,
      "erv": 2011,
      "Ġsector": 2012,
      "pec": 2013,
      "Ġ+": 2014,
      "Ġcomb": 2015,
      "Ġresour": 2016,
      "Ġprep": 2017,
      "========": 2018,
      "ury": 2019,
      "ove": 2020,
      "Ġmic": 2021,
      "Ġprofit": 2022,
      "orn": 2023,
      "Ġcoming": 2024,
      "Ġceo": 2025,
      "Ġassets": 2026,
      "Ġleading": 2027,
      "Ġclos": 2028,
      "Ġreop": 2029,
      "Ġaddress": 2030,
      "ucture": 2031,
      "oot": 2032,
      "Ġ23": 2033,
      "Ġpract": 2034,
      "Ġdiscuss": 2035,
      "Ġevent": 2036,
      "Ġlevels": 2037,
      "most": 2038,
      "Ġdrop": 2039,
      "Ġreporting": 2040,
      "ney": 2041,
      "Ġregion": 2042,
      "ancing": 2043,
      "Ġsus": 2044,
      "Ġblo": 2045,
      "Ġlittle": 2046,
      "Ġwal": 2047,
      "Ġnorth": 2048,
      "Ġpublished": 2049,
      "Ġvideo": 2050,
      "Ġchanges": 2051,
      "Ġfeel": 2052,
      "Ġreview": 2053,
      "Ġformer": 2054,
      "Ġlater": 2055,
      "Ġ*": 2056,
      "Ġfamily": 2057,
      "Ġbegin": 2058,
      "Ġseason": 2059,
      "Ġlaun": 2060,
      "Ġ)": 2061,
      "looking": 2062,
      "Ġsymptoms": 2063,
      "Ġunderstand": 2064,
      "Ġrequire": 2065,
      "Ġhed": 2066,
      "ances": 2067,
      "Ġneeds": 2068,
      "Ġcollect": 2069,
      "ones": 2070,
      "omm": 2071,
      "Ġprotest": 2072,
      "Ġahead": 2073,
      "Ġsimilar": 2074,
      "cal": 2075,
      "Ġbill": 2076,
      "Ġjobs": 2077,
      "Ġ22": 2078,
      "Ġ500": 2079,
      "Ġvot": 2080,
      "Ġdou": 2081,
      "Ġwhite": 2082,
      "Ġdebt": 2083,
      "Ġ40": 2084,
      "Ġboard": 2085,
      "icult": 2086,
      "Ġslow": 2087,
      "Ġep": 2088,
      "Ġshop": 2089,
      "Ġlink": 2090,
      "action": 2091,
      "Ġtaking": 2092,
      "Ġnation": 2093,
      "Ġ28": 2094,
      "Ġ2022": 2095,
      "Ġsust": 2096,
      "Ġgerm": 2097,
      "Ġruss": 2098,
      "Ġprivate": 2099,
      "wh": 2100,
      "Ġbrit": 2101,
      "Ġincreasing": 2102,
      "ched": 2103,
      "Ġcalled": 2104,
      "Ġautom": 2105,
      "Ġdifficult": 2106,
      "ories": 2107,
      "Ġindia": 2108,
      "Ġclaim": 2109,
      "Ġposition": 2110,
      "Ġforecast": 2111,
      "ores": 2112,
      "Ġwest": 2113,
      "Ġwon": 2114,
      "Ġcoll": 2115,
      "cing": 2116,
      "Ġill": 2117,
      "Ġphot": 2118,
      "Ġgot": 2119,
      "21": 2120,
      "thing": 2121,
      "Ġsumm": 2122,
      "Ġclass": 2123,
      "Ġtoget": 2124,
      "Ġuncertain": 2125,
      "Ġque": 2126,
      "ĠĠĠ": 2127,
      "Ġtogether": 2128,
      "Ġreports": 2129,
      "ival": 2130,
      "ols": 2131,
      "Ġgetting": 2132,
      "Ġchain": 2133,
      "Ġorig": 2134,
      "Ġcustomer": 2135,
      "Ġyoun": 2136,
      "Ġhar": 2137,
      "Ġcurrently": 2138,
      "Ġprim": 2139,
      "Ġcentral": 2140,
      "ians": 2141,
      "Ġline": 2142,
      "bit": 2143,
      "ta": 2144,
      "Ġdepartment": 2145,
      "Ġhealthcare": 2146,
      "hic": 2147,
      "mic": 2148,
      "nov": 2149,
      "mon": 2150,
      "Ġpack": 2151,
      "Ġbal": 2152,
      "Ġpolitical": 2153,
      "Ġpoints": 2154,
      "sc": 2155,
      "Ġide": 2156,
      "Ġtre": 2157,
      "Ġdoll": 2158,
      "vere": 2159,
      "Ġalong": 2160,
      "wide": 2161,
      "ÙĬ": 2162,
      "oses": 2163,
      "Ġhol": 2164,
      "Ġannual": 2165,
      "hen": 2166,
      "ways": 2167,
      "Ġmom": 2168,
      "ank": 2169,
      "Ġrul": 2170,
      "ublic": 2171,
      "ung": 2172,
      "hest": 2173,
      "Ġbelieve": 2174,
      "Ġever": 2175,
      "Ġmill": 2176,
      "ret": 2177,
      "gn": 2178,
      "Ġrev": 2179,
      "Ġfail": 2180,
      "Ġblack": 2181,
      "Ġoften": 2182,
      "ris": 2183,
      "aken": 2184,
      "Ġlives": 2185,
      "Ġpurch": 2186,
      "Ġmass": 2187,
      "Ġadjusted": 2188,
      "Ġrap": 2189,
      "Ġparticip": 2190,
      "Ġimprove": 2191,
      "arily": 2192,
      "Ġcommon": 2193,
      "Ġmeeting": 2194,
      "itter": 2195,
      "Ġexample": 2196,
      "Ġonce": 2197,
      "Ġ27": 2198,
      "fol": 2199,
      "Ġir": 2200,
      "Ġstat": 2201,
      "Ġdate": 2202,
      "Ġspecial": 2203,
      "aur": 2204,
      "âĢĵ": 2205,
      "pro": 2206,
      "ining": 2207,
      "Ġchar": 2208,
      "Ġinfection": 2209,
      "Ġold": 2210,
      "ann": 2211,
      "Ġfactors": 2212,
      "Ġjohns": 2213,
      "Ġstudents": 2214,
      "Ġinterview": 2215,
      "Ġfre": 2216,
      "uck": 2217,
      "of": 2218,
      "Ġca": 2219,
      "ems": 2220,
      "Ġled": 2221,
      "Ġarr": 2222,
      "Ġequity": 2223,
      "Ġrespond": 2224,
      "Ġcampa": 2225,
      "Ġhedge": 2226,
      "let": 2227,
      "Ġstop": 2228,
      "Ġlargest": 2229,
      "Ġconsumer": 2230,
      "Ġability": 2231,
      "Ġago": 2232,
      "Ġsund": 2233,
      "uel": 2234,
      "Ġclimate": 2235,
      "Ġmoder": 2236,
      "%)": 2237,
      "uction": 2238,
      "Ġinvol": 2239,
      "que": 2240,
      "Ġfis": 2241,
      "Ġmeans": 2242,
      "Ġamericans": 2243,
      "Ġareas": 2244,
      "Ġdoing": 2245,
      "Ġemergency": 2246,
      "Ġcampaign": 2247,
      "cy": 2248,
      "Ġexc": 2249,
      "Ġrose": 2250,
      "Ġpred": 2251,
      "Ġsenior": 2252,
      "Ġmedic": 2253,
      "inal": 2254,
      "Ġbring": 2255,
      "Ġalmost": 2256,
      "Ġnever": 2257,
      "Ġdeliver": 2258,
      "Ġrise": 2259,
      "by": 2260,
      "Ġboost": 2261,
      "Ġorganization": 2262,
      "Ġrespect": 2263,
      "Ġpopulation": 2264,
      "ender": 2265,
      "Ġgrowing": 2266,
      "Ġx": 2267,
      "Ġtrack": 2268,
      "oid": 2269,
      "ports": 2270,
      "Ġsomething": 2271,
      "mit": 2272,
      "Ġinnov": 2273,
      "essential": 2274,
      "Ġdetail": 2275,
      "Ġinfections": 2276,
      "Ġtreatment": 2277,
      "Ġorganiz": 2278,
      "Ġaccount": 2279,
      "Ġscient": 2280,
      "Ġsolutions": 2281,
      "Ġensure": 2282,
      "tern": 2283,
      "Ġrequired": 2284,
      "Ġespec": 2285,
      "ple": 2286,
      "Ġsent": 2287,
      "Ġhy": 2288,
      "Ġamid": 2289,
      "Ġstrategy": 2290,
      "Ġindic": 2291,
      "Ġhours": 2292,
      "Ġcomes": 2293,
      "Ġlabor": 2294,
      "Ġtrading": 2295,
      "Ġquestion": 2296,
      "Ġefforts": 2297,
      "Ġtested": 2298,
      "Ġrecently": 2299,
      "ley": 2300,
      "Ġcomment": 2301,
      "Ġgive": 2302,
      "Ġcrit": 2303,
      "Ġvirt": 2304,
      "Ġaction": 2305,
      "Ġthreat": 2306,
      "lf": 2307,
      "Ġlate": 2308,
      "ards": 2309,
      "Ġchallenges": 2310,
      "Ġcenter": 2311,
      "Ġvisit": 2312,
      "gen": 2313,
      "Ġtoward": 2314,
      "Ġthous": 2315,
      "Ġflow": 2316,
      "Ġclinical": 2317,
      "Ġexist": 2318,
      "Ġdi": 2319,
      "Ġfirm": 2320,
      "Ġrepublic": 2321,
      "Ġbre": 2322,
      "Ġfeat": 2323,
      "Ġcapac": 2324,
      "Ġrelations": 2325,
      "time": 2326,
      "Ġpersonal": 2327,
      "Ġaway": 2328,
      "Ġhom": 2329,
      "Ġespecially": 2330,
      "Ġship": 2331,
      "Ġpus": 2332,
      "Ġred": 2333,
      "Ġconsider": 2334,
      "Ġindex": 2335,
      "Ġtele": 2336,
      "bc": 2337,
      "Ġcell": 2338,
      "Ġpet": 2339,
      "Ġsunday": 2340,
      "25": 2341,
      "Ġ26": 2342,
      "Ġclosed": 2343,
      "ades": 2344,
      "Ġful": 2345,
      "Ġaccoun": 2346,
      "Ġord": 2347,
      "Ġhope": 2348,
      "Ġbiggest": 2349,
      "Ġocc": 2350,
      "Ġrestaur": 2351,
      "Ġresources": 2352,
      "Ġnas": 2353,
      "Ġsat": 2354,
      "par": 2355,
      "Ġtook": 2356,
      "Ġshut": 2357,
      "Ġreflect": 2358,
      "Ġacquis": 2359,
      "Ø§ÙĦ": 2360,
      "Ġstreet": 2361,
      "Ġprov": 2362,
      "Ġaugust": 2363,
      "Ġportfol": 2364,
      "Ġtour": 2365,
      "ides": 2366,
      "ume": 2367,
      "Ġneeded": 2368,
      "Ġprevent": 2369,
      "Ġconnect": 2370,
      "ument": 2371,
      "Ġwebs": 2372,
      "ugg": 2373,
      "Ġauthorities": 2374,
      "Ġspace": 2375,
      "Ġresearc": 2376,
      "Ġ29": 2377,
      "Ġheld": 2378,
      "16": 2379,
      "ras": 2380,
      "Ġbenefits": 2381,
      "Ġagency": 2382,
      "Ġmicro": 2383,
      "www": 2384,
      "ont": 2385,
      "Ġcit": 2386,
      "Ġprovides": 2387,
      "Ġcame": 2388,
      "cov": 2389,
      "Ġexperts": 2390,
      "Ġbook": 2391,
      "Ġvent": 2392,
      "af": 2393,
      "Ġsecurities": 2394,
      "Ġschools": 2395,
      "Ġasia": 2396,
      "holders": 2397,
      "chie": 2398,
      "Ġtaken": 2399,
      "uge": 2400,
      "val": 2401,
      "imately": 2402,
      "Ġname": 2403,
      "Ġreser": 2404,
      "ĠØ": 2405,
      "Ġsars": 2406,
      "though": 2407,
      "book": 2408,
      "Ġabove": 2409,
      "Ġconcerns": 2410,
      "Ġexch": 2411,
      "Ġrob": 2412,
      "Ġphys": 2413,
      "Ġnumbers": 2414,
      "do": 2415,
      "Ġaud": 2416,
      "abilities": 2417,
      "Ġvariant": 2418,
      "Ġ%": 2419,
      "Ġver": 2420,
      "akers": 2421,
      "Ġenc": 2422,
      "Ġcontinued": 2423,
      "Ġai": 2424,
      "Ġforeign": 2425,
      "12": 2426,
      "org": 2427,
      "Ġequip": 2428,
      "oud": 2429,
      "Ġnote": 2430,
      "ern": 2431,
      "Ġparty": 2432,
      "Ġsustain": 2433,
      "Ġcapacity": 2434,
      "Ġbanks": 2435,
      "mission": 2436,
      "Ġgoogle": 2437,
      "Ġopportunities": 2438,
      "Ġfamil": 2439,
      "Ġnormal": 2440,
      "Ġsoft": 2441,
      "Ġaustralia": 2442,
      "Ġconference": 2443,
      "Ġapproach": 2444,
      "Ġmodel": 2445,
      "Ġrole": 2446,
      "Ġleft": 2447,
      "Ġprem": 2448,
      "Ã³": 2449,
      "Ġsevere": 2450,
      "Ġreceived": 2451,
      "lines": 2452,
      "Ġdoc": 2453,
      "Ġoutside": 2454,
      "Ġsoon": 2455,
      "Ġren": 2456,
      "Ġartic": 2457,
      "ude": 2458,
      "Ġalthough": 2459,
      "aper": 2460,
      "Ġrecomm": 2461,
      "Ġknown": 2462,
      "Ġenough": 2463,
      "employ": 2464,
      "Ġjohnson": 2465,
      "Ġsituation": 2466,
      "Ã¡": 2467,
      "Ġnove": 2468,
      "Ġachie": 2469,
      "Ġrapid": 2470,
      "Ġhot": 2471,
      "Ġmess": 2472,
      "Ġincluded": 2473,
      "Ġstarted": 2474,
      "Ġintegr": 2475,
      "Ġeffective": 2476,
      "Ġfell": 2477,
      "Ġconsumers": 2478,
      "Ġnetwork": 2479,
      "Ġquickly": 2480,
      "here": 2481,
      "medi": 2482,
      "idents": 2483,
      "rs": 2484,
      "Ġfear": 2485,
      "Ùħ": 2486,
      "Ġsource": 2487,
      "icip": 2488,
      "Ġbelow": 2489,
      "Ġadvis": 2490,
      "force": 2491,
      "Ġafrica": 2492,
      "Ġappear": 2493,
      "Ġ2018": 2494,
      "Ġelection": 2495,
      "Ġmiss": 2496,
      "Ġexpens": 2497,
      "Ġreach": 2498,
      "Ġviol": 2499,
      "Ġpers": 2500,
      "Ġcritical": 2501,
      "Ġnovember": 2502,
      "Ġvaccination": 2503,
      "Ġarg": 2504,
      "Ġcommission": 2505,
      "Ġtests": 2506,
      "sw": 2507,
      "Ġschol": 2508,
      "Ġdeep": 2509,
      "Ġprovided": 2510,
      "Ġeducation": 2511,
      "Ġincludes": 2512,
      "Ġcreate": 2513,
      "Ġsure": 2514,
      "Ġlog": 2515,
      "Ġkind": 2516,
      "Ġdivid": 2517,
      "Ġspending": 2518,
      "Ġofficer": 2519,
      "Ġtechnolog": 2520,
      "Ġbegan": 2521,
      "Ġcanada": 2522,
      "Ġamaz": 2523,
      "Ġfun": 2524,
      "ÃŃ": 2525,
      "isions": 2526,
      "Ġoct": 2527,
      "Ġbreak": 2528,
      "Ġattr": 2529,
      "lex": 2530,
      "Ġfinance": 2531,
      "Ġremains": 2532,
      "Ġdone": 2533,
      "ibution": 2534,
      "Ġassess": 2535,
      "Ġcolle": 2536,
      "Ġmaint": 2537,
      "Ġbit": 2538,
      "Ġrequest": 2539,
      "Ġsurvey": 2540,
      "Ġcho": 2541,
      "off": 2542,
      "Ġcalif": 2543,
      "15": 2544,
      "Ġexperienc": 2545,
      "Ġmoment": 2546,
      "Ġhistor": 2547,
      "ij": 2548,
      "Ġtrust": 2549,
      "iation": 2550,
      "Ġwa": 2551,
      "Ġregard": 2552,
      "Ġpropert": 2553,
      "Ġcourse": 2554,
      "Ġfiscal": 2555,
      "Ġfast": 2556,
      "Ġcorporate": 2557,
      "Ġcommerc": 2558,
      "ellig": 2559,
      "atives": 2560,
      "Ġopt": 2561,
      "Ġbasis": 2562,
      "Ġmanufacturing": 2563,
      "Ġtrial": 2564,
      "Ġinflation": 2565,
      "Ġlonger": 2566,
      "Ġfight": 2567,
      "Ġremote": 2568,
      "ither": 2569,
      "aps": 2570,
      "Ġeffic": 2571,
      "Ġtransport": 2572,
      "Ġcommunic": 2573,
      "Ġactivity": 2574,
      "Ġsegment": 2575,
      "rastr": 2576,
      "Ġissue": 2577,
      "Ġvers": 2578,
      "Ġasked": 2579,
      "Ġmargin": 2580,
      "Ġimplement": 2581,
      "Ġ60": 2582,
      "Ġparticularly": 2583,
      "Ġexpand": 2584,
      "Ġinfrastr": 2585,
      "Ġessential": 2586,
      "set": 2587,
      "Ġways": 2588,
      "Ġunl": 2589,
      "Ġguidance": 2590,
      "Ġseries": 2591,
      "ceed": 2592,
      "Ġimmun": 2593,
      "Ġoverall": 2594,
      "Ġmanag": 2595,
      "Ġfinal": 2596,
      "epend": 2597,
      "Ġyoung": 2598,
      "Ġnecess": 2599,
      "Ġreceive": 2600,
      "Ġhost": 2601,
      "ogn": 2602,
      "Ġlearning": 2603,
      "Ġwind": 2604,
      "Ġevid": 2605,
      "Ġintellig": 2606,
      "selves": 2607,
      "Ġeveryone": 2608,
      "lying": 2609,
      "Ġlost": 2610,
      "ape": 2611,
      "ĠâĢĿ.": 2612,
      "Ġmob": 2613,
      "Ġ199": 2614,
      "Ġactivities": 2615,
      "iple": 2616,
      "Ġgroups": 2617,
      "Ġsaying": 2618,
      "Ġportfolio": 2619,
      "Ġalways": 2620,
      "Ġexchange": 2621,
      "Ġdisrup": 2622,
      "Ġpharm": 2623,
      "Ġplayers": 2624,
      "Ġresearchers": 2625,
      "Ġwebsite": 2626,
      "Ġut": 2627,
      "Ġantib": 2628,
      "Ġtrends": 2629,
      "han": 2630,
      "Ġshowed": 2631,
      "Ġtherap": 2632,
      "Ġhighest": 2633,
      "Ġdistancing": 2634,
      "Ġenter": 2635,
      "Ġinfrastructure": 2636,
      "Ġrat": 2637,
      "Ġcommercial": 2638,
      "Ġtur": 2639,
      "Ġacce": 2640,
      "Ġprogress": 2641,
      "Ġwashing": 2642,
      "Ġshows": 2643,
      "Ġreduce": 2644,
      "irc": 2645,
      "Ġinvestig": 2646,
      "Ġunemploy": 2647,
      "Ġreason": 2648,
      "ograp": 2649,
      "Ġchair": 2650,
      "tech": 2651,
      "Ġrules": 2652,
      "Ġ|": 2653,
      "pm": 2654,
      "Ġsuff": 2655,
      "40": 2656,
      "Ġcourt": 2657,
      "den": 2658,
      "Ġconfirmed": 2659,
      "rist": 2660,
      "vered": 2661,
      "Ġrange": 2662,
      "Ġfunding": 2663,
      "izer": 2664,
      "Ġsaw": 2665,
      "Ġprime": 2666,
      "Ġsusp": 2667,
      "88": 2668,
      "Ġwater": 2669,
      "Ġbat": 2670,
      "ams": 2671,
      "Ġfri": 2672,
      "Ġdoct": 2673,
      "Ġtrying": 2674,
      "Ġmakes": 2675,
      "Ġiniti": 2676,
      "Ġcommunities": 2677,
      "Ġrecogn": 2678,
      "Ġacceler": 2679,
      "Ġaim": 2680,
      "ring": 2681,
      "Ġgovernments": 2682,
      "Ġcomplete": 2683,
      "Ġstar": 2684,
      "Ġcance": 2685,
      "Ġamount": 2686,
      "mer": 2687,
      "27": 2688,
      "Ġgreen": 2689,
      "igr": 2690,
      "Ġcaliforn": 2691,
      "Ġrising": 2692,
      "Ġnegative": 2693,
      "Ġequipment": 2694,
      "Ġscholar": 2695,
      "ald": 2696,
      "Ġvaccinated": 2697,
      "Ġagreement": 2698,
      "Ġsingle": 2699,
      "Ã§": 2700,
      "uters": 2701,
      "la": 2702,
      "Ġfrance": 2703,
      "Ġtype": 2704,
      "ters": 2705,
      "Ġstrugg": 2706,
      "Ġavoid": 2707,
      "ĠØ§ÙĦ": 2708,
      "reme": 2709,
      "Ġstores": 2710,
      "Ġopportunity": 2711,
      "ico": 2712,
      "dr": 2713,
      "rote": 2714,
      "Ġbond": 2715,
      "Ġroll": 2716,
      "Ġsold": 2717,
      "Ġestimates": 2718,
      "Ġrather": 2719,
      "anced": 2720,
      "11": 2721,
      "Ġextr": 2722,
      "Ġll": 2723,
      "Ġage": 2724,
      "Ġkill": 2725,
      "micron": 2726,
      "Ġmand": 2727,
      "izing": 2728,
      "ober": 2729,
      "Ġdam": 2730,
      "olid": 2731,
      "Ġsubscrib": 2732,
      "Ġarea": 2733,
      "Ġomicron": 2734,
      "Ġdidn": 2735,
      "ane": 2736,
      "Ġdecre": 2737,
      "jo": 2738,
      "Ġgl": 2739,
      "Ġloans": 2740,
      "Ġofficial": 2741,
      "urance": 2742,
      "ado": 2743,
      "going": 2744,
      "Ġthousands": 2745,
      "ga": 2746,
      "Ġconstr": 2747,
      "Ġje": 2748,
      "Ġcalifornia": 2749,
      "verse": 2750,
      "aker": 2751,
      "Ġindepend": 2752,
      "Ġassist": 2753,
      "Ġnatural": 2754,
      "Ġinvestments": 2755,
      "iety": 2756,
      "use": 2757,
      "ead": 2758,
      "Ġbuilding": 2759,
      "Ġer": 2760,
      "Ġstudies": 2761,
      "Ġland": 2762,
      "Ġself": 2763,
      "Ġoctober": 2764,
      "Ġtell": 2765,
      "ently": 2766,
      "uing": 2767,
      "Ġprob": 2768,
      "yn": 2769,
      "Ġdoesn": 2770,
      "Ġmask": 2771,
      "Ġcand": 2772,
      "Ġwrote": 2773,
      "Ġcirc": 2774,
      "Ġaffect": 2775,
      "Ġvirtual": 2776,
      "pe": 2777,
      "Ġcnn": 2778,
      "ios": 2779,
      "Ġden": 2780,
      "Ġhospitals": 2781,
      "Ġlosses": 2782,
      "Ġhistory": 2783,
      "Ġfront": 2784,
      "Ġdeterm": 2785,
      "Ġpreviously": 2786,
      "lish": 2787,
      "Ġevidence": 2788,
      "Ġny": 2789,
      "Ġvict": 2790,
      "Ġquarant": 2791,
      "26": 2792,
      "che": 2793,
      "ises": 2794,
      "Ġphase": 2795,
      "Ġrac": 2796,
      "Ġexpress": 2797,
      "pos": 2798,
      "Ġconduct": 2799,
      "Ġcloud": 2800,
      "crip": 2801,
      "Ġgm": 2802,
      "reng": 2803,
      "Ġassociated": 2804,
      "Ġwide": 2805,
      "Ġinstead": 2806,
      "Ġthing": 2807,
      "Ġbey": 2808,
      "pa": 2809,
      "kn": 2810,
      "Ġebit": 2811,
      "Ġtwitter": 2812,
      "Ġbehind": 2813,
      "18": 2814,
      "sec": 2815,
      "Ġleader": 2816,
      "Ġentire": 2817,
      "Ġexpectations": 2818,
      "Ġmit": 2819,
      "Ġorganizations": 2820,
      "abor": 2821,
      "Ġannounce": 2822,
      "Ġside": 2823,
      "aster": 2824,
      "Ġfully": 2825,
      "17": 2826,
      "Ġinfected": 2827,
      "Ġcaused": 2828,
      "Ġstreng": 2829,
      "Ġpressure": 2830,
      "Ġfair": 2831,
      "berg": 2832,
      "Ġaid": 2833,
      "Ġpopular": 2834,
      "Ġquestions": 2835,
      "Ġrussia": 2836,
      "Ġbrand": 2837,
      "Ġpolicies": 2838,
      "Ġinflu": 2839,
      "Ġacquisition": 2840,
      "Ġproblem": 2841,
      "Ġunemployment": 2842,
      "ires": 2843,
      "Ġconsolid": 2844,
      "ison": 2845,
      "Ġpros": 2846,
      "24": 2847,
      "ÙĨ": 2848,
      "cil": 2849,
      "Ġimmedi": 2850,
      "Ġbeyond": 2851,
      "Ġunion": 2852,
      "Ġlack": 2853,
      "ession": 2854,
      "Ġ#": 2855,
      "Ġcontain": 2856,
      "Ġcities": 2857,
      "istics": 2858,
      "Ġquality": 2859,
      "Ġanalysts": 2860,
      "back": 2861,
      "ming": 2862,
      "market": 2863,
      "Ġsurge": 2864,
      "Ġfourth": 2865,
      "ging": 2866,
      "Ġteams": 2867,
      "Ġmorning": 2868,
      "Ġscience": 2869,
      "ondon": 2870,
      "Ġconst": 2871,
      "Ġfoot": 2872,
      "Ġcontinues": 2873,
      "Ġcheck": 2874,
      "dle": 2875,
      "Ġanti": 2876,
      "Ġintelligence": 2877,
      "pre": 2878,
      "Ġben": 2879,
      "Ġoffering": 2880,
      "Ġeuro": 2881,
      "Ġrevenues": 2882,
      "ibuted": 2883,
      "ott": 2884,
      "Ġcitiz": 2885,
      "roll": 2886,
      "Ġreb": 2887,
      "oks": 2888,
      "ÙĪ": 2889,
      "Ġloan": 2890,
      "Ġeffects": 2891,
      "mb": 2892,
      "Ġprotection": 2893,
      "Ġwashington": 2894,
      "43": 2895,
      "....": 2896,
      "Ġbenefit": 2897,
      "Ġsuccessful": 2898,
      "Ġsite": 2899,
      "Ġsoftware": 2900,
      "13": 2901,
      "umb": 2902,
      "Ġmillions": 2903,
      "fer": 2904,
      "Ġdelivery": 2905,
      "Ġadop": 2906,
      "Ġmark": 2907,
      "Ġpayments": 2908,
      "Ġobs": 2909,
      "Ġwall": 2910,
      "ĠĠĠĠĠĠĠĠ": 2911,
      "over": 2912,
      "Ġrelative": 2913,
      "Ġfa": 2914,
      "Ġsecret": 2915,
      "ob": 2916,
      "Ġfel": 2917,
      "Ġdescrib": 2918,
      "Ġdomest": 2919,
      "Ġcult": 2920,
      "Ġsmart": 2921,
      "Ġreleased": 2922,
      "Ġpick": 2923,
      "Ġâ": 2924,
      "Ġvia": 2925,
      "sequ": 2926,
      "related": 2927,
      "iment": 2928,
      "Ġoutlook": 2929,
      "Ġserious": 2930,
      "ark": 2931,
      "ĠâĢ¢": 2932,
      "Ġarticle": 2933,
      "Ġlight": 2934,
      "vert": 2935,
      "Ġfacebook": 2936,
      "Ġten": 2937,
      "utes": 2938,
      "Ġstore": 2939,
      "Ġgermany": 2940,
      "Ġcandid": 2941,
      "Ã£": 2942,
      "Ġindividuals": 2943,
      "Ġusers": 2944,
      "Ġencour": 2945,
      "Ġsize": 2946,
      "70": 2947,
      "Ġresidents": 2948,
      "Ġmen": 2949,
      "Ġanticip": 2950,
      "Ġtechnologies": 2951,
      "Ġabs": 2952,
      "Ġoptim": 2953,
      "Ġlib": 2954,
      "Ġcause": 2955,
      "Ġbud": 2956,
      "Ġbrands": 2957,
      "Ġproviding": 2958,
      "Ġchrist": 2959,
      "Ġfamilies": 2960,
      "Ġfav": 2961,
      "Ġexisting": 2962,
      "Ġbase": 2963,
      "Ġdoses": 2964,
      "Ġterr": 2965,
      "Ġlondon": 2966,
      "Ġupdate": 2967,
      "Ġhous": 2968,
      "Ġexpenses": 2969,
      "quid": 2970,
      "Ġcommitte": 2971,
      "Ġphotos": 2972,
      "Ġmultiple": 2973,
      "rec": 2974,
      "Ġmot": 2975,
      "Ġroad": 2976,
      "Ġprojects": 2977,
      "ips": 2978,
      "Ġpath": 2979,
      "Ġmis": 2980,
      "Ġvehic": 2981,
      "Ġcou": 2982,
      "Ġamazon": 2983,
      "Ã£o": 2984,
      "80": 2985,
      "Ġairlines": 2986,
      "Ġscre": 2987,
      "daq": 2988,
      "ma": 2989,
      "Ġbur": 2990,
      "Ġexter": 2991,
      "Ġmeasure": 2992,
      "Ġlearn": 2993,
      "14": 2994,
      "Ġdia": 2995,
      "Ġstim": 2996,
      "Ġdecline": 2997,
      "ls": 2998,
      "ored": 2999,
      "Ġnight": 3000,
      "Ġdiv": 3001,
      "Ġactually": 3002,
      "issions": 3003,
      "Ġlimit": 3004,
      "wor": 3005,
      "Ġselect": 3006,
      "Ġ36": 3007,
      "Ġpatient": 3008,
      "Ġhighl": 3009,
      "Ġnasdaq": 3010,
      "wa": 3011,
      "Ġvarious": 3012,
      "Ġgreater": 3013,
      "come": 3014,
      "ached": 3015,
      "Ġmort": 3016,
      "Ġliving": 3017,
      "xy": 3018,
      "empt": 3019,
      "Ġ2017": 3020,
      "Ġisn": 3021,
      "aced": 3022,
      "Ġpf": 3023,
      "ague": 3024,
      "Ġadding": 3025,
      "Ġps": 3026,
      "ĠâĢĿ,": 3027,
      "Ġdrive": 3028,
      "Ġsubject": 3029,
      "hol": 3030,
      "Ġwent": 3031,
      "Ġspok": 3032,
      "Ġwrit": 3033,
      "Ġdollar": 3034,
      "Ġcover": 3035,
      "po": 3036,
      "rain": 3037,
      "Ġdomestic": 3038,
      "iring": 3039,
      "Ġapprox": 3040,
      "ties": 3041,
      "Ġasset": 3042,
      "istic": 3043,
      "Ġ,": 3044,
      "Ġsummer": 3045,
      "Ġec": 3046,
      "Ġthemselves": 3047,
      "Ġkore": 3048,
      "Ġblock": 3049,
      "ction": 3050,
      "Ġvul": 3051,
      "Ġpolit": 3052,
      "Ġmatter": 3053,
      "Ġresponsible": 3054,
      "23": 3055,
      "Ġexternal": 3056,
      "Ġtransform": 3057,
      "Ġbad": 3058,
      "Ġgame": 3059,
      "Ġyield": 3060,
      "Ġstimul": 3061,
      "Ġestab": 3062,
      "Ġeverything": 3063,
      "Ġseven": 3064,
      "Ġund": 3065,
      "Ġdeveloped": 3066,
      "Ġallowed": 3067,
      "rency": 3068,
      "Ġphil": 3069,
      "Ø§Ø": 3070,
      "ama": 3071,
      "Ġcongress": 3072,
      "ida": 3073,
      "Ġcommittee": 3074,
      "ky": 3075,
      "isation": 3076,
      "Ġintro": 3077,
      "Ġfigure": 3078,
      "Ġvulner": 3079,
      "ban": 3080,
      "Ġsn": 3081,
      "imin": 3082,
      "aries": 3083,
      "Ġforce": 3084,
      "Ġengland": 3085,
      "ables": 3086,
      "Ġtempor": 3087,
      "oss": 3088,
      "fect": 3089,
      "Ġeither": 3090,
      "Ġconvers": 3091,
      "Ġepid": 3092,
      "duction": 3093,
      "Ġbecom": 3094,
      "ĠÂ©": 3095,
      "Ġsil": 3096,
      "Ġpan": 3097,
      "enge": 3098,
      "Ġgames": 3099,
      "Ġseeing": 3100,
      "Ġaffected": 3101,
      "ique": 3102,
      "ification": 3103,
      "Ġmember": 3104,
      "Ġongoing": 3105,
      "ented": 3106,
      "Ġ35": 3107,
      "Ġlegal": 3108,
      "Ġ80": 3109,
      "Ġcollabor": 3110,
      "Ġ.": 3111,
      "fort": 3112,
      "Ġdemon": 3113,
      "Ġindustries": 3114,
      "75": 3115,
      "put": 3116,
      "ĠÂ£": 3117,
      "ero": 3118,
      "Ġreuters": 3119,
      "Ġnurs": 3120,
      "Ġrace": 3121,
      "Ġbalance": 3122,
      "ony": 3123,
      "Ġsche": 3124,
      "clus": 3125,
      "ried": 3126,
      "Ġhong": 3127,
      "Ġregulatory": 3128,
      "Ġsyn": 3129,
      "Ġapproximately": 3130,
      "person": 3131,
      "Ġtex": 3132,
      "reg": 3133,
      "Ġspecific": 3134,
      "Ġclean": 3135,
      "osure": 3136,
      "Ġmonitor": 3137,
      "Ġindustr": 3138,
      "Ġliquid": 3139,
      "while": 3140,
      "Ġkong": 3141,
      "29": 3142,
      "âĢ¦": 3143,
      "load": 3144,
      "Ġproblems": 3145,
      "au": 3146,
      "Ġstory": 3147,
      "Ġinvestor": 3148,
      "35": 3149,
      "dc": 3150,
      "Ġpen": 3151,
      "Ġcore": 3152,
      "Ġmiddle": 3153,
      "Ġdemonstr": 3154,
      "Ġcharg": 3155,
      "Ġhuge": 3156,
      "Ġcaption": 3157,
      "Ġtradition": 3158,
      "Ġpaid": 3159,
      "Ġfocused": 3160,
      "ids": 3161,
      "Ġ70": 3162,
      "Ġcoverage": 3163,
      "Ġchallenge": 3164,
      "Ġdistribution": 3165,
      "Ġpfizer": 3166,
      "istry": 3167,
      "Ġinsights": 3168,
      "Ġmag": 3169,
      "asts": 3170,
      "Ġtransmission": 3171,
      "Ġebitda": 3172,
      "Ġsense": 3173,
      "Ġidea": 3174,
      "Ġnor": 3175,
      "ha": 3176,
      "hod": 3177,
      "Ġexcept": 3178,
      "yr": 3179,
      "Ġprograms": 3180,
      "Ġhomes": 3181,
      "ijing": 3182,
      "Ġcompar": 3183,
      "Ġgain": 3184,
      "Ġflu": 3185,
      "mp": 3186,
      "Ġcitizens": 3187,
      "Ġweb": 3188,
      "Ġ'',": 3189,
      "Ġmac": 3190,
      "Ġpercentage": 3191,
      "Ġestimated": 3192,
      "Ġdiagn": 3193,
      "Ġsens": 3194,
      "Ġissued": 3195,
      "cul": 3196,
      "amb": 3197,
      "Ġclaims": 3198,
      "Ġmal": 3199,
      "Ġmich": 3200,
      "ature": 3201,
      "Ġflo": 3202,
      "hips": 3203,
      "Ġwear": 3204,
      "Ġvice": 3205,
      "where": 3206,
      "44": 3207,
      "aks": 3208,
      "Ġworth": 3209,
      "Ġinstitute": 3210,
      "Ġprofessor": 3211,
      "ply": 3212,
      "hens": 3213,
      "Ġcross": 3214,
      "ament": 3215,
      "Ġtry": 3216,
      "key": 3217,
      "ches": 3218,
      "Ġhide": 3219,
      "leg": 3220,
      "ee": 3221,
      "Ġdead": 3222,
      "Ġscop": 3223,
      "Ġengine": 3224,
      "22": 3225,
      "lies": 3226,
      "Ġsepar": 3227,
      "Ġfacilities": 3228,
      "Ġproperty": 3229,
      "Ġmoving": 3230,
      "Ġnoted": 3231,
      "Ġexplo": 3232,
      "lied": 3233,
      "Ġinsurance": 3234,
      "Ġbehav": 3235,
      "Ġfirms": 3236,
      "Ġdocument": 3237,
      "aud": 3238,
      "Ġmajority": 3239,
      "Ġmanufacture": 3240,
      "Ġtrend": 3241,
      "Ġsites": 3242,
      "Ġbritish": 3243,
      "Ġment": 3244,
      "Ġwhole": 3245,
      "idence": 3246,
      "odies": 3247,
      "Ġspokes": 3248,
      "hood": 3249,
      "Ġbeijing": 3250,
      "Ġappe": 3251,
      "Ġreduced": 3252,
      "Ġapplication": 3253,
      "lin": 3254,
      "Ĥ¬": 3255,
      "Ġeval": 3256,
      "bor": 3257,
      "Ġarch": 3258,
      "Ġregional": 3259,
      "Ġmaterial": 3260,
      "Ġtools": 3261,
      "amm": 3262,
      "amed": 3263,
      "Ġseem": 3264,
      "Ġbraz": 3265,
      "Ġthought": 3266,
      "Ġaccept": 3267,
      "Ġelse": 3268,
      "Ġparts": 3269,
      "Ġ90": 3270,
      "Ġrestaurants": 3271,
      "Ġupdated": 3272,
      "Ġcenters": 3273,
      "Ġjump": 3274,
      "Ġciv": 3275,
      "Ġjohn": 3276,
      "Ġshar": 3277,
      "Ġexpert": 3278,
      "Ġoffers": 3279,
      "================": 3280,
      "Ġconsult": 3281,
      "Ġstarting": 3282,
      "uk": 3283,
      "Ġquarantine": 3284,
      "Ġfuel": 3285,
      "ani": 3286,
      "Ġworks": 3287,
      "Ġsubst": 3288,
      "Ġmc": 3289,
      "agr": 3290,
      "Ġstrategic": 3291,
      "soft": 3292,
      "Ġdecisions": 3293,
      "Ġtender": 3294,
      "Ġindustrial": 3295,
      "actions": 3296,
      "ubs": 3297,
      "Ġsatur": 3298,
      "eration": 3299,
      "Ġediting": 3300,
      "ilt": 3301,
      "Ġtrials": 3302,
      "Ġleave": 3303,
      "Ġdied": 3304,
      "Ġscen": 3305,
      "Ġground": 3306,
      "Ġpain": 3307,
      "place": 3308,
      "Ġprospect": 3309,
      "hel": 3310,
      "Ġtraining": 3311,
      "Ġinitial": 3312,
      "Ġdoub": 3313,
      "Ġmeaning": 3314,
      "rents": 3315,
      "Ġclients": 3316,
      "Ġ2016": 3317,
      "Ġdelay": 3318,
      "hi": 3319,
      "Ġbeginning": 3320,
      "Ġstimulus": 3321,
      "Ġcard": 3322,
      "Ġforced": 3323,
      "Ġassum": 3324,
      "Ġbecame": 3325,
      "Ġthroughout": 3326,
      "Ġrepl": 3327,
      "Ġwave": 3328,
      "Ġeast": 3329,
      "aut": 3330,
      "hs": 3331,
      "Ġwhose": 3332,
      "Ġcat": 3333,
      "Ġdeveloping": 3334,
      "Ġdemocratic": 3335,
      "Ġder": 3336,
      "Ġheart": 3337,
      "Ġworldwide": 3338,
      "Ġprobably": 3339,
      "Ġshift": 3340,
      "prise": 3341,
      "Ġgains": 3342,
      "Ġitaly": 3343,
      "Ġdonald": 3344,
      "Ġshareholders": 3345,
      "Ġorigin": 3346,
      "Ġprinc": 3347,
      "Ġ2012": 3348,
      "Ġsecretary": 3349,
      "rew": 3350,
      "99": 3351,
      "Ġhur": 3352,
      "aft": 3353,
      "imes": 3354,
      "Ġprec": 3355,
      "Ġsignificantly": 3356,
      "Ġoptions": 3357,
      "Ġsaturday": 3358,
      "Ġlt": 3359,
      "60": 3360,
      "Ġrelief": 3361,
      "body": 3362,
      "Ġcanad": 3363,
      "Ġlaunch": 3364,
      "ery": 3365,
      "28": 3366,
      "Ġtexas": 3367,
      "45": 3368,
      "Ġcreated": 3369,
      "mark": 3370,
      "Ġmeanwhile": 3371,
      "ivity": 3372,
      "Ġhelping": 3373,
      "Ġimmune": 3374,
      "acing": 3375,
      "Ġhighly": 3376,
      "Ġsale": 3377,
      "Ġleadership": 3378,
      "bon": 3379,
      "aming": 3380,
      "apt": 3381,
      "elines": 3382,
      "Ġround": 3383,
      "ided": 3384,
      "Ġextra": 3385,
      "Ġelectric": 3386,
      "isl": 3387,
      "Ġreve": 3388,
      "Ġexclud": 3389,
      "Ġafp": 3390,
      "Ġdirectly": 3391,
      "33": 3392,
      "Ġmach": 3393,
      "Ġitems": 3394,
      "Ġrad": 3395,
      "2020": 3396,
      "Ġmilit": 3397,
      "Ġnine": 3398,
      "Ġowners": 3399,
      "news": 3400,
      "Ġconv": 3401,
      "Ġspot": 3402,
      "Ġhelped": 3403,
      "Ġemerging": 3404,
      "mitted": 3405,
      "Ġdetails": 3406,
      "acific": 3407,
      "Ġexpects": 3408,
      "Ġchann": 3409,
      "Ġplant": 3410,
      "Ġnotes": 3411,
      "ensive": 3412,
      "Ġregarding": 3413,
      "Ġbrazil": 3414,
      "rehens": 3415,
      "Ġdest": 3416,
      "Ġjud": 3417,
      "ford": 3418,
      "Ġpurp": 3419,
      "Ġgmt": 3420,
      "equ": 3421,
      "Ġsociety": 3422,
      "Ġmethod": 3423,
      "Ġpaper": 3424,
      "Ġorders": 3425,
      "Ġansw": 3426,
      "Ġpasseng": 3427,
      "Ġconsolidated": 3428,
      "ese": 3429,
      "Ġsuper": 3430,
      "used": 3431,
      "Ġvs": 3432,
      "Ġnyse": 3433,
      "makers": 3434,
      "Ġwel": 3435,
      "Ġmex": 3436,
      "Ġindependent": 3437,
      "Ġbody": 3438,
      "Ġfacility": 3439,
      "Ġcritic": 3440,
      "vant": 3441,
      "Ġscale": 3442,
      "Ġassociation": 3443,
      "Ġrunning": 3444,
      "net": 3445,
      "ills": 3446,
      "Ġbrief": 3447,
      "Ġjoe": 3448,
      "Ġpotentially": 3449,
      "Ġsick": 3450,
      "Ġvote": 3451,
      "Ġexerc": 3452,
      "rench": 3453,
      "duced": 3454,
      "bn": 3455,
      "Ġsurv": 3456,
      "Ġsources": 3457,
      "eline": 3458,
      "Ġopin": 3459,
      "lig": 3460,
      "inks": 3461,
      "Ġmarketing": 3462,
      "Ġpartner": 3463,
      "asons": 3464,
      "Ġnations": 3465,
      "Ġnovel": 3466,
      "Ġnav": 3467,
      "Ġdiscl": 3468,
      "rought": 3469,
      "ension": 3470,
      "Ġachieve": 3471,
      "Ġdiseases": 3472,
      "Ġnecessary": 3473,
      "Ġattack": 3474,
      "Ġnature": 3475,
      "Ġgather": 3476,
      "Ġinstr": 3477,
      "hib": 3478,
      "illing": 3479,
      "Ġblood": 3480,
      "Ø±": 3481,
      "ancy": 3482,
      "Ġconsist": 3483,
      "Ġrespir": 3484,
      "Ġphysical": 3485,
      "Ġstage": 3486,
      "Ġcomprehens": 3487,
      "Ġregular": 3488,
      "Ġcompetitive": 3489,
      "Ġeasy": 3490,
      "Ġchairman": 3491,
      "Ġpict": 3492,
      "Ġworked": 3493,
      "Ġpositions": 3494,
      "Ġminim": 3495,
      "rences": 3496,
      "Ġplanning": 3497,
      "Ġdie": 3498,
      "Ġga": 3499,
      "Ġinternet": 3500,
      "Ġlegisl": 3501,
      "idered": 3502,
      "Ġgoods": 3503,
      "Ġey": 3504,
      "Ġparents": 3505,
      "Ġdesigned": 3506,
      "Ġcivil": 3507,
      "Ġfda": 3508,
      "Ġadvice": 3509,
      "iff": 3510,
      "undred": 3511,
      "Ġconsidered": 3512,
      "hy": 3513,
      "Ġexpense": 3514,
      "Ġscientists": 3515,
      "Ġwarned": 3516,
      "Ġreopen": 3517,
      "Ġuncertainty": 3518,
      "65": 3519,
      "Ġworst": 3520,
      "Ġevol": 3521,
      "Ġcalls": 3522,
      "Ġheav": 3523,
      "Ġsqu": 3524,
      "Ġconcern": 3525,
      "Ġdemocrats": 3526,
      "Ġmicrosoft": 3527,
      "Ġlic": 3528,
      "Ġapple": 3529,
      "Ġic": 3530,
      "Ġisol": 3531,
      "Ġ33": 3532,
      "Ġchance": 3533,
      "Ġ38": 3534,
      "Ġextreme": 3535,
      "Ġhappen": 3536,
      "Ġsex": 3537,
      "Ġministry": 3538,
      "Ġcele": 3539,
      "Ġchanged": 3540,
      "Ġseat": 3541,
      "Ġdriven": 3542,
      "Ġproviders": 3543,
      "Ġhundred": 3544,
      "Ġsomeone": 3545,
      "Ġdavid": 3546,
      "Ġgoal": 3547,
      "Ġsched": 3548,
      "Ġrecorded": 3549,
      "Ġprivacy": 3550,
      "Ġidentify": 3551,
      "Ġenvironmental": 3552,
      "Ġschedul": 3553,
      "cle": 3554,
      "aled": 3555,
      "Ġcorp": 3556,
      "Ġpoll": 3557,
      "Ġfigures": 3558,
      "ek": 3559,
      "Ġconc": 3560,
      "Ġlargely": 3561,
      "Ġpredict": 3562,
      "Ġcomprehensive": 3563,
      "ĠâĤ¬": 3564,
      "Ġcelebr": 3565,
      "Ġking": 3566,
      "Ġlaws": 3567,
      "uit": 3568,
      "Ġhands": 3569,
      "unt": 3570,
      "Ġpurchase": 3571,
      "Ġsports": 3572,
      "Ġitself": 3573,
      "Ġborder": 3574,
      "ges": 3575,
      "ara": 3576,
      "ought": 3577,
      "jected": 3578,
      "ana": 3579,
      "cont": 3580,
      "Ġhousehold": 3581,
      "Ġinnovation": 3582,
      "Ġcateg": 3583,
      "utical": 3584,
      "Ġvo": 3585,
      "Ġprimarily": 3586,
      "Ġele": 3587,
      "Ġspend": 3588,
      "Ġcrude": 3589,
      "Ġplanned": 3590,
      "bed": 3591,
      "ino": 3592,
      "Ġoccur": 3593,
      "Ġ39": 3594,
      "liance": 3595,
      "Ġaccounts": 3596,
      "Ġsolution": 3597,
      "49": 3598,
      "Ġhousing": 3599,
      "Ġfire": 3600,
      "ption": 3601,
      "Ġactions": 3602,
      "Ġprimary": 3603,
      "Ġlockdowns": 3604,
      "Ġstrategies": 3605,
      "Ġtowards": 3606,
      "Ġtro": 3607,
      "Ġnort": 3608,
      "Ġukrain": 3609,
      "Ġreserve": 3610,
      "Ġwindow": 3611,
      "Ġ55": 3612,
      "Ġcounty": 3613,
      "ball": 3614,
      "Ġkorea": 3615,
      "Ġdose": 3616,
      "Ġ45": 3617,
      "aceutical": 3618,
      "Ġinfectious": 3619,
      "Ġstandard": 3620,
      "Ġlaunched": 3621,
      "Ġcdc": 3622,
      "Ġenh": 3623,
      "iant": 3624,
      "Ġarm": 3625,
      "Ġraised": 3626,
      "Ġcook": 3627,
      "Ġsubsid": 3628,
      "Ġidentified": 3629,
      "ledge": 3630,
      "Ġspeed": 3631,
      "Ġrequirements": 3632,
      "uments": 3633,
      "Ġdelta": 3634,
      "Ġreopening": 3635,
      "Ġtreas": 3636,
      "yal": 3637,
      "Ġjoin": 3638,
      "encies": 3639,
      "Ġii": 3640,
      "Ġrecommend": 3641,
      "ze": 3642,
      "ounder": 3643,
      "cape": 3644,
      "Ġparticipants": 3645,
      "Ġfrench": 3646,
      "istered": 3647,
      "Ã³n": 3648,
      "Ġscenar": 3649,
      "ox": 3650,
      "Ġfit": 3651,
      "Ġmodels": 3652,
      "Ġlove": 3653,
      "Ġapproved": 3654,
      "Ġdetect": 3655,
      "Ġrecover": 3656,
      "Ġviolence": 3657,
      "Ġfield": 3658,
      "Ġprote": 3659,
      "46": 3660,
      "Ġactual": 3661,
      "Ġaltern": 3662,
      "Ġcru": 3663,
      "Ġbritain": 3664,
      "Ġmanager": 3665,
      "Ġreached": 3666,
      "Ġneigh": 3667,
      "Ġconstruction": 3668,
      "Ġstress": 3669,
      "acter": 3670,
      "Ġcomplex": 3671,
      "Ġgenerally": 3672,
      "Ġscr": 3673,
      "Ġgrad": 3674,
      "Ġvolume": 3675,
      "Ġeditor": 3676,
      "Ġvulnerable": 3677,
      "wise": 3678,
      "Ġange": 3679,
      "Ġemp": 3680,
      "Ġanything": 3681,
      "Ġaward": 3682,
      "Ġbrought": 3683,
      "Ġweak": 3684,
      "Ġphone": 3685,
      "Ġconsid": 3686,
      "Ġdip": 3687,
      "Ġdeploy": 3688,
      "Ġsectors": 3689,
      "arch": 3690,
      "icians": 3691,
      "Ġunpre": 3692,
      "Ġplaces": 3693,
      "Ġmobile": 3694,
      "quar": 3695,
      "Ġ75": 3696,
      "Ġapproval": 3697,
      "Ġpayment": 3698,
      "Ġsteps": 3699,
      "Ġdisco": 3700,
      "Ġestimate": 3701,
      "Ġbott": 3702,
      "perform": 3703,
      "Ġmission": 3704,
      "Ġask": 3705,
      "ences": 3706,
      "Ġafrican": 3707,
      "month": 3708,
      "Ġunlike": 3709,
      "Ġleague": 3710,
      "Ġfeatures": 3711,
      "Ġanim": 3712,
      "Ġdow": 3713,
      "Ġmax": 3714,
      ".)": 3715,
      "Ġprotests": 3716,
      "home": 3717,
      "Ġlinked": 3718,
      "Ġtemper": 3719,
      "ological": 3720,
      "Ġmedicine": 3721,
      "Ġprincip": 3722,
      "uff": 3723,
      "77": 3724,
      "Ġran": 3725,
      "Ġamb": 3726,
      "Ġfoundation": 3727,
      "Ġinvolved": 3728,
      "ux": 3729,
      "Ġflex": 3730,
      "Ġgrant": 3731,
      "Ġillness": 3732,
      "Ġbudget": 3733,
      "Ġmer": 3734,
      "Ġeight": 3735,
      "iants": 3736,
      "Ġrepublican": 3737,
      "covid": 3738,
      "85": 3739,
      "Ġdeclined": 3740,
      "Ġannouncement": 3741,
      "erous": 3742,
      "Ġtrillion": 3743,
      "Ġcorporation": 3744,
      "Ġteac": 3745,
      "Ġbuilt": 3746,
      "Ġtas": 3747,
      "cedented": 3748,
      "Ġmilitary": 3749,
      "95": 3750,
      "fully": 3751,
      "Ġsenate": 3752,
      "Ġmaintain": 3753,
      "cor": 3754,
      "Ġolder": 3755,
      "Ġdividend": 3756,
      "Ġms": 3757,
      "icing": 3758,
      "Ġcancer": 3759,
      "Ġpropos": 3760,
      "Ġcells": 3761,
      "Ġgross": 3762,
      "Ġdefin": 3763,
      "Ġtraditional": 3764,
      "Ġmental": 3765,
      "Ġcu": 3766,
      "oph": 3767,
      "Ġuns": 3768,
      "Ġqual": 3769,
      "Ġinvent": 3770,
      "Ġunprecedented": 3771,
      "36": 3772,
      "Ġweekend": 3773,
      "Ġshot": 3774,
      "Ġadvant": 3775,
      "Ġholding": 3776,
      "Ġmessage": 3777,
      "Ġcrow": 3778,
      "uted": 3779,
      "Ġcondition": 3780,
      "Ġborrow": 3781,
      "Ġtakes": 3782,
      "Ġmigr": 3783,
      "Ġstake": 3784,
      "ife": 3785,
      "alled": 3786,
      "Ġmind": 3787,
      "Ġdoctors": 3788,
      "Ġdescribed": 3789,
      "Ġhon": 3790,
      "200": 3791,
      "Ġtraff": 3792,
      "Ġtalk": 3793,
      "Ġmaterials": 3794,
      "Ġgovernor": 3795,
      "Ġfacing": 3796,
      "lear": 3797,
      "Ġadults": 3798,
      "Ġclick": 3799,
      "Ġtransaction": 3800,
      "Ġairport": 3801,
      "90": 3802,
      "house": 3803,
      "Ġanyone": 3804,
      "Ġtit": 3805,
      "Ġenjo": 3806,
      "Ġactive": 3807,
      "Ġwanted": 3808,
      "Ġoblig": 3809,
      "casts": 3810,
      "Ġwearing": 3811,
      "Ġdecades": 3812,
      "Ġdrugs": 3813,
      "Ġunit": 3814,
      "Ġfavor": 3815,
      "Ġliquidity": 3816,
      "Ġrich": 3817,
      "aven": 3818,
      "Ġmix": 3819,
      "Ġapplications": 3820,
      "Ġcanadian": 3821,
      "Ġresil": 3822,
      "Ġthanks": 3823,
      "Ġready": 3824,
      "Ġholiday": 3825,
      "yl": 3826,
      "Ġpractices": 3827,
      "Ġreasons": 3828,
      "Ġseems": 3829,
      "Ġrough": 3830,
      "ule": 3831,
      "Ġlands": 3832,
      "Ġagre": 3833,
      "Ġstandards": 3834,
      "Ġguidelines": 3835,
      "pon": 3836,
      "Ġcomments": 3837,
      "Ġcouncil": 3838,
      "Ġcentre": 3839,
      "Ġspent": 3840,
      "Ġcopyr": 3841,
      "Ġsustainable": 3842,
      "ael": 3843,
      "Ġlines": 3844,
      "Ġflor": 3845,
      "oti": 3846,
      "Ġyes": 3847,
      "Ġnov": 3848,
      "Ġfriends": 3849,
      "Øª": 3850,
      "Ġsun": 3851,
      "Ġsort": 3852,
      "Ġho": 3853,
      "Ġinvesting": 3854,
      "Ġdollars": 3855,
      "47": 3856,
      "Ġattention": 3857,
      "Ġtalks": 3858,
      "Ġdamage": 3859,
      "fl": 3860,
      "Ġcam": 3861,
      "Ġchains": 3862,
      "ago": 3863,
      "Ġsupplies": 3864,
      "Ġprepared": 3865,
      "Ġltd": 3866,
      "ho": 3867,
      "Ġbull": 3868,
      "Ġfilm": 3869,
      "ĠÃ": 3870,
      "Ġrespiratory": 3871,
      "Ġproceed": 3872,
      "Ġshown": 3873,
      "Ġ65": 3874,
      "Ġsecure": 3875,
      "Ġfiled": 3876,
      "Ġselling": 3877,
      "Ġcopyright": 3878,
      "Ġfollowed": 3879,
      "Ġcalcul": 3880,
      "Ġretailers": 3881,
      "oke": 3882,
      "zer": 3883,
      "bert": 3884,
      "Ġrespectively": 3885,
      "Ġupon": 3886,
      "Ġflights": 3887,
      "Ġpremium": 3888,
      "Ġcomput": 3889,
      "amples": 3890,
      "Ġanalyt": 3891,
      "gaap": 3892,
      "Ġholdings": 3893,
      "Ġstories": 3894,
      "Ġtrue": 3895,
      "Ġprofession": 3896,
      "Ġaustralian": 3897,
      "Ġdiversity": 3898,
      "iat": 3899,
      "Ġtom": 3900,
      "Ġapart": 3901,
      "Ġadvanced": 3902,
      "âĢ¢": 3903,
      "Ġcreating": 3904,
      "cription": 3905,
      "37": 3906,
      "Ġpod": 3907,
      "ador": 3908,
      "Ġjustice": 3909,
      "Ġrecon": 3910,
      "Ġexposure": 3911,
      "Ġpackage": 3912,
      "Ġclim": 3913,
      "Ġpharmaceutical": 3914,
      "ites": 3915,
      "Ġchamp": 3916,
      "Ġoption": 3917,
      "Ġquite": 3918,
      "Ġcontinuing": 3919,
      "Ġsigns": 3920,
      "Ġzo": 3921,
      "Ġtypically": 3922,
      "Ġpush": 3923,
      "face": 3924,
      "Ġdeg": 3925,
      "Ġshared": 3926,
      "Ġforces": 3927,
      "Ġnothing": 3928,
      "Ġroom": 3929,
      "Ġimpacted": 3930,
      "Ġprocesses": 3931,
      "Ġpromot": 3932,
      "iÃ³n": 3933,
      "Ġtransition": 3934,
      "Ġsubscribe": 3935,
      "Ġdil": 3936,
      "Ġtoll": 3937,
      "ibly": 3938,
      "ng": 3939,
      "enec": 3940,
      "omatic": 3941,
      "Ġaren": 3942,
      "Ġacad": 3943,
      "Ġquarterly": 3944,
      "Ġbloom": 3945,
      "Ġattract": 3946,
      "Ġincreases": 3947,
      "Ġdivision": 3948,
      "Ø©": 3949,
      "Ġip": 3950,
      "Ġrenew": 3951,
      "log": 3952,
      "Ġrepe": 3953,
      "Ġkeeping": 3954,
      "Ġmassive": 3955,
      "Ùģ": 3956,
      "lymp": 3957,
      "Ġdang": 3958,
      "Ġconfidence": 3959,
      "Ġfears": 3960,
      "Ġdriving": 3961,
      "ounds": 3962,
      "Ġadvance": 3963,
      "Ġpractice": 3964,
      "Ġdecided": 3965,
      "att": 3966,
      "Ġamoun": 3967,
      "standing": 3968,
      "Ġemissions": 3969,
      "Ġbelieves": 3970,
      "Ġcompetition": 3971,
      "Ġmusic": 3972,
      "Ġdouble": 3973,
      "etary": 3974,
      "Ġ95": 3975,
      "Ġevalu": 3976,
      "Ġbir": 3977,
      "Ġtouch": 3978,
      "Ġstudent": 3979,
      "Ġbanking": 3980,
      "no": 3981,
      "bus": 3982,
      "Ġolymp": 3983,
      "Ġshopping": 3984,
      "Ġtv": 3985,
      "Ġcast": 3986,
      "Ġhor": 3987,
      "Ġgiving": 3988,
      "Ġuser": 3989,
      "Ġcollege": 3990,
      "Ġaccur": 3991,
      "ster": 3992,
      "Ġexclus": 3993,
      "Ġkids": 3994,
      "Ġoffered": 3995,
      "Ġult": 3996,
      "Ġfat": 3997,
      "Ġjoint": 3998,
      "Ġestate": 3999,
      "Ġoriginal": 4000,
      "ivered": 4001,
      "Ġopening": 4002,
      "Ġconducted": 4003,
      "Ġimmediately": 4004,
      "Ġton": 4005,
      "idge": 4006,
      "ston": 4007,
      "Ġspain": 4008,
      "Ġregister": 4009,
      "Ġattacks": 4010,
      "Ġchanging": 4011,
      "Ġunderstanding": 4012,
      "Ġwestern": 4013,
      "05": 4014,
      "Ġadvert": 4015,
      "Ġtext": 4016,
      "Ġfinancing": 4017,
      "Ġcarbon": 4018,
      "Ġinside": 4019,
      "Ġincreasingly": 4020,
      "Ġeconomies": 4021,
      "Ġepidemic": 4022,
      "39": 4023,
      "Ġalone": 4024,
      "Ġtransportation": 4025,
      "Ġratio": 4026,
      "aches": 4027,
      "Ġexpans": 4028,
      "Ġbuying": 4029,
      "Ġreality": 4030,
      "Ġmexico": 4031,
      "Ġmov": 4032,
      "Ġsolid": 4033,
      "Ġclosing": 4034,
      "resh": 4035,
      "Ġobt": 4036,
      "Ġvoters": 4037,
      "Ġcapt": 4038,
      "Ġparis": 4039,
      "ream": 4040,
      "Ġmut": 4041,
      "exp": 4042,
      "Ġreturned": 4043,
      "iver": 4044,
      "Ġwww": 4045,
      "Ġpace": 4046,
      "Ġshowing": 4047,
      "Ġlarger": 4048,
      "Ġdropped": 4049,
      "Ġhundreds": 4050,
      "Ġrein": 4051,
      "Ġfees": 4052,
      "Ġdelivered": 4053,
      "500": 4054,
      "dp": 4055,
      "son": 4056,
      "Ġ2027": 4057,
      "Ġgrand": 4058,
      "Ġthinking": 4059,
      "Ġdifference": 4060,
      "Ġ>": 4061,
      "Ġlooks": 4062,
      "Ġproposed": 4063,
      "Ġraise": 4064,
      "Ġoriginally": 4065,
      "Ġpull": 4066,
      "Ġinstitutions": 4067,
      "Ġworkforce": 4068,
      "Ġattend": 4069,
      "Ġtaxes": 4070,
      "works": 4071,
      "Ġfort": 4072,
      "Ġobject": 4073,
      "Ġeth": 4074,
      "Ġengage": 4075,
      "Ġimpacts": 4076,
      "Ġmovement": 4077,
      "Ġstatus": 4078,
      "67": 4079,
      "Ġfutures": 4080,
      "Ġturned": 4081,
      "omb": 4082,
      "Ġweekly": 4083,
      "Ġalloc": 4084,
      "Ġzero": 4085,
      "Ġcreat": 4086,
      "ropri": 4087,
      "Ġconsidering": 4088,
      "Ġflorida": 4089,
      "Ġunivers": 4090,
      "Ġcry": 4091,
      "Ġventil": 4092,
      "Ġantibodies": 4093,
      "iet": 4094,
      "Ġ=": 4095,
      "Ġunique": 4096,
      "Ġextended": 4097,
      "Ġproduce": 4098,
      "Ġreform": 4099,
      "Ġtown": 4100,
      "igate": 4101,
      "ifying": 4102,
      "osis": 4103,
      "Ġprevention": 4104,
      "Ġdevices": 4105,
      "Ġthank": 4106,
      "Ġcnbc": 4107,
      "34": 4108,
      "Ġdut": 4109,
      "Ġrally": 4110,
      "ronic": 4111,
      "Ġuncertainties": 4112,
      "lor": 4113,
      "astic": 4114,
      "rael": 4115,
      "Ġdecrease": 4116,
      "Ġmichael": 4117,
      "quarter": 4118,
      "Ġvend": 4119,
      "Ġcompon": 4120,
      "Ġguard": 4121,
      "Ġcommitted": 4122,
      "Ġprofessional": 4123,
      "Ġmoved": 4124,
      "Ġrecession": 4125,
      "ags": 4126,
      "Ġfinally": 4127,
      "Ġconserv": 4128,
      "Ġpark": 4129,
      "Ġbecoming": 4130,
      "Ġseek": 4131,
      "Ġdepos": 4132,
      "Ġsett": 4133,
      "Ġexperienced": 4134,
      "Ġsubstant": 4135,
      "apore": 4136,
      "Ġobser": 4137,
      "yle": 4138,
      "Ġlas": 4139,
      "Ġukraine": 4140,
      "bl": 4141,
      "Ġ2015": 4142,
      "Ġversion": 4143,
      "Ġrelatively": 4144,
      "Ġple": 4145,
      "Ġfix": 4146,
      "Ġdrivers": 4147,
      "tered": 4148,
      "Ġisland": 4149,
      "lia": 4150,
      "Ġrelevant": 4151,
      "Ġfelt": 4152,
      "Ġrare": 4153,
      "Ġ32": 4154,
      "Ġ34": 4155,
      "Ġexercise": 4156,
      "Ġtraffic": 4157,
      "ws": 4158,
      "ipp": 4159,
      "lled": 4160,
      "Ġ44": 4161,
      "Ġdecade": 4162,
      "ya": 4163,
      "Ġwat": 4164,
      "Ġdyn": 4165,
      "ously": 4166,
      "Ġson": 4167,
      "Ġregulations": 4168,
      "Ġrapidly": 4169,
      "secut": 4170,
      "Ġscheduled": 4171,
      "Ġprofessionals": 4172,
      "38": 4173,
      "Ġunderlying": 4174,
      "ordin": 4175,
      "letter": 4176,
      "know": 4177,
      "Ġcomplic": 4178,
      "Ġ37": 4179,
      "Ġmaybe": 4180,
      "Ġemployee": 4181,
      "Ġrussian": 4182,
      "Ġculture": 4183,
      "Ġok": 4184,
      "Ġpal": 4185,
      "Ġbreat": 4186,
      "Ġagreed": 4187,
      "Ġleaving": 4188,
      "Ġsmaller": 4189,
      "Ġones": 4190,
      "Ġworse": 4191,
      "Ġgoes": 4192,
      "Ġnegoti": 4193,
      "Ġmur": 4194,
      "Ġexam": 4195,
      "arters": 4196,
      "inations": 4197,
      "Ġpic": 4198,
      "Ġtwe": 4199,
      "Ġcapabilities": 4200,
      "Ġletter": 4201,
      "Ġperspect": 4202,
      "Ġbloomberg": 4203,
      "df": 4204,
      "itch": 4205,
      "Ġroughly": 4206,
      "vent": 4207,
      "vious": 4208,
      "iled": 4209,
      "Ġincl": 4210,
      "Ġaccessed": 4211,
      "Ġmad": 4212,
      "Ġgone": 4213,
      "Ġire": 4214,
      "Ġoffset": 4215,
      "Ġretire": 4216,
      "Ġattempt": 4217,
      ");": 4218,
      "Ġmention": 4219,
      "Ġreduction": 4220,
      "iles": 4221,
      "Ġisrael": 4222,
      "ensus": 4223,
      "Ġseeking": 4224,
      "Ġcyber": 4225,
      "Ġpicture": 4226,
      "Ġshif": 4227,
      "Ġplus": 4228,
      "Ġserve": 4229,
      "Ġconsequ": 4230,
      "Ġconstit": 4231,
      "bur": 4232,
      "gi": 4233,
      "ham": 4234,
      "za": 4235,
      "Ġfaster": 4236,
      "Ġadapt": 4237,
      "Ġhealthy": 4238,
      "Ġcorre": 4239,
      "Ġpara": 4240,
      "66": 4241,
      "Ġsend": 4242,
      "Ġobvious": 4243,
      "Ġrestaurant": 4244,
      "Ġcharges": 4245,
      "urity": 4246,
      "Ġnewsletter": 4247,
      "Ġwu": 4248,
      "Ġparties": 4249,
      "Ġslight": 4250,
      "Ġplatforms": 4251,
      "Ġadvantage": 4252,
      "ĠÐ": 4253,
      "Ġunits": 4254,
      "Ġfeed": 4255,
      "Ġsection": 4256,
      "Ġrebound": 4257,
      "dom": 4258,
      "gu": 4259,
      "Ġminutes": 4260,
      "comes": 4261,
      "Ġviral": 4262,
      "Ġsingapore": 4263,
      "oring": 4264,
      "arant": 4265,
      "Ġcoal": 4266,
      "Ġwords": 4267,
      "iction": 4268,
      "Ġscientific": 4269,
      "Ġles": 4270,
      "Ġpoor": 4271,
      "Ġhotel": 4272,
      "Ġid": 4273,
      "Ġhighlight": 4274,
      "kyo": 4275,
      "Ġanalytics": 4276,
      "pass": 4277,
      "Ġtens": 4278,
      "usion": 4279,
      "Ġremained": 4280,
      "Ġposted": 4281,
      "play": 4282,
      "89": 4283,
      "fo": 4284,
      "itors": 4285,
      "Ġmother": 4286,
      "ush": 4287,
      "Ġwealth": 4288,
      "Ġgoals": 4289,
      "anta": 4290,
      "Ġpeak": 4291,
      "Ġafford": 4292,
      "Ġwriting": 4293,
      "Ġvolat": 4294,
      "ny": 4295,
      "Ġfresh": 4296,
      "urch": 4297,
      "Ġresol": 4298,
      "Ġregions": 4299,
      "Ġglobally": 4300,
      "Ġcompleted": 4301,
      "Ġappears": 4302,
      "Ġsynd": 4303,
      "31": 4304,
      "haps": 4305,
      "Ġtokyo": 4306,
      "ica": 4307,
      "Ġha": 4308,
      "Ġpubmed": 4309,
      "Ġoperational": 4310,
      "Ġsimply": 4311,
      "Ġsuggests": 4312,
      "Ġlay": 4313,
      "Ġlung": 4314,
      "Ġcompl": 4315,
      "Ġcurrency": 4316,
      "Ġliabilities": 4317,
      "Ġmonitoring": 4318,
      "Ġtreasury": 4319,
      "Ġpor": 4320,
      "Ġcovered": 4321,
      "rene": 4322,
      "Ġcertainly": 4323,
      "Ġcouple": 4324,
      "Ġpip": 4325,
      "illed": 4326,
      "Ġ300": 4327,
      "Ġcruc": 4328,
      "Ġpresidential": 4329,
      "Ġbarrel": 4330,
      "Ġrepublicans": 4331,
      "Ġdraw": 4332,
      "Ġwait": 4333,
      "Ġstrength": 4334,
      "Ġexact": 4335,
      "Ġdistrict": 4336,
      "Ġmoderna": 4337,
      "Ã§Ã£o": 4338,
      "Ġireland": 4339,
      "bre": 4340,
      "ding": 4341,
      "ros": 4342,
      "eneca": 4343,
      "word": 4344,
      "Ġded": 4345,
      "umes": 4346,
      "Ġhistoric": 4347,
      "Ġotherwise": 4348,
      "Ġdirectors": 4349,
      "Ġdynam": 4350,
      "ona": 4351,
      "Ġbeat": 4352,
      "ups": 4353,
      "Ġtherefore": 4354,
      "Ġarab": 4355,
      "Ġtemporary": 4356,
      "Ġperhaps": 4357,
      "Ġdevelopments": 4358,
      "iam": 4359,
      "Ġrequires": 4360,
      "azeneca": 4361,
      "Ġreturns": 4362,
      "Ġexpansion": 4363,
      "Ġfal": 4364,
      "otive": 4365,
      "Ġsimple": 4366,
      "Ġchec": 4367,
      "Ġpresented": 4368,
      "ses": 4369,
      "Ġgained": 4370,
      "Ġprompt": 4371,
      "Ġoppos": 4372,
      "otech": 4373,
      "Ġkilled": 4374,
      "Ġstrengthe": 4375,
      "Ġtight": 4376,
      "Ġsave": 4377,
      "unch": 4378,
      "Ġmeant": 4379,
      "Ġmanaging": 4380,
      "Ġlandscape": 4381,
      "tw": 4382,
      "Ġusually": 4383,
      "Ġoutcomes": 4384,
      "Ġ48": 4385,
      "Ġwoman": 4386,
      "Ġmanagers": 4387,
      "Ġcoop": 4388,
      "Ġ'':": 4389,
      "angu": 4390,
      "Ġimmunity": 4391,
      "Ġball": 4392,
      "Ġnom": 4393,
      "Ġweather": 4394,
      "Ġvariants": 4395,
      "Ġpopul": 4396,
      "Ġfindings": 4397,
      "Ġcombined": 4398,
      "Ġtourism": 4399,
      "Ġbed": 4400,
      "ibute": 4401,
      "Ġcuts": 4402,
      "Ġopinion": 4403,
      "Ġsud": 4404,
      "Ġpurs": 4405,
      "aves": 4406,
      "ashion": 4407,
      "Ġprotoc": 4408,
      "pread": 4409,
      "Ġframe": 4410,
      "Ġprovider": 4411,
      "Ġairline": 4412,
      "Ġtherapy": 4413,
      "ev": 4414,
      "Ġindian": 4415,
      "Ġcounter": 4416,
      "more": 4417,
      "icient": 4418,
      "Ġproced": 4419,
      "Ġspike": 4420,
      "Ġfaced": 4421,
      "Ġprotective": 4422,
      "Ġpartnership": 4423,
      "Ġautomotive": 4424,
      "Ġmodern": 4425,
      "ground": 4426,
      "Ġcompens": 4427,
      "Ġfailure": 4428,
      "prof": 4429,
      "pers": 4430,
      "Ġacknow": 4431,
      "Ġchem": 4432,
      "Ġwrong": 4433,
      "Ġgeneration": 4434,
      "Ġwidely": 4435,
      "Ø¯": 4436,
      "Ġwild": 4437,
      "Ġber": 4438,
      "icket": 4439,
      "Ġexport": 4440,
      "Ġarrest": 4441,
      "Ġofficers": 4442,
      "part": 4443,
      "Ġpredic": 4444,
      "Ġnar": 4445,
      "chan": 4446,
      "abet": 4447,
      "Ġvehicles": 4448,
      "Ġalle": 4449,
      "Ġuses": 4450,
      "ria": 4451,
      "rep": 4452,
      "Ġmel": 4453,
      "Ġvoting": 4454,
      "Ġsample": 4455,
      "Ġcert": 4456,
      "Ġtransfer": 4457,
      "55": 4458,
      "ading": 4459,
      "Ġappo": 4460,
      "Ġtechnical": 4461,
      "Ġhaven": 4462,
      "commer": 4463,
      "Ġchallenging": 4464,
      "Ġmanufacturers": 4465,
      "Ġcruise": 4466,
      "Ġcents": 4467,
      "Ġtypes": 4468,
      "Ġpassengers": 4469,
      "commerce": 4470,
      "ref": 4471,
      "Ġstructure": 4472,
      "Ġdepend": 4473,
      "Ġallowing": 4474,
      "Ġchannel": 4475,
      "Ġvan": 4476,
      "Ġoperation": 4477,
      "Ġrelationship": 4478,
      "Ġentertain": 4479,
      "Ġpassed": 4480,
      "Ġprotesters": 4481,
      "iency": 4482,
      "ops": 4483,
      "Ġchat": 4484,
      "Ġappropri": 4485,
      "Ġsupporting": 4486,
      "Ġze": 4487,
      "Ġbst": 4488,
      "Ġven": 4489,
      "Ġjones": 4490,
      "Ġrent": 4491,
      "Ġfriend": 4492,
      "Ġscopus": 4493,
      "Ġil": 4494,
      "Ġspring": 4495,
      "Ġinternal": 4496,
      "sa": 4497,
      "ishing": 4498,
      "Ġeur": 4499,
      "ctions": 4500,
      "Ġsigned": 4501,
      "Ġstor": 4502,
      "Ġsav": 4503,
      "coming": 4504,
      "Ġimproved": 4505,
      "Ġtargets": 4506,
      "Ġgeograp": 4507,
      "Ġinitiative": 4508,
      "Ġexposed": 4509,
      "Ġstrict": 4510,
      "Ġforecasts": 4511,
      "Ġequival": 4512,
      "Ġinterests": 4513,
      "Ġib": 4514,
      "Ġsearch": 4515,
      "Ġinde": 4516,
      "argo": 4517,
      "Ġzacks": 4518,
      "Ġurg": 4519,
      "Ġrepresenting": 4520,
      "Ġantibody": 4521,
      "mas": 4522,
      "nel": 4523,
      "Ġfans": 4524,
      "Ġcommod": 4525,
      "Ġputting": 4526,
      "Ġcombination": 4527,
      "Ġcharacter": 4528,
      "32": 4529,
      "Ġwasn": 4530,
      "Ġquant": 4531,
      "ka": 4532,
      "uations": 4533,
      "Ġna": 4534,
      "Ġremember": 4535,
      "Ġhappened": 4536,
      "bour": 4537,
      "mo": 4538,
      "Ġguarant": 4539,
      "tty": 4540,
      "Ġfrequ": 4541,
      "Ġassessment": 4542,
      "Ġstruggling": 4543,
      "Ġgiant": 4544,
      "Ġcoast": 4545,
      "Ġemployers": 4546,
      "Ġdoctor": 4547,
      "ries": 4548,
      "Ġwants": 4549,
      "Ġrule": 4550,
      "Ġwinter": 4551,
      "Ġmortg": 4552,
      "cers": 4553,
      "Ġfashion": 4554,
      "Ġasian": 4555,
      "rome": 4556,
      "Ġoperate": 4557,
      "Ġdownload": 4558,
      "Ġcommunications": 4559,
      "Ġbonds": 4560,
      "Ġzoom": 4561,
      "Ġgerman": 4562,
      "Ġaccounting": 4563,
      "Ġcircum": 4564,
      "Ġalternative": 4565,
      "87": 4566,
      "eria": 4567,
      "Ġpage": 4568,
      "Ġhub": 4569,
      "Ġlou": 4570,
      "Ġcontained": 4571,
      "Ġstruct": 4572,
      "Ġminor": 4573,
      "Ġmostly": 4574,
      "Ġparlia": 4575,
      "Ġupdates": 4576,
      "itation": 4577,
      "izes": 4578,
      "Ġsustainability": 4579,
      "01": 4580,
      "69": 4581,
      "Ġshel": 4582,
      "2019": 4583,
      "Ġcalling": 4584,
      "Ġmetric": 4585,
      "Ġallows": 4586,
      "Ġpriority": 4587,
      "Ġdoz": 4588,
      "Ġpretty": 4589,
      "riers": 4590,
      "wire": 4591,
      "Ġpricing": 4592,
      "Ġinitiatives": 4593,
      "ker": 4594,
      "Ġcharge": 4595,
      "Ġhyd": 4596,
      "ĠØ§ÙĦØ": 4597,
      "Ġlegislation": 4598,
      "Ġalex": 4599,
      "erred": 4600,
      "Ġenable": 4601,
      "Ġglobe": 4602,
      "wan": 4603,
      "Ġeconomists": 4604,
      "Ġlocations": 4605,
      "Ùĥ": 4606,
      "itable": 4607,
      "Ġfranc": 4608,
      "Ġcrucial": 4609,
      "inform": 4610,
      "ady": 4611,
      "Ġparliament": 4612,
      "ba": 4613,
      "vacc": 4614,
      "Ġfewer": 4615,
      "Ġexecutives": 4616,
      "Ġtrip": 4617,
      "Ġblue": 4618,
      "Ġpackaging": 4619,
      "Ġoutput": 4620,
      "Ġfinding": 4621,
      "Ġcro": 4622,
      "era": 4623,
      "liers": 4624,
      "Ġauthors": 4625,
      "Ġconfirm": 4626,
      "Ġjun": 4627,
      "Ġdisney": 4628,
      "Ġ41": 4629,
      "Ġ42": 4630,
      "Ġbringing": 4631,
      "Ġswe": 4632,
      "Ġunless": 4633,
      "ught": 4634,
      "Ġfailed": 4635,
      "Ġbul": 4636,
      "Ġperman": 4637,
      "Ġviews": 4638,
      "Ġenterprise": 4639,
      "Ġcollaboration": 4640,
      "Ġenjoy": 4641,
      "des": 4642,
      "iate": 4643,
      "uses": 4644,
      "orders": 4645,
      "ression": 4646,
      "Ġsupported": 4647,
      "Ġpaul": 4648,
      "google": 4649,
      "Ġcommitment": 4650,
      "Ġsometimes": 4651,
      "Ġcandidate": 4652,
      "reaks": 4653,
      "Ġgives": 4654,
      "Ġresident": 4655,
      "Ġoverse": 4656,
      "Ġmanaged": 4657,
      "Ġfarm": 4658,
      "Ġanticipated": 4659,
      "eing": 4660,
      "long": 4661,
      "Ġcontinu": 4662,
      "Ġartific": 4663,
      "iences": 4664,
      "Ġrevol": 4665,
      "Ġcommunication": 4666,
      "how": 4667,
      "Ġ{": 4668,
      "Ġ}": 4669,
      "thern": 4670,
      "agues": 4671,
      "Ġhopes": 4672,
      "Ġdetailed": 4673,
      "Ġtrig": 4674,
      "Ġgrocer": 4675,
      "Ġgets": 4676,
      "Ġcareer": 4677,
      "Ġconcerned": 4678,
      "Ġoutbreaks": 4679,
      "Ġwuhan": 4680,
      "Ġastr": 4681,
      "Ġfem": 4682,
      "Ġdisapp": 4683,
      "airs": 4684,
      "Ġcircumst": 4685,
      "ken": 4686,
      "Ġhear": 4687,
      "):": 4688,
      "Ġadverse": 4689,
      "Ġoffices": 4690,
      "point": 4691,
      "Ġanswer": 4692,
      "Ð¾": 4693,
      "Ġindo": 4694,
      "Ġbiotech": 4695,
      "Ġversus": 4696,
      "Ġemployment": 4697,
      "Ġcandidates": 4698,
      "Ġcolor": 4699,
      "ech": 4700,
      "Ġsand": 4701,
      "urning": 4702,
      "Ġconte": 4703,
      "Ġ600": 4704,
      "Ġaffecting": 4705,
      "Ġappeared": 4706,
      "ca": 4707,
      "health": 4708,
      "hern": 4709,
      "Ġplayed": 4710,
      "Ġspreading": 4711,
      "Ġwritten": 4712,
      "Ġunf": 4713,
      "Ġ49": 4714,
      "Ġbox": 4715,
      "Ġgrew": 4716,
      "Ġhelps": 4717,
      "Ġsouthern": 4718,
      "Ġbasic": 4719,
      "Ġinstitution": 4720,
      "Ġbench": 4721,
      "Ġtemperature": 4722,
      "cross": 4723,
      "Ġtend": 4724,
      "Ġfle": 4725,
      "aling": 4726,
      "Ġdu": 4727,
      "Ġestablish": 4728,
      "Ġastrazeneca": 4729,
      "Ġcars": 4730,
      "Ġknowledge": 4731,
      "Ġgaap": 4732,
      "erve": 4733,
      "Ġgap": 4734,
      "Ġpurpose": 4735,
      "400": 4736,
      "well": 4737,
      "Ġprojected": 4738,
      "Ġfreed": 4739,
      "known": 4740,
      "expected": 4741,
      "ded": 4742,
      "yan": 4743,
      "Ġsharing": 4744,
      "Ġcycl": 4745,
      "Ġbehavior": 4746,
      "Ġped": 4747,
      "arian": 4748,
      "Ġcomfort": 4749,
      "Ġ''.": 4750,
      "Ġsuppliers": 4751,
      "Ġcontributed": 4752,
      "Ġartificial": 4753,
      "ims": 4754,
      "Ġsequ": 4755,
      "Ġagencies": 4756,
      "Ġclosely": 4757,
      "Ġvehicle": 4758,
      "Ġexpressed": 4759,
      "Ġprotein": 4760,
      "Ġreli": 4761,
      "Ġstra": 4762,
      "Ġscheme": 4763,
      "Ġandrew": 4764,
      "aded": 4765,
      "Ġrid": 4766,
      "Ġspect": 4767,
      "Ġtransactions": 4768,
      "Ġlatin": 4769,
      "Ġcollection": 4770,
      "Ġpacific": 4771,
      "Ġlng": 4772,
      "Ġskills": 4773,
      "otic": 4774,
      "uci": 4775,
      "iveness": 4776,
      "lands": 4777,
      "ua": 4778,
      "west": 4779,
      "Ġmatch": 4780,
      "ĠâĢ¦": 4781,
      "Ġmechan": 4782,
      "Ġroyal": 4783,
      "Ġreducing": 4784,
      "Ġvolumes": 4785,
      "arks": 4786,
      "Ġnursing": 4787,
      "Ġdur": 4788,
      "Ġvital": 4789,
      "Ġtalking": 4790,
      "omp": 4791,
      "cell": 4792,
      "Ġwood": 4793,
      "Ġwides": 4794,
      "Ġmine": 4795,
      "Ġenforce": 4796,
      "Ġdomin": 4797,
      "Ġconversation": 4798,
      "48": 4799,
      "turn": 4800,
      "Ġfounder": 4801,
      "Ġdog": 4802,
      "Ġtool": 4803,
      "Ġgar": 4804,
      "ola": 4805,
      "Ġflight": 4806,
      "Ġimportance": 4807,
      "Ġslightly": 4808,
      "Ġdram": 4809,
      "Ġchoice": 4810,
      "Ġoutdo": 4811,
      "Ġsubsequ": 4812,
      "Ġimmediate": 4813,
      "Ġwidespread": 4814,
      "Ġcab": 4815,
      "resp": 4816,
      "Ġrecords": 4817,
      "Ġresulting": 4818,
      "Ġswed": 4819,
      "Ġimproving": 4820,
      "Ġetf": 4821,
      "Ġken": 4822,
      "Ġregistered": 4823,
      "Ġpoly": 4824,
      "Ġ2014": 4825,
      "Ġrobust": 4826,
      "Ġsuspended": 4827,
      "Ġhydro": 4828,
      "crossref": 4829,
      "Ġnorthern": 4830,
      "Ġpie": 4831,
      "Ġvalues": 4832,
      "igation": 4833,
      "Ġasking": 4834,
      "Ġclub": 4835,
      "Ġmachine": 4836,
      "Ġwelcome": 4837,
      "iar": 4838,
      "tic": 4839,
      "Ġinsp": 4840,
      "Ġtopics": 4841,
      "Ġsexual": 4842,
      "Ġteachers": 4843,
      "Ġinj": 4844,
      "Ġrand": 4845,
      "avio": 4846,
      "Ġprocessing": 4847,
      "Ġconnection": 4848,
      "Ġultimately": 4849,
      "Ġcontext": 4850,
      "Ġsport": 4851,
      "oration": 4852,
      "Ġreading": 4853,
      "Ġresponsibility": 4854,
      "Ġextremely": 4855,
      "ees": 4856,
      "Ġpel": 4857,
      "Ġbab": 4858,
      "ivir": 4859,
      "Ġmonetary": 4860,
      "Ġreturning": 4861,
      "Ġcontracts": 4862,
      "Ġsuggested": 4863,
      "Ġscreen": 4864,
      "bi": 4865,
      "Ġeffectively": 4866,
      "Ġauthority": 4867,
      "Ġurban": 4868,
      "Ġfunction": 4869,
      "Ġracial": 4870,
      "band": 4871,
      "Ġrating": 4872,
      "Ġprogramme": 4873,
      "Ġgeorg": 4874,
      "Ġassistance": 4875,
      "Ġangeles": 4876,
      "Ġcircumstances": 4877,
      "ki": 4878,
      "Ġgave": 4879,
      "Ġprison": 4880,
      "Ġworker": 4881,
      "Ġemot": 4882,
      "Ġ47": 4883,
      "Ġscott": 4884,
      "Ġjapanese": 4885,
      "Ġdiscussion": 4886,
      "Ġshutdown": 4887,
      "Ġestablished": 4888,
      "Ġinterim": 4889,
      "Ġinitially": 4890,
      "Ġrepresents": 4891,
      "Ġsubsidi": 4892,
      "uro": 4893,
      "ych": 4894,
      "Ġconsensus": 4895,
      "Ġbuyers": 4896,
      "Ġappropriate": 4897,
      "py": 4898,
      "Ġoutstanding": 4899,
      "Ġ46": 4900,
      "100": 4901,
      "itect": 4902,
      "Ġthr": 4903,
      "Ġgdp": 4904,
      "ester": 4905,
      "Ġsaud": 4906,
      "Ġmonthly": 4907,
      "Ġorganis": 4908,
      "Ġweight": 4909,
      "Ġramp": 4910,
      "Ġgov": 4911,
      "Ġtranspa": 4912,
      "Ġeye": 4913,
      "Ġdipl": 4914,
      "Ãº": 4915,
      "Ġdefense": 4916,
      "Ġsamples": 4917,
      "Ġnetworks": 4918,
      "Ġnationwide": 4919,
      "Ġfauci": 4920,
      "Ġvision": 4921,
      "Ġnotice": 4922,
      "Ġcount": 4923,
      "Ġwarning": 4924,
      "Ġbattle": 4925,
      "Ġoun": 4926,
      "Ġconcent": 4927,
      "Ġarchitect": 4928,
      "Ġinventory": 4929,
      "met": 4930,
      "room": 4931,
      "enty": 4932,
      "ota": 4933,
      "apped": 4934,
      "Ġmainly": 4935,
      "Ġhappening": 4936,
      "Ġinvestigation": 4937,
      "Ã¤": 4938,
      "Ġchap": 4939,
      "ensed": 4940,
      "Ġowned": 4941,
      "Ġinnovative": 4942,
      "Ġsentiment": 4943,
      "Ġamounts": 4944,
      "06": 4945,
      "Ġcompliance": 4946,
      "ode": 4947,
      "Ġsetting": 4948,
      "Ġath": 4949,
      "inted": 4950,
      "Ġemb": 4951,
      "Ġpaying": 4952,
      "Ġcaution": 4953,
      "Ġnurses": 4954,
      "aland": 4955,
      "week": 4956,
      "Ġ150": 4957,
      "Ġspeaking": 4958,
      "Ġchoose": 4959,
      "Ġmaxim": 4960,
      "Ġts": 4961,
      "Ġdisp": 4962,
      "Ġkept": 4963,
      "Ġinstance": 4964,
      "Ġremaining": 4965,
      "Ġproduced": 4966,
      "Ġclearly": 4967,
      "holder": 4968,
      "59": 4969,
      "Ġalign": 4970,
      "Ġneut": 4971,
      "Ġopened": 4972,
      "Ġvariety": 4973,
      "Ġabsol": 4974,
      "Ùĩ": 4975,
      "Ġtor": 4976,
      "rupt": 4977,
      "Ġsharp": 4978,
      "Ġconcentr": 4979,
      "orge": 4980,
      "Ġease": 4981,
      "portion": 4982,
      "Ġbroader": 4983,
      "Ġign": 4984,
      "Ġunable": 4985,
      "Ġspr": 4986,
      "Ġsurpr": 4987,
      "Ġscenario": 4988,
      "pandemic": 4989,
      "rying": 4990,
      "Ġpil": 4991,
      "Ġatl": 4992,
      "Ġfalling": 4993,
      "Ġimprovement": 4994,
      "Ġcompensation": 4995,
      "Ġentertainment": 4996,
      "Ġital": 4997,
      "Ġhen": 4998,
      "Ġpeace": 4999,
      "Ġamort": 5000,
      "Ġauto": 5001,
      "Ġpublicly": 5002,
      "Ġsubscription": 5003,
      "Ġfalse": 5004,
      "42": 5005,
      "mes": 5006,
      "ÙĤ": 5007,
      "Ġtack": 5008,
      "Ġsle": 5009,
      "isco": 5010,
      "Ġcompos": 5011,
      "Ġeconomist": 5012,
      "Ġtransformation": 5013,
      "Ġbottom": 5014,
      "Ġconflic": 5015,
      "Ġharris": 5016,
      "Ġdetermine": 5017,
      "Ġmining": 5018,
      "Ġelig": 5019,
      "Ġdisruption": 5020,
      "https": 5021,
      "atically": 5022,
      "Ġmoves": 5023,
      "Ġacute": 5024,
      "lling": 5025,
      "Ġ488": 5026,
      "Ġpsych": 5027,
      "86": 5028,
      "Ġtai": 5029,
      "anch": 5030,
      "Ġlux": 5031,
      "Ġcovers": 5032,
      "Ġenab": 5033,
      "Ġapply": 5034,
      "Ġperspective": 5035,
      "istan": 5036,
      "Ġregistr": 5037,
      "Ġwrite": 5038,
      "Ġawa": 5039,
      "Ġrs": 5040,
      "Ġflat": 5041,
      "Ġcontribut": 5042,
      "79": 5043,
      "Ġauction": 5044,
      "Ġmerg": 5045,
      "Ġsession": 5046,
      "Ġvp": 5047,
      "Ġconsumption": 5048,
      "Ġstronger": 5049,
      "Ġcolleagues": 5050,
      "field": 5051,
      "Ġwire": 5052,
      "Ġclot": 5053,
      "eut": 5054,
      "aph": 5055,
      "ferences": 5056,
      "Ġraising": 5057,
      "Ġdiffer": 5058,
      "Ġdeclared": 5059,
      "Ġiran": 5060,
      "Ġ'')": 5061,
      "Ġ43": 5062,
      "Ġ2008": 5063,
      "Ġurged": 5064,
      "Ġfeeling": 5065,
      "Ġdelivering": 5066,
      "agram": 5067,
      "ata": 5068,
      "oles": 5069,
      "Ġmaterially": 5070,
      "Ġinfluence": 5071,
      "Ġhighlights": 5072,
      "Ġyields": 5073,
      "Ġdedic": 5074,
      "ault": 5075,
      "Ġprofits": 5076,
      "Ġrepeated": 5077,
      "Ġstatistics": 5078,
      "coronavirus": 5079,
      "omo": 5080,
      "ifically": 5081,
      "Ġcopper": 5082,
      "Ġabsolute": 5083,
      "uan": 5084,
      "inem": 5085,
      "Ġwilling": 5086,
      "dule": 5087,
      "Ġfever": 5088,
      "Ġfundament": 5089,
      "Ġventure": 5090,
      "Ġoperator": 5091,
      "Ġ85": 5092,
      "grade": 5093,
      "Ġproducers": 5094,
      "Ġcompletely": 5095,
      "ĠÙħ": 5096,
      "Ġbars": 5097,
      "Ġjames": 5098,
      "Ġideas": 5099,
      "Ġinterviews": 5100,
      "Ġinvolve": 5101,
      "Ġvisitors": 5102,
      "Ġtweet": 5103,
      "Ġintr": 5104,
      "ilit": 5105,
      "Ġstated": 5106,
      "Ġcauses": 5107,
      "Ġefficient": 5108,
      "Ġtherapeut": 5109,
      "Ġseparate": 5110,
      "76": 5111,
      "oo": 5112,
      "Ãµ": 5113,
      "Ġincor": 5114,
      "Ġ56": 5115,
      "Ġimmigr": 5116,
      "Ġrevealed": 5117,
      "Ġtask": 5118,
      "Ġexclusive": 5119,
      "Ġsaudi": 5120,
      "Ġharm": 5121,
      "Ġthus": 5122,
      "osing": 5123,
      "Ġclient": 5124,
      "Ġdecide": 5125,
      "Ġtracking": 5126,
      "Ġempow": 5127,
      "Ġstraight": 5128,
      "Ġlangu": 5129,
      "Ġchic": 5130,
      "Ġyourself": 5131,
      "Ġfactor": 5132,
      "Ġsegments": 5133,
      "Ġ1998": 5134,
      "Ġdoubt": 5135,
      "wr": 5136,
      "Ġanx": 5137,
      "Ġnone": 5138,
      "Ġinstagram": 5139,
      "Ġconfident": 5140,
      "Ġprovision": 5141,
      "Ġlogistics": 5142,
      "Ġmomentum": 5143,
      "Ġhistorical": 5144,
      "Ġutil": 5145,
      "Ġzealand": 5146,
      "ptions": 5147,
      "Ġplaying": 5148,
      "Ġelections": 5149,
      "Ġbirth": 5150,
      "Ġmortgage": 5151,
      "Ãµes": 5152,
      "09": 5153,
      "ien": 5154,
      "Ġclar": 5155,
      "Ġbrain": 5156,
      "Ġregulation": 5157,
      "Ġfraud": 5158,
      "Ġpresentation": 5159,
      "Ġunlikely": 5160,
      "Ġtick": 5161,
      "Ġsheet": 5162,
      "Ġdelays": 5163,
      "Ġhappy": 5164,
      "Ġengineering": 5165,
      "Ġpresence": 5166,
      "anging": 5167,
      "2021": 5168,
      "Ġrestr": 5169,
      "Ġadvoc": 5170,
      "Ġkingdom": 5171,
      "Ġlouis": 5172,
      "heast": 5173,
      "outs": 5174,
      "Ġwaste": 5175,
      "Ġlose": 5176,
      "Ġmeetings": 5177,
      "Ġvill": 5178,
      "ias": 5179,
      "Ġeg": 5180,
      "Ġlocation": 5181,
      "Ġdevice": 5182,
      "Ġfeature": 5183,
      "cap": 5184,
      "night": 5185,
      "ystem": 5186,
      "ura": 5187,
      "Ġperfect": 5188,
      "Ġeasier": 5189,
      "Ġfootball": 5190,
      "Ġspaces": 5191,
      "Ġimposed": 5192,
      "Ġshortages": 5193,
      "Ġconstant": 5194,
      "Ġisolation": 5195,
      "ests": 5196,
      "cons": 5197,
      "Ġmulti": 5198,
      "Ġresponses": 5199,
      "Ġsilver": 5200,
      "Ġbullish": 5201,
      "Ġ<": 5202,
      "Ġmrna": 5203,
      "Ġpossibility": 5204,
      "Ġproperties": 5205,
      "Ġassumptions": 5206,
      "iontech": 5207,
      "Ġemerged": 5208,
      "Ġadvisory": 5209,
      "Ġstorage": 5210,
      ".âĢĻ": 5211,
      "Ġos": 5212,
      "road": 5213,
      "Ġplaced": 5214,
      "Ġtreatments": 5215,
      "Ġpolitics": 5216,
      "Ġexplore": 5217,
      "Ġbriefing": 5218,
      "Ġbol": 5219,
      "Ġgir": 5220,
      "Ġshock": 5221,
      "Ġstrain": 5222,
      "Ġlabour": 5223,
      "Ġsquare": 5224,
      "Ġsound": 5225,
      "Ġspl": 5226,
      "Ġpled": 5227,
      "Ġdecreased": 5228,
      "Ġrecommendations": 5229,
      "isf": 5230,
      "Ġpassword": 5231,
      "Ġprovince": 5232,
      "........": 5233,
      "Ġdeals": 5234,
      "ander": 5235,
      "craft": 5236,
      "Ġpushed": 5237,
      "Ġmortality": 5238,
      "ht": 5239,
      "Ġnamed": 5240,
      "Ġmart": 5241,
      "Ġpowerful": 5242,
      "Ġsudden": 5243,
      "kins": 5244,
      "uable": 5245,
      "ulated": 5246,
      "Ġtra": 5247,
      "Ġaggress": 5248,
      "Ġ51": 5249,
      "Ġeastern": 5250,
      "ito": 5251,
      "Ġhall": 5252,
      "Ġvac": 5253,
      "Ġvast": 5254,
      "Ġshots": 5255,
      "Ġspan": 5256,
      "Ġprofile": 5257,
      "Ġdefined": 5258,
      "Ġcrypt": 5259,
      "Ġretirement": 5260,
      "Ġsavings": 5261,
      "Ġtheat": 5262,
      "Ġexpend": 5263,
      "Ġ400": 5264,
      "Ġsettle": 5265,
      "Ġhimself": 5266,
      "Ġattribut": 5267,
      "Ġub": 5268,
      "Ġagric": 5269,
      "Ġfaces": 5270,
      "Ġcriticism": 5271,
      "ados": 5272,
      "Ġrefin": 5273,
      "Ġlinking": 5274,
      "Ġreplace": 5275,
      "Ġtroub": 5276,
      "Ġwit": 5277,
      "enn": 5278,
      "Ġimage": 5279,
      "Ġsupreme": 5280,
      "Ġexplained": 5281,
      "oy": 5282,
      "whel": 5283,
      "Ġtar": 5284,
      "ille": 5285,
      "Ġtried": 5286,
      "Ġadds": 5287,
      "Ġavailability": 5288,
      "Ġspeech": 5289,
      "Ġeventually": 5290,
      "Ġintroduced": 5291,
      "Ġjumped": 5292,
      "Ġtes": 5293,
      "Ġoxy": 5294,
      "Ġfather": 5295,
      "unte": 5296,
      "Ġworkplace": 5297,
      "elling": 5298,
      "Ġnhs": 5299,
      "Ġworried": 5300,
      "Ġoutperform": 5301,
      "Ġmineral": 5302,
      "Ġlooked": 5303,
      "Ġreceiving": 5304,
      "Ġlearned": 5305,
      "reciation": 5306,
      "Ġdiagnost": 5307,
      "Ġbehavi": 5308,
      "Ġconservative": 5309,
      "Ġchicago": 5310,
      "vision": 5311,
      "Ø¹": 5312,
      "Ġexcess": 5313,
      "Ġcode": 5314,
      "active": 5315,
      "isters": 5316,
      "box": 5317,
      "Ġexpendit": 5318,
      "adas": 5319,
      "Ġtrail": 5320,
      "Ġspir": 5321,
      "Ġuseful": 5322,
      "Ġplants": 5323,
      "phone": 5324,
      "Ġefficacy": 5325,
      "Ġaccelerated": 5326,
      "Ġchristmas": 5327,
      "Ġconclud": 5328,
      "jan": 5329,
      "ste": 5330,
      "Ġvolunte": 5331,
      "Ġdistance": 5332,
      "Ġeasily": 5333,
      "Ġtargeted": 5334,
      "Ġimplemented": 5335,
      "Ġtaiwan": 5336,
      "Ġcagr": 5337,
      "Ġresist": 5338,
      "Ġspecifically": 5339,
      "Ġagreements": 5340,
      "================================": 5341,
      "Ġvolatility": 5342,
      "hr": 5343,
      "vin": 5344,
      "wood": 5345,
      "Ġbay": 5346,
      "Ġdebate": 5347,
      "Ġwaiting": 5348,
      "Ġdisruptions": 5349,
      "Ġopposition": 5350,
      "Ġgeorgia": 5351,
      "Ġagricult": 5352,
      "can": 5353,
      "lined": 5354,
      "Ġtel": 5355,
      "Ġintended": 5356,
      "Ġpostpon": 5357,
      "Ġmatters": 5358,
      "Ġdealing": 5359,
      "income": 5360,
      "doi": 5361,
      "Ġcomparable": 5362,
      "Ġum": 5363,
      "Ġbeg": 5364,
      "Ġapps": 5365,
      "Ġearth": 5366,
      "Ġwalk": 5367,
      "Ġcomputer": 5368,
      "eff": 5369,
      "ania": 5370,
      "Ġfest": 5371,
      "Ġrobert": 5372,
      "Ġcarry": 5373,
      "Ġinsider": 5374,
      "Ġlawmakers": 5375,
      "Ġautomation": 5376,
      "Ġinsight": 5377,
      "Ġextend": 5378,
      "Ġdocuments": 5379,
      "Ġrecommended": 5380,
      "Ġaccelerate": 5381,
      "Ġexactly": 5382,
      "Ġmike": 5383,
      "semb": 5384,
      "Ġkit": 5385,
      "owned": 5386,
      "Ġcorrect": 5387,
      "41": 5388,
      "greg": 5389,
      "va": 5390,
      "Ġdub": 5391,
      "Ġstorm": 5392,
      "Ġalg": 5393,
      "Ġgenerated": 5394,
      "Ġexperiences": 5395,
      "Ġtemporarily": 5396,
      "Ġmovie": 5397,
      "mi": 5398,
      "Ġing": 5399,
      "emi": 5400,
      "Ġimages": 5401,
      "Ġbigger": 5402,
      "Ġshortage": 5403,
      "Ġgeorge": 5404,
      "Ġsanit": 5405,
      "Ġdisin": 5406,
      "Ġdrilling": 5407,
      "Ġmayor": 5408,
      "itely": 5409,
      "Ġmedium": 5410,
      "Ġperiods": 5411,
      "Ġdistributed": 5412,
      "Ġacquired": 5413,
      "Ġadoption": 5414,
      "Ġconsistent": 5415,
      "Ġreset": 5416,
      "Ġimag": 5417,
      "board": 5418,
      "Ġconnected": 5419,
      "Ġexpanded": 5420,
      "Ġeuros": 5421,
      "mat": 5422,
      "Ġox": 5423,
      "Ġoverwhel": 5424,
      "Ġobviously": 5425,
      "vest": 5426,
      "Ð¸": 5427,
      "icial": 5428,
      "Ġheard": 5429,
      "Ġexceed": 5430,
      "Ġtiming": 5431,
      "Ġpriorit": 5432,
      "Ġmentioned": 5433,
      "Ġta": 5434,
      "Ġlowest": 5435,
      "ength": 5436,
      "Ġclasses": 5437,
      "Ġfreedom": 5438,
      "Ġoxygen": 5439,
      "78": 5440,
      "mal": 5441,
      "Ġusa": 5442,
      "Ġresort": 5443,
      "Ġfellow": 5444,
      "Ġneighbor": 5445,
      "Ġemph": 5446,
      "Ġapplied": 5447,
      "Ġentry": 5448,
      "Ġsupplement": 5449,
      "Ġextent": 5450,
      "Ġprepare": 5451,
      "Ġfighting": 5452,
      "Ġgatherings": 5453,
      "Ð°": 5454,
      "Ðµ": 5455,
      "Ġfu": 5456,
      "Ġdan": 5457,
      "Ġ66": 5458,
      "Ġlawy": 5459,
      "Ġpeter": 5460,
      "Ġmissing": 5461,
      "Ġminimum": 5462,
      "Ġdegree": 5463,
      "Ġsettings": 5464,
      "Ġburn": 5465,
      "Ġsees": 5466,
      "Ġjon": 5467,
      "Ġaccused": 5468,
      "aching": 5469,
      "Ġdevast": 5470,
      "Ġclosures": 5471,
      "Ġreserved": 5472,
      "Ġfixed": 5473,
      "Ġrank": 5474,
      "enders": 5475,
      "Ġsafely": 5476,
      "Ġexploration": 5477,
      "Ġpurchases": 5478,
      "ĠÃł": 5479,
      "Ġchampions": 5480,
      "miss": 5481,
      "Ġroc": 5482,
      "Ġhandling": 5483,
      "Ġpremier": 5484,
      "hal": 5485,
      "Ġincred": 5486,
      "Ġjeff": 5487,
      "date": 5488,
      "pts": 5489,
      "Ġusd": 5490,
      "Ġleads": 5491,
      "Ġturkey": 5492,
      "Ġexpertise": 5493,
      "dnet": 5494,
      "Ġmun": 5495,
      "uth": 5496,
      "Ġaspect": 5497,
      "Ġprefer": 5498,
      "Ġremarks": 5499,
      "Ġdiscussed": 5500,
      "Ġprincipal": 5501,
      "Ġdangerous": 5502,
      "Ġcold": 5503,
      "itude": 5504,
      "etic": 5505,
      "Ġlease": 5506,
      "Ġtransl": 5507,
      "Ġrelig": 5508,
      "Ġzdnet": 5509,
      "Ġexplain": 5510,
      "Ġphoto": 5511,
      "Ġexcluding": 5512,
      "Ġadvertising": 5513,
      "Ġconsequences": 5514,
      "Ġter": 5515,
      "urg": 5516,
      "Ġproc": 5517,
      "Ġreporters": 5518,
      "Ġhotels": 5519,
      "Ġefficiency": 5520,
      "Ġprospects": 5521,
      "Ġvendors": 5522,
      "iance": 5523,
      "report": 5524,
      "Ġhiring": 5525,
      "Ġhasn": 5526,
      "Ġflood": 5527,
      "Ġathlet": 5528,
      "Ġneutral": 5529,
      "Ġgree": 5530,
      "Ġusual": 5531,
      "Ġowner": 5532,
      "Ġspokesperson": 5533,
      "twitter": 5534,
      "fin": 5535,
      "Ġfif": 5536,
      "Ġresource": 5537,
      "Ġpushing": 5538,
      "cies": 5539,
      "Ġiv": 5540,
      "rem": 5541,
      "Ġcough": 5542,
      "Ġtough": 5543,
      "Ġhun": 5544,
      "Ġnic": 5545,
      "Ġexports": 5546,
      "Ġ52": 5547,
      "Ġserved": 5548,
      "Ġissu": 5549,
      "Ġgenerate": 5550,
      "Ġlisten": 5551,
      "Ġratings": 5552,
      "Ġgrocery": 5553,
      "oning": 5554,
      "iced": 5555,
      "lets": 5556,
      "see": 5557,
      "Ġtruly": 5558,
      "Ġending": 5559,
      "Ġentered": 5560,
      "Ġrelationships": 5561,
      "Ġframework": 5562,
      "Ġod": 5563,
      "Ġham": 5564,
      "Ġexhib": 5565,
      "eless": 5566,
      "Ġreck": 5567,
      "Ġplayer": 5568,
      "Ġaims": 5569,
      "Ġprocedures": 5570,
      "56": 5571,
      "car": 5572,
      "Ġwip": 5573,
      "Ġproper": 5574,
      "Ġresc": 5575,
      "Ġ58": 5576,
      "Ġyounger": 5577,
      "Ġrespondents": 5578,
      "Ġhouseholds": 5579,
      "har": 5580,
      "ih": 5581,
      "Ġoh": 5582,
      "itory": 5583,
      "igen": 5584,
      "Ġleverage": 5585,
      "Ġflows": 5586,
      "Ġitalian": 5587,
      "elect": 5588,
      "Ġpetro": 5589,
      "world": 5590,
      "Ġbecomes": 5591,
      "73": 5592,
      "Ġerr": 5593,
      "ita": 5594,
      "Ġmount": 5595,
      "Ġjul": 5596,
      "being": 5597,
      "Ġwid": 5598,
      "Ġmerc": 5599,
      "Ġshr": 5600,
      "Ġrecovered": 5601,
      "Ġspeak": 5602,
      "Ġaudience": 5603,
      "business": 5604,
      "Ġcomponents": 5605,
      "Ġpipeline": 5606,
      "Ġprotocols": 5607,
      "Ġnuc": 5608,
      "Ġfacts": 5609,
      "Ġdifferences": 5610,
      "Ġpersonnel": 5611,
      "Ġadjustments": 5612,
      "Ġcuomo": 5613,
      "Ġreconcil": 5614,
      "Ġsubstantial": 5615,
      "Ġemphas": 5616,
      "flow": 5617,
      "Ġsole": 5618,
      "Ġjoined": 5619,
      "Ġalongside": 5620,
      "Ġmaintaining": 5621,
      "Ġdetermined": 5622,
      "mart": 5623,
      "iny": 5624,
      "ipped": 5625,
      "Ġwouldn": 5626,
      "Ġadditionally": 5627,
      "Ġstreets": 5628,
      "Ġachieved": 5629,
      "Ġenhance": 5630,
      "Ġproposal": 5631,
      "Ġciting": 5632,
      "Ġnames": 5633,
      "Ġspoke": 5634,
      "Ġfintech": 5635,
      "Ã§Ãµes": 5636,
      "Ġheavy": 5637,
      "nr": 5638,
      "sen": 5639,
      "Ã¼": 5640,
      "Ġcatch": 5641,
      "gro": 5642,
      "nam": 5643,
      "Ġpit": 5644,
      "Ġcentury": 5645,
      "Ġinterested": 5646,
      "Ġsuccessfully": 5647,
      "Ġbenchmark": 5648,
      "orter": 5649,
      "Ġbeaut": 5650,
      "Ġchris": 5651,
      "Ġplc": 5652,
      "Ġacquisitions": 5653,
      "Ġaimed": 5654,
      "Ġscope": 5655,
      "Ġcategory": 5656,
      "Ġmm": 5657,
      "Ġstable": 5658,
      "Ġsea": 5659,
      "Ġtrain": 5660,
      "Ġagend": 5661,
      "Ġ99": 5662,
      "Ġshareholder": 5663,
      "Ġtalent": 5664,
      "Ġbooster": 5665,
      "Ġindeed": 5666,
      "free": 5667,
      "pacific": 5668,
      "itarian": 5669,
      "Ġmd": 5670,
      "stream": 5671,
      "ube": 5672,
      "Ġgrade": 5673,
      "Ġhumans": 5674,
      "Ġcutting": 5675,
      "Ġintegration": 5676,
      "Ġpanel": 5677,
      "Ġschedule": 5678,
      "Ġincorpor": 5679,
      "Ġast": 5680,
      "aration": 5681,
      "Ġgender": 5682,
      "Ġstan": 5683,
      "aciÃ³n": 5684,
      "Ġesg": 5685,
      "Ġhandle": 5686,
      "Ġvictor": 5687,
      "Ġencourage": 5688,
      "Ġdiluted": 5689,
      "Ġsin": 5690,
      "osh": 5691,
      "Ġlosing": 5692,
      "Ġdelayed": 5693,
      "Ã±": 5694,
      "Ġsought": 5695,
      "Ġundert": 5696,
      "Ġcloser": 5697,
      "Ġattributable": 5698,
      "Ġinteresting": 5699,
      "Ġordered": 5700,
      "Ġvoice": 5701,
      "information": 5702,
      "Ġrig": 5703,
      "Ġwhom": 5704,
      "Ġrout": 5705,
      "wards": 5706,
      "Ġaffairs": 5707,
      "Ġremotely": 5708,
      "iers": 5709,
      "Ġwife": 5710,
      "Ġfine": 5711,
      "Ġborders": 5712,
      "Ġhus": 5713,
      "Ġeconomics": 5714,
      "Ġzone": 5715,
      "Ġsky": 5716,
      "Ġelsewhere": 5717,
      "Ġtesla": 5718,
      "mn": 5719,
      "ympt": 5720,
      "ĠÃ©": 5721,
      "Ġbure": 5722,
      "Ġ53": 5723,
      "iana": 5724,
      "Ġcarried": 5725,
      "Ġcontribution": 5726,
      "Ġsatisf": 5727,
      "bu": 5728,
      "Ġconven": 5729,
      "Ġincent": 5730,
      "Ġadm": 5731,
      "Ġdatab": 5732,
      "Ġheavily": 5733,
      "iro": 5734,
      "ti": 5735,
      "Ġcfo": 5736,
      "Ġeld": 5737,
      "romb": 5738,
      "Ġplastic": 5739,
      "Ġensuring": 5740,
      "Ġeligible": 5741,
      "wing": 5742,
      "Ġaz": 5743,
      "Ġdani": 5744,
      "Ġstation": 5745,
      "Ġ59": 5746,
      "Ġ2013": 5747,
      "Ġdiscussions": 5748,
      "Ġmargins": 5749,
      "fr": 5750,
      "Ġopp": 5751,
      "Ġimplic": 5752,
      "Ġgovernance": 5753,
      "Ġtechnavio": 5754,
      "Ġthom": 5755,
      "level": 5756,
      "Ġprove": 5757,
      "Ġrail": 5758,
      "izations": 5759,
      "Ġsurround": 5760,
      "Ġruns": 5761,
      "what": 5762,
      "Ġdivers": 5763,
      "emy": 5764,
      "Ġunknown": 5765,
      "ughter": 5766,
      "Ġresilience": 5767,
      "Ġchapter": 5768,
      "Ġbuildings": 5769,
      "Ġbelieved": 5770,
      "Ġappoint": 5771,
      "Ġpermanent": 5772,
      "08": 5773,
      "Ġwhate": 5774,
      "Ġaged": 5775,
      "Ġbrown": 5776,
      "ront": 5777,
      "Ġspokesman": 5778,
      "Ġanimal": 5779,
      "Ġcreative": 5780,
      "respond": 5781,
      "Ġluxury": 5782,
      "Ġwhatever": 5783,
      "Ġtons": 5784,
      "onom": 5785,
      "star": 5786,
      "Ġcoff": 5787,
      "Ġamend": 5788,
      "Ġpartially": 5789,
      "comp": 5790,
      "Ġfilings": 5791,
      "Ġwatching": 5792,
      "Ġmoderate": 5793,
      "Ġfulf": 5794,
      "Ġturning": 5795,
      "Ġalleged": 5796,
      "Ġinequ": 5797,
      "asc": 5798,
      "Ġadequ": 5799,
      "Ġdispos": 5800,
      "Ġcere": 5801,
      "Ġimplementation": 5802,
      "Ġaer": 5803,
      "Ġproud": 5804,
      "Ġupcoming": 5805,
      "Ġinvested": 5806,
      "Ġboeing": 5807,
      "Ġvalid": 5808,
      "Ġshops": 5809,
      "Ġfamiliar": 5810,
      "Ġobserv": 5811,
      "Ġpodcast": 5812,
      "called": 5813,
      "Ġwake": 5814,
      "Ġrely": 5815,
      "Ġexpanding": 5816,
      "Ġsufficient": 5817,
      "Ġdedicated": 5818,
      "Ġticket": 5819,
      "inet": 5820,
      "Ġprosecut": 5821,
      "Ġhighs": 5822,
      "Ġdownturn": 5823,
      "Ġstopped": 5824,
      "Ġpostponed": 5825,
      "bing": 5826,
      "Ġrecip": 5827,
      "Ġscore": 5828,
      "Ġpurposes": 5829,
      "ymptomatic": 5830,
      "04": 5831,
      "Ġbear": 5832,
      "alls": 5833,
      "Ġ54": 5834,
      "Ġ57": 5835,
      "Ġimpair": 5836,
      "Ġtwice": 5837,
      "ologist": 5838,
      "Ġskift": 5839,
      "Ġarrange": 5840,
      "Ġhybr": 5841,
      "Ġacademic": 5842,
      "win": 5843,
      "Ġportion": 5844,
      "Ġcontacts": 5845,
      "Ġrepresentative": 5846,
      "Ġflexibility": 5847,
      "Ġsyndrome": 5848,
      "Ġamortization": 5849,
      "Ġcargo": 5850,
      "isol": 5851,
      "Ġpregn": 5852,
      "Ġhospitalized": 5853,
      "Ġthousand": 5854,
      "Ġshipping": 5855,
      "Ġmandate": 5856,
      "Ġepidemi": 5857,
      "Ġcalculated": 5858,
      "ĠÙĪ": 5859,
      "Ġdirection": 5860,
      "apping": 5861,
      "Ġresulted": 5862,
      "Ġpromise": 5863,
      "Ġselected": 5864,
      "Ġsweden": 5865,
      "Ġwitness": 5866,
      "Ġalleg": 5867,
      "Ġscot": 5868,
      "Ġfollows": 5869,
      "Ġcrew": 5870,
      "Ġrestruct": 5871,
      "Ġsum": 5872,
      "abil": 5873,
      "Ġwonder": 5874,
      "Ġfreight": 5875,
      "Ġlaboratory": 5876,
      "men": 5877,
      "Â®": 5878,
      "Ġmild": 5879,
      "Ġ].": 5880,
      "Ġholds": 5881,
      "Ġexperiencing": 5882,
      "Ġera": 5883,
      "Ġfrank": 5884,
      "ucks": 5885,
      "Ġrequiring": 5886,
      "Ġelev": 5887,
      "03": 5888,
      "worth": 5889,
      "aint": 5890,
      "Ġcorrespond": 5891,
      "Ġregistration": 5892,
      "ils": 5893,
      "Ġsciences": 5894,
      "Ġ69": 5895,
      "Ġsurprise": 5896,
      "Ġboris": 5897,
      "Ġstruggle": 5898,
      "58": 5899,
      "quality": 5900,
      "Ġtracing": 5901,
      "Ġpowell": 5902,
      "Ġparent": 5903,
      "Ġoccup": 5904,
      "Ġadopted": 5905,
      "Ġsubsequent": 5906,
      "Ġagenda": 5907,
      "ÑĤ": 5908,
      "Ġsam": 5909,
      "iter": 5910,
      "Ġlending": 5911,
      "Ġrural": 5912,
      "Ġknew": 5913,
      "ressed": 5914,
      "Ġstream": 5915,
      "Ġsuffered": 5916,
      "sp": 5917,
      "conn": 5918,
      "Ġsurf": 5919,
      "Ġnewsp": 5920,
      "Ġ250": 5921,
      "Ġvictory": 5922,
      "fortun": 5923,
      "Ġchemical": 5924,
      "Ġdial": 5925,
      "Ġhearing": 5926,
      "Ġchronic": 5927,
      "Ġresume": 5928,
      "Ġcouldn": 5929,
      "anged": 5930,
      "Ġcombat": 5931,
      "Ġfemale": 5932,
      "07": 5933,
      "Ġhab": 5934,
      "ques": 5935,
      "Ġafterno": 5936,
      "Ġexperiment": 5937,
      "Ġcybers": 5938,
      "Ġexpensive": 5939,
      "Ġencouraging": 5940,
      "Ġcoup": 5941,
      "audited": 5942,
      "Ġobserved": 5943,
      "Ãª": 5944,
      "Ġoce": 5945,
      "oted": 5946,
      "Ġvary": 5947,
      "Ġworry": 5948,
      "Ġfeb": 5949,
      "Ġinflamm": 5950,
      "Ġphilipp": 5951,
      "Ġrandom": 5952,
      "Ġdisinfect": 5953,
      "Ġrom": 5954,
      "ulate": 5955,
      "Ġkim": 5956,
      "kets": 5957,
      "Ġdisaster": 5958,
      "Ã©s": 5959,
      "Ġfallen": 5960,
      "Ġchecks": 5961,
      "Ġcooperation": 5962,
      "Ġafternoon": 5963,
      "ii": 5964,
      "Ġul": 5965,
      "imited": 5966,
      "Ġride": 5967,
      "Ġunaudited": 5968,
      "Ġcarol": 5969,
      "Ġapplicable": 5970,
      "Ġthreats": 5971,
      "Ġenforcement": 5972,
      "alities": 5973,
      "iling": 5974,
      "state": 5975,
      "igan": 5976,
      "Ġka": 5977,
      "Ġembr": 5978,
      "Ġ76": 5979,
      "Ġvaluable": 5980,
      "Ġlanguage": 5981,
      "oqu": 5982,
      "Ġft": 5983,
      "uty": 5984,
      "Ġassociate": 5985,
      "Ġengagement": 5986,
      "Ġcommodity": 5987,
      "Ġpul": 5988,
      "Ġassemb": 5989,
      "isted": 5990,
      "Ġroles": 5991,
      "Ġdepreciation": 5992,
      "Ġdefic": 5993,
      "print": 5994,
      "ml": 5995,
      "ili": 5996,
      "Ġgard": 5997,
      "iminal": 5998,
      "Ġunfortun": 5999,
      "ivals": 6000,
      "Ġpover": 6001,
      "Ġ62": 6002,
      "Ġ68": 6003,
      "Ġeverybody": 6004,
      "Ġretailer": 6005,
      "Ġpromote": 6006,
      "ows": 6007,
      "Ġrock": 6008,
      "Ġdesper": 6009,
      "ateral": 6010,
      "Ġsmith": 6011,
      "Ġguide": 6012,
      "Ġattor": 6013,
      "Ġjourney": 6014,
      "Ġextraordin": 6015,
      "Ġminority": 6016,
      "Ġpoverty": 6017,
      "Ġryan": 6018,
      "Ġ67": 6019,
      "Ġvaluation": 6020,
      "Ġ140": 6021,
      "Ġsummit": 6022,
      "Ġintegrity": 6023,
      "Ġoverseas": 6024,
      "arent": 6025,
      "Ø¨": 6026,
      "Ġbon": 6027,
      "ersey": 6028,
      "sey": 6029,
      "Ġjpy": 6030,
      "loyd": 6031,
      "Ġmiles": 6032,
      "Ġdeposits": 6033,
      "bai": 6034,
      "iding": 6035,
      "uster": 6036,
      "Ġquarters": 6037,
      "rick": 6038,
      "Ġtelevision": 6039,
      "Ġobligation": 6040,
      "Ġolympics": 6041,
      "stein": 6042,
      "Ġprocure": 6043,
      "02": 6044,
      "Ġbought": 6045,
      "Ġalliance": 6046,
      "Ġfacilit": 6047,
      "Ġprotecting": 6048,
      "Ġfurl": 6049,
      "Ġhappens": 6050,
      "Ġpreca": 6051,
      "Ġsleep": 6052,
      "organ": 6053,
      "Ġprel": 6054,
      "Ġfrustr": 6055,
      "Ġsurface": 6056,
      "Ġaviation": 6057,
      "plant": 6058,
      "Ġtreated": 6059,
      "Ġtensions": 6060,
      "ez": 6061,
      "Ġfile": 6062,
      "ashed": 6063,
      "oming": 6064,
      "ogen": 6065,
      "Ġemer": 6066,
      "ikes": 6067,
      "Ġba": 6068,
      "aro": 6069,
      "Ġkick": 6070,
      "Ġdisplay": 6071,
      "icef": 6072,
      "Ġrollout": 6073,
      "iminary": 6074,
      "Ġdaniel": 6075,
      "pat": 6076,
      "Ġmakers": 6077,
      "Ġabb": 6078,
      "Ġ2023": 6079,
      "Ġdoor": 6080,
      "Ġearn": 6081,
      "Ġaccordance": 6082,
      "Ġbelief": 6083,
      "Ġintegrated": 6084,
      "Ġrequested": 6085,
      "Ġnecessarily": 6086,
      "Ġtelling": 6087,
      "Ġmitigate": 6088,
      "Ġurgent": 6089,
      "Ġeb": 6090,
      "Ġapparent": 6091,
      "Ġfeels": 6092,
      "Ġgenetic": 6093,
      "Ġbankrupt": 6094,
      "Ġtraders": 6095,
      "Ġauthorization": 6096,
      "Ġvisits": 6097,
      "Ġcollected": 6098,
      "Ġjudge": 6099,
      "Ġdetection": 6100,
      "Ġpopulations": 6101,
      "Ġoxford": 6102,
      "ØĮ": 6103,
      "Ġbail": 6104,
      "Ġhou": 6105,
      "Ġword": 6106,
      "Ġko": 6107,
      "Ġimposs": 6108,
      "Ġtravelers": 6109,
      "prises": 6110,
      "Ġarticles": 6111,
      "Ġarabia": 6112,
      "Ġindoor": 6113,
      "fa": 6114,
      "eries": 6115,
      "itz": 6116,
      "Ġjersey": 6117,
      "Ġcann": 6118,
      "Ġ79": 6119,
      "Ġevening": 6120,
      "sels": 6121,
      "Ġblog": 6122,
      "Ġsuffering": 6123,
      "draw": 6124,
      "profit": 6125,
      "Ġpredicted": 6126,
      "Ġfrancisco": 6127,
      "cher": 6128,
      "Ġhill": 6129,
      "Ġnut": 6130,
      "Ġviruses": 6131,
      "Ġcarriers": 6132,
      "Ġedge": 6133,
      "Ġorganisation": 6134,
      "Ġunlimited": 6135,
      "Ġeditorial": 6136,
      "iatric": 6137,
      "oquine": 6138,
      "Ġaware": 6139,
      "inder": 6140,
      "inary": 6141,
      "Ġsad": 6142,
      "ayer": 6143,
      "adium": 6144,
      "apse": 6145,
      "Ġoutcome": 6146,
      "Ġrecr": 6147,
      "Ġ72": 6148,
      "ghan": 6149,
      "Ġrepro": 6150,
      "Ġstreaming": 6151,
      "Ġwales": 6152,
      "Ġgranted": 6153,
      "loroquine": 6154,
      "Ġpreliminary": 6155,
      "lam": 6156,
      "Ñģ": 6157,
      "Ø³": 6158,
      "Ġbub": 6159,
      "Ġthromb": 6160,
      "rencies": 6161,
      "Ġ64": 6162,
      "Ġbrother": 6163,
      "Ġindicated": 6164,
      "Ġlicense": 6165,
      "Ġdisappo": 6166,
      "Ġhybrid": 6167,
      "Ġsong": 6168,
      "Ġlag": 6169,
      "lett": 6170,
      "Ġonto": 6171,
      "igned": 6172,
      "Ġoperators": 6173,
      "Ġharder": 6174,
      "Ġadministrative": 6175,
      "Ġnormally": 6176,
      "Ġepis": 6177,
      "Ġphotograp": 6178,
      "Ġencouraged": 6179,
      "Ġoptimistic": 6180,
      "Ġmotor": 6181,
      "Ġradio": 6182,
      "Ġinstruct": 6183,
      "Ġcomposite": 6184,
      "Ġware": 6185,
      "Ġhyp": 6186,
      "Ġconcept": 6187,
      "Ġvaccinations": 6188,
      "Ġobama": 6189,
      "cribe": 6190,
      "Ġlisted": 6191,
      "Ġdividends": 6192,
      "Ġassistant": 6193,
      "Ġequivalent": 6194,
      "Ġresidential": 6195,
      "Ġbegun": 6196,
      "Ġimpossible": 6197,
      "don": 6198,
      "Ġluc": 6199,
      "Ġunexpected": 6200,
      "ecurity": 6201,
      "Ġcontribute": 6202,
      "Ġpointed": 6203,
      "Ġdozens": 6204,
      "Ġfill": 6205,
      "anda": 6206,
      "Ġmeat": 6207,
      "offs": 6208,
      "Ġnegotiations": 6209,
      "Ġmerger": 6210,
      "Ġdriver": 6211,
      "Ġpublish": 6212,
      "Ġcybersecurity": 6213,
      "ci": 6214,
      "eu": 6215,
      "lim": 6216,
      "erly": 6217,
      "Ġpm": 6218,
      "itis": 6219,
      "Ġmist": 6220,
      "Ġasymptomatic": 6221,
      "Ġfeet": 6222,
      "Ġdemocracy": 6223,
      "Ġpartnerships": 6224,
      "Ġcausing": 6225,
      "Ġreasonable": 6226,
      "Ġobligations": 6227,
      "Ġobtained": 6228,
      "Ġacknowled": 6229,
      "Ġticker": 6230,
      "Ġfab": 6231,
      "aria": 6232,
      "using": 6233,
      "Ġwithdraw": 6234,
      "Ġcolomb": 6235,
      "Ġsummary": 6236,
      "Ġbatter": 6237,
      "Ġentirely": 6238,
      "gl": 6239,
      "light": 6240,
      "Ġwis": 6241,
      "asion": 6242,
      "Ġprin": 6243,
      "Ġanalyz": 6244,
      "minent": 6245,
      "rier": 6246,
      "Ġstaying": 6247,
      "ommod": 6248,
      "Ġreflects": 6249,
      "Ġaudio": 6250,
      "Ġverified": 6251,
      "Ġrecognized": 6252,
      "Ġanimals": 6253,
      "vaccinated": 6254,
      "Ġtransparency": 6255,
      "top": 6256,
      "uate": 6257,
      "Ġeasing": 6258,
      "Ġgall": 6259,
      "quo": 6260,
      "acted": 6261,
      "Ġserving": 6262,
      "Ġplanet": 6263,
      "Ġregulators": 6264,
      "Ġanswers": 6265,
      "Ġcategories": 6266,
      "Ġscenarios": 6267,
      "reprene": 6268,
      "Ġreliable": 6269,
      "rc": 6270,
      "tok": 6271,
      "zz": 6272,
      "Ġfy": 6273,
      "Ġreference": 6274,
      "Ġweigh": 6275,
      "through": 6276,
      "Ġfrag": 6277,
      "Ġcarrying": 6278,
      "Ġcancelled": 6279,
      "Ġmagaz": 6280,
      "Ġhusband": 6281,
      "Ã¶": 6282,
      "tra": 6283,
      "Ġempt": 6284,
      "lix": 6285,
      "Ġbackground": 6286,
      "Ġllc": 6287,
      "Ġdynamics": 6288,
      "Ġalgor": 6289,
      "rid": 6290,
      "wear": 6291,
      "watch": 6292,
      "Ð½": 6293,
      "ctional": 6294,
      "Ġmole": 6295,
      "osystem": 6296,
      "kel": 6297,
      "Ġabuse": 6298,
      "Ġintensive": 6299,
      "2027": 6300,
      "Ġlocated": 6301,
      "Ġspreads": 6302,
      "Ġxi": 6303,
      "Ġmethods": 6304,
      "Ġstakeholders": 6305,
      "Ġconflict": 6306,
      "bel": 6307,
      "hire": 6308,
      "ius": 6309,
      "nic": 6310,
      "xit": 6311,
      "Ġgy": 6312,
      "Ġshang": 6313,
      "Ġentreprene": 6314,
      "Ġreserves": 6315,
      "Ġtap": 6316,
      "ato": 6317,
      "Ġpin": 6318,
      "Ġexcell": 6319,
      "Ġjim": 6320,
      "Ġwors": 6321,
      "Ġaccommod": 6322,
      "Ġcrime": 6323,
      "Ġinfo": 6324,
      "Ġjoining": 6325,
      "Ġpublication": 6326,
      "Ġrealized": 6327,
      "Ġliter": 6328,
      "Ġvirgin": 6329,
      "Ġsubscriber": 6330,
      "Ġrestructuring": 6331,
      "Ġalgorith": 6332,
      "real": 6333,
      "ician": 6334,
      "iger": 6335,
      "illance": 6336,
      "aints": 6337,
      "Ġcontag": 6338,
      "Ġmont": 6339,
      "Ġremo": 6340,
      "Ġministers": 6341,
      "comm": 6342,
      "Ġaircraft": 6343,
      "Ġrequests": 6344,
      "Ġvictims": 6345,
      "controll": 6346,
      "Ġthomas": 6347,
      "itt": 6348,
      "Ġmail": 6349,
      "ira": 6350,
      "ulf": 6351,
      "Ġcha": 6352,
      "Ġshoot": 6353,
      "ibutions": 6354,
      "Ġcriminal": 6355,
      "enced": 6356,
      "Ġextensive": 6357,
      "Ġintrodu": 6358,
      "Ġsharply": 6359,
      "hai": 6360,
      "Ġtail": 6361,
      "ala": 6362,
      "Ġresum": 6363,
      "Ġnumerous": 6364,
      "Ġposting": 6365,
      "Ġsuite": 6366,
      "Ġswit": 6367,
      "Ġcanceled": 6368,
      "Ġmandates": 6369,
      "markets": 6370,
      "Ġpassenger": 6371,
      "Ġbow": 6372,
      "Ġanth": 6373,
      "Ġproven": 6374,
      "Ġjet": 6375,
      "lihood": 6376,
      "Ġdevelopers": 6377,
      "Ġ2009": 6378,
      "Ġcycle": 6379,
      "Ġsteel": 6380,
      "Ġdiverse": 6381,
      "Ġmandatory": 6382,
      "Ġchannels": 6383,
      "ÙģÙĬ": 6384,
      "itative": 6385,
      "Ġlength": 6386,
      "Ġnewly": 6387,
      "Ġdiscr": 6388,
      "Ġcentres": 6389,
      "Ġkilling": 6390,
      "Ġdefinitely": 6391,
      "Ġnuclear": 6392,
      "wind": 6393,
      "Ġci": 6394,
      "Ġwider": 6395,
      "ari": 6396,
      "âĢĭ": 6397,
      "Ġunicef": 6398,
      "elled": 6399,
      "Ġveter": 6400,
      "Ġmorgan": 6401,
      "Ġskin": 6402,
      "Ġguardian": 6403,
      "98": 6404,
      "Ġfly": 6405,
      "Ġmaker": 6406,
      "Ġheight": 6407,
      "Ġrival": 6408,
      "Ġcomprom": 6409,
      "iber": 6410,
      "Ġmuse": 6411,
      "Ġclaimed": 6412,
      "Ġcriteria": 6413,
      "Ġseriously": 6414,
      "Ġcovering": 6415,
      "Ġmerch": 6416,
      "iot": 6417,
      "ashing": 6418,
      "Ġheat": 6419,
      "Ġlee": 6420,
      "ttp": 6421,
      "Ġcontrols": 6422,
      "kin": 6423,
      "Ġblow": 6424,
      "leading": 6425,
      "Ġstands": 6426,
      "Ġplun": 6427,
      "Ġapprec": 6428,
      "Ġoperates": 6429,
      "Ġswitch": 6430,
      "Ġpromising": 6431,
      "Ġwinning": 6432,
      "Ġsanctions": 6433,
      "Ġenterprises": 6434,
      "Ġstarts": 6435,
      "Ġaccurate": 6436,
      "Ġuber": 6437,
      "Ġcoffee": 6438,
      "Ġpun": 6439,
      "Ġly": 6440,
      "imp": 6441,
      "Ġyouth": 6442,
      "Ġ73": 6443,
      "Ġcontrast": 6444,
      "Ġconsideration": 6445,
      "Ġpersist": 6446,
      "Ġanticipate": 6447,
      "Ġecosystem": 6448,
      "Ġproceeds": 6449,
      "Ġcycling": 6450,
      "Ġorganisations": 6451,
      "Ġtherapeutics": 6452,
      "aq": 6453,
      "Ġazer": 6454,
      "ena": 6455,
      "ĠâĢĭ": 6456,
      "Ġintel": 6457,
      "Ġstrike": 6458,
      "feren": 6459,
      "Ġboy": 6460,
      "Ġdepending": 6461,
      "athan": 6462,
      "Ġmaster": 6463,
      "Ġheadqu": 6464,
      "Ġcomparison": 6465,
      "Ġsurvive": 6466,
      "Ġnavigate": 6467,
      "Ġilleg": 6468,
      "Ġanxiety": 6469,
      "bank": 6470,
      "ko": 6471,
      "Ġhiv": 6472,
      "Ġbell": 6473,
      "Ġalert": 6474,
      "Ġchip": 6475,
      "Ġsupports": 6476,
      "Ġlifted": 6477,
      "Ġfounded": 6478,
      "Ġlimits": 6479,
      "Ġviet": 6480,
      "Ġreaching": 6481,
      "Ġownership": 6482,
      "Ġmartin": 6483,
      "64": 6484,
      "800": 6485,
      "coun": 6486,
      "Ġther": 6487,
      "Ġuna": 6488,
      "Ġetc": 6489,
      "Ġunclear": 6490,
      "Ġparticipate": 6491,
      "Ġbreakdown": 6492,
      "Ġterritory": 6493,
      "Ġdeadly": 6494,
      "Ġfifth": 6495,
      "like": 6496,
      "ville": 6497,
      "Ġneither": 6498,
      "Ġadmitted": 6499,
      "Ġrelax": 6500,
      "Ġstret": 6501,
      "Ġpriorities": 6502,
      "ucky": 6503,
      "Ġmedicines": 6504,
      "ĠØ£": 6505,
      "Ġolympic": 6506,
      "Ġtonnes": 6507,
      "Ġconstitution": 6508,
      "Ġnewspaper": 6509,
      "Ġprocurement": 6510,
      "hered": 6511,
      "Ġsir": 6512,
      "Ġcup": 6513,
      "edia": 6514,
      "iser": 6515,
      "oma": 6516,
      "Ġoverview": 6517,
      "Ġcommer": 6518,
      "tenance": 6519,
      "Ġstrongly": 6520,
      "risk": 6521,
      "Ġrecognition": 6522,
      "Ġinstitutional": 6523,
      "Ġextraordinary": 6524,
      "Ġemerge": 6525,
      "cn": 6526,
      "chen": 6527,
      "kes": 6528,
      "rey": 6529,
      "Ġsurged": 6530,
      "Ġsupporters": 6531,
      "Ġdeputy": 6532,
      "Ġforms": 6533,
      "Ġequal": 6534,
      "Ġfactory": 6535,
      "Ġheading": 6536,
      "Ġmatt": 6537,
      "Ġfiling": 6538,
      "Ġhoping": 6539,
      "Ġsurveillance": 6540,
      "Ġreflecting": 6541,
      "Ġprovisions": 6542,
      "Ġingred": 6543,
      "Ġpap": 6544,
      "Ġves": 6545,
      "Ġ120": 6546,
      "americ": 6547,
      "than": 6548,
      "essions": 6549,
      "alling": 6550,
      "Ġopec": 6551,
      "Ġdry": 6552,
      "Ġpossibly": 6553,
      "rowing": 6554,
      "Ġprofitability": 6555,
      "Ġwalmart": 6556,
      "Ġrichard": 6557,
      "ja": 6558,
      "atures": 6559,
      "Ġhaw": 6560,
      "Ġhttp": 6561,
      "Ġreaction": 6562,
      "ula": 6563,
      "Ġrelating": 6564,
      "Ġrestart": 6565,
      "Ġ2010": 6566,
      "Ġentering": 6567,
      "Ġenglish": 6568,
      "Ġsitting": 6569,
      "Ġprojections": 6570,
      "Ġproducer": 6571,
      "Ġexcited": 6572,
      "Ġathletes": 6573,
      "run": 6574,
      "china": 6575,
      "Ġproductivity": 6576,
      "Ġ74": 6577,
      "Ġdetected": 6578,
      "Ġelectricity": 6579,
      "Ġrevolution": 6580,
      "cs": 6581,
      "gers": 6582,
      "iams": 6583,
      "Ã´": 6584,
      "Ġwage": 6585,
      "Ġbike": 6586,
      "Ġmarks": 6587,
      "Ġovernight": 6588,
      "Ġariz": 6589,
      "Ġunderst": 6590,
      "Ġremove": 6591,
      "cohol": 6592,
      "Ġaccessible": 6593,
      "Ġimports": 6594,
      "Ġoutdoor": 6595,
      "Ġazerbai": 6596,
      "Ġtan": 6597,
      "reness": 6598,
      "Ġcancel": 6599,
      "Ġcultural": 6600,
      "Ġcookies": 6601,
      "Ġallocation": 6602,
      "Ġexpenditures": 6603,
      "Ġreligious": 6604,
      "gas": 6605,
      "making": 6606,
      "ray": 6607,
      "Ġhk": 6608,
      "Ġnur": 6609,
      "Ġstick": 6610,
      "Ġwilliam": 6611,
      "Ġ61": 6612,
      "Ġgrown": 6613,
      "coin": 6614,
      "Ġinformed": 6615,
      "Ġelectron": 6616,
      "Ġslowly": 6617,
      "Ġarrived": 6618,
      "Ġhurric": 6619,
      "gov": 6620,
      "serv": 6621,
      "ui": 6622,
      "Ġcp": 6623,
      "Ġchurch": 6624,
      "Ġshape": 6625,
      "Ġourselves": 6626,
      "Ġcreation": 6627,
      "Ġofferor": 6628,
      "Ġscreening": 6629,
      "Ġfestival": 6630,
      "Ġimpairment": 6631,
      "pir": 6632,
      "will": 6633,
      "Ġcov": 6634,
      "Ġbroadcast": 6635,
      "Ġclosure": 6636,
      "Ġcommentary": 6637,
      "Ġmessages": 6638,
      "sk": 6639,
      "sch": 6640,
      "Ġtun": 6641,
      "Ġbes": 6642,
      "umn": 6643,
      "Ġmetal": 6644,
      "Ġcontrovers": 6645,
      "Ġpharma": 6646,
      "Ġuniversities": 6647,
      "Ġattorney": 6648,
      "68": 6649,
      "aid": 6650,
      "dney": 6651,
      "rees": 6652,
      "cel": 6653,
      "Ġdemands": 6654,
      "Ġpayroll": 6655,
      "Ġcollective": 6656,
      "Ġimplications": 6657,
      "Ġmagazine": 6658,
      "Ġmuseum": 6659,
      "rative": 6660,
      "inger": 6661,
      "Ġrain": 6662,
      "Ġexempt": 6663,
      "Ġelected": 6664,
      "Ġlitigation": 6665,
      "Ġdaughter": 6666,
      "Ġsuggesting": 6667,
      "scale": 6668,
      "Ġventures": 6669,
      "Ã¡s": 6670,
      "Ġoccurred": 6671,
      "Ġranked": 6672,
      "Ġhighlighted": 6673,
      "Ġscotland": 6674,
      ".-": 6675,
      "ae": 6676,
      "dig": 6677,
      "econom": 6678,
      "Ġwish": 6679,
      "Ġfloyd": 6680,
      "Ġgun": 6681,
      "Ġsuperm": 6682,
      "Ġpresents": 6683,
      "Ġ89": 6684,
      "Ġseverity": 6685,
      "Ġadviser": 6686,
      "Ġjew": 6687,
      "Ġabsolutely": 6688,
      "hort": 6689,
      "pow": 6690,
      "Ġpdf": 6691,
      "usive": 6692,
      "urring": 6693,
      "Ġforum": 6694,
      "Ġyester": 6695,
      "Ġrall": 6696,
      "Ġ2025": 6697,
      "Ġindones": 6698,
      "Ġbuff": 6699,
      "Ġwells": 6700,
      "Ġguests": 6701,
      "Ġelectronic": 6702,
      "Ġelimin": 6703,
      "Ġengaged": 6704,
      "Ġextension": 6705,
      "Ġperformed": 6706,
      "Ġuniversal": 6707,
      "Ð¾Ð": 6708,
      "Ġsplit": 6709,
      "Ġshanghai": 6710,
      "Ġtiss": 6711,
      "Ġthinks": 6712,
      "chain": 6713,
      "Ġ2030": 6714,
      "Ġunvaccinated": 6715,
      "Ġshap": 6716,
      "Ġcontains": 6717,
      "Ġaggreg": 6718,
      "Ġreviews": 6719,
      "Ġhistorically": 6720,
      "Ġseemed": 6721,
      "Ġresilient": 6722,
      "57": 6723,
      "fall": 6724,
      "pres": 6725,
      "Ġice": 6726,
      "onto": 6727,
      "Ġbc": 6728,
      "Ġbrings": 6729,
      "Ġautonom": 6730,
      "Ġ2011": 6731,
      "Ġhospitality": 6732,
      "Ġmaintenance": 6733,
      "Ġlegacy": 6734,
      "Ġmobility": 6735,
      "Ġpoliticians": 6736,
      "Ġstrengthen": 6737,
      "Ġounce": 6738,
      "hand": 6739,
      "ran": 6740,
      "water": 6741,
      "ÑĢ": 6742,
      "Ġcoc": 6743,
      "oman": 6744,
      "terns": 6745,
      "Ġmonkey": 6746,
      "Ġfinish": 6747,
      "Ġslide": 6748,
      "Ġslump": 6749,
      "Ġsurveys": 6750,
      "Ġvirtually": 6751,
      "Ġphilippines": 6752,
      "Ġarizona": 6753,
      "inct": 6754,
      "Ġsor": 6755,
      "isan": 6756,
      "Ġproxy": 6757,
      "Ġdoors": 6758,
      "Ġ71": 6759,
      "Ġ87": 6760,
      "Ġowns": 6761,
      "erring": 6762,
      "Ġbillions": 6763,
      "ubscribe": 6764,
      "Ġmachines": 6765,
      "Ġtackle": 6766,
      "Ġyesterday": 6767,
      "dem": 6768,
      "flix": 6769,
      "glob": 6770,
      "hor": 6771,
      "tar": 6772,
      "vi": 6773,
      "igue": 6774,
      "Ġhes": 6775,
      "Ġreportedly": 6776,
      "ÃŃa": 6777,
      "Ġcancell": 6778,
      "Ġfox": 6779,
      "Ġhair": 6780,
      "Ġlu": 6781,
      "amin": 6782,
      "Ġyout": 6783,
      "Ġplenty": 6784,
      "Ġenroll": 6785,
      "Ġsymb": 6786,
      "Ġtransplant": 6787,
      "Ġpatterns": 6788,
      "Ġprotected": 6789,
      "Ġtargeting": 6790,
      "Ġsimilarly": 6791,
      "Ġintroduction": 6792,
      "Ġocean": 6793,
      "Ġempty": 6794,
      "mates": 6795,
      "Ġdav": 6796,
      "Ġworries": 6797,
      "Ġkid": 6798,
      "Ġoutlined": 6799,
      "Ġ77": 6800,
      "Ġbooks": 6801,
      "Ġofferings": 6802,
      "Ġresponded": 6803,
      "Ġdeeply": 6804,
      "Ġunders": 6805,
      "Ġhurt": 6806,
      "Ġrescue": 6807,
      "ints": 6808,
      "Ġcinem": 6809,
      "Ġpiv": 6810,
      "oral": 6811,
      "Ġmir": 6812,
      "illy": 6813,
      "Ġbeach": 6814,
      "acer": 6815,
      "Ġcapit": 6816,
      "angible": 6817,
      "ifications": 6818,
      "Ġbelg": 6819,
      "beat": 6820,
      "Ġsteady": 6821,
      "Ġdeclines": 6822,
      "Ġpreparing": 6823,
      "Ġvotes": 6824,
      "Ġinvolving": 6825,
      "Ġventilators": 6826,
      "Ġspanish": 6827,
      "Ġcards": 6828,
      "icts": 6829,
      "Ġni": 6830,
      "Ġmarc": 6831,
      "Ġeffectiveness": 6832,
      "Ġvideos": 6833,
      "Ġshoppers": 6834,
      "Ġdisclosure": 6835,
      "Ġawareness": 6836,
      "Ġbn": 6837,
      "Ġyen": 6838,
      "ache": 6839,
      "Ġusage": 6840,
      "Ġallies": 6841,
      "Ġrooms": 6842,
      "ductions": 6843,
      "inking": 6844,
      "Ġ86": 6845,
      "Ġbacked": 6846,
      "Ġstephen": 6847,
      "Ġrolling": 6848,
      "onym": 6849,
      "Ġclimbed": 6850,
      "Ġacademy": 6851,
      "Ġcomfortable": 6852,
      "Ġtariff": 6853,
      "Ġbehaviour": 6854,
      "Ġelderly": 6855,
      "lis": 6856,
      "maker": 6857,
      "pet": 6858,
      "Ġig": 6859,
      "Ġfro": 6860,
      "Ġdre": 6861,
      "urred": 6862,
      "izon": 6863,
      "Ġacting": 6864,
      "Ġ63": 6865,
      "Ġsydney": 6866,
      "Ġminds": 6867,
      "class": 6868,
      "Ġtraded": 6869,
      "Ġlabs": 6870,
      "Ġrestricted": 6871,
      "Ġrecognize": 6872,
      "driven": 6873,
      "Ġcharged": 6874,
      "Ġcommerce": 6875,
      "awn": 6876,
      "but": 6877,
      "iest": 6878,
      "Ġpounds": 6879,
      "Ġthro": 6880,
      "ando": 6881,
      "Ġjail": 6882,
      "Ġlever": 6883,
      "Ġ83": 6884,
      "Ġwarr": 6885,
      "Ġknows": 6886,
      "Ġcompetitors": 6887,
      "Ġrobot": 6888,
      "Ġtechnological": 6889,
      "Ġmetrics": 6890,
      "Ġdining": 6891,
      "icks": 6892,
      "Ġstadium": 6893,
      "Ġunve": 6894,
      "Ġbridge": 6895,
      "Ġinterv": 6896,
      "Ġdigit": 6897,
      "Ġrevised": 6898,
      "Ġdiscovery": 6899,
      "Ġpiece": 6900,
      "Ġsubsidiaries": 6901,
      "Ġdatabase": 6902,
      "Ġsanta": 6903,
      "erts": 6904,
      "Ġdas": 6905,
      "Ġtot": 6906,
      "acking": 6907,
      "Ġimper": 6908,
      "Ġcolumb": 6909,
      "Ġfocusing": 6910,
      "Ġidentity": 6911,
      "Ġexplains": 6912,
      "Ġmissed": 6913,
      "Ġregularly": 6914,
      "Ġeyes": 6915,
      "Ġunsubscribe": 6916,
      "Ġalb": 6917,
      "apol": 6918,
      "Ġmarked": 6919,
      "Ġmoreover": 6920,
      "Ġ78": 6921,
      "Ġholders": 6922,
      "Ġgoldman": 6923,
      "Ġruling": 6924,
      "Ġwrites": 6925,
      "Ġshelter": 6926,
      "Ġcarolina": 6927,
      "founder": 6928,
      "Ġske": 6929,
      "Ġlenders": 6930,
      "Ġnam": 6931,
      "Ġstem": 6932,
      "imination": 6933,
      "Ġraw": 6934,
      "Ġalt": 6935,
      "Ġgrants": 6936,
      "athy": 6937,
      "Ġstartups": 6938,
      "Ġmemor": 6939,
      "Ġlessons": 6940,
      "Ġwinner": 6941,
      "Ġreopened": 6942,
      "Ġhygi": 6943,
      "Ġfavour": 6944,
      "Ġtouching": 6945,
      "Ġbarrels": 6946,
      "Ġrepeatedly": 6947,
      "Ġreconciliation": 6948,
      "rary": 6949,
      "Ġsout": 6950,
      "Ġinject": 6951,
      "isons": 6952,
      "Ġalarm": 6953,
      "Ġrefuge": 6954,
      "Ġmetals": 6955,
      "Ġhopkins": 6956,
      "Ġdifficulty": 6957,
      "Ġparticipation": 6958,
      "Ġcaught": 6959,
      "Ġfloor": 6960,
      "Ġopinions": 6961,
      "Ġaffordable": 6962,
      "Ġmaximum": 6963,
      "Ġyoutube": 6964,
      "chloroquine": 6965,
      "Ġproportion": 6966,
      "Ġmary": 6967,
      "Ġkat": 6968,
      "Ġanywhere": 6969,
      "Ġnetflix": 6970,
      "awa": 6971,
      "Ġcollapse": 6972,
      "Ġirish": 6973,
      "Ġbrexit": 6974,
      "Ġevaluation": 6975,
      "Ġmixed": 6976,
      "Ġdeposit": 6977,
      "Ġchatb": 6978,
      "Ġdiplom": 6979,
      "Ġenabling": 6980,
      "Ġunfortunately": 6981,
      "97": 6982,
      "bid": 6983,
      "Ġbang": 6984,
      "Ġdar": 6985,
      "Ġlift": 6986,
      "Ġstrategist": 6987,
      "Ġpractical": 6988,
      "xychloroquine": 6989,
      "Ġsensors": 6990,
      "Ġnarrow": 6991,
      "Ġtweeted": 6992,
      "Ġbiontech": 6993,
      "icate": 6994,
      "Ġalcohol": 6995,
      "Ġseats": 6996,
      "Ġbrian": 6997,
      "oney": 6998,
      "Ġhumanitarian": 6999,
      "Ġcontracted": 7000,
      "Ġrental": 7001,
      "Ġsnap": 7002,
      "Ġmacron": 7003,
      "Ġarmy": 7004,
      "Ġnutr": 7005,
      "Ġanthony": 7006,
      "Ġsides": 7007,
      "roy": 7008,
      "Ġstages": 7009,
      "cho": 7010,
      "Ġjur": 7011,
      "Ġtruth": 7012,
      "Ġkel": 7013,
      "Ġsets": 7014,
      "Ġnationalities": 7015,
      "Ġcondensed": 7016,
      "Ġrequirement": 7017,
      "olson": 7018,
      "Ġbitcoin": 7019,
      "party": 7020,
      "300": 7021,
      "tail": 7022,
      "omed": 7023,
      "Ġforth": 7024,
      "Ġitem": 7025,
      "Ġconsecut": 7026,
      "Ġabroad": 7027,
      "Ġintent": 7028,
      "Ġadvised": 7029,
      "Ġsolar": 7030,
      "Ġdelhi": 7031,
      "Ġheads": 7032,
      "Ġburden": 7033,
      "Ġneighborhood": 7034,
      "52": 7035,
      "lb": 7036,
      "nc": 7037,
      "Ġcb": 7038,
      "Ġwages": 7039,
      "enza": 7040,
      "Ġfo": 7041,
      "Ġdark": 7042,
      "Ġell": 7043,
      "Ġstuff": 7044,
      "aba": 7045,
      "Ġwilliams": 7046,
      "Ġupt": 7047,
      "Ġfinished": 7048,
      "Ġdrinks": 7049,
      "Ġorganic": 7050,
      "Ġpurchasing": 7051,
      "Ġregardless": 7052,
      "Ġmeaningful": 7053,
      "Ġneighbour": 7054,
      "Ġacknowledge": 7055,
      "Ġarrested": 7056,
      "Ġsurfaces": 7057,
      "Ġhouston": 7058,
      "Ġreass": 7059,
      "Ġrevers": 7060,
      "Ġreliance": 7061,
      "idency": 7062,
      "Ġhel": 7063,
      "istical": 7064,
      "Ġbright": 7065,
      "Ġbanned": 7066,
      "Ġvalley": 7067,
      "Ġpollution": 7068,
      "Ġipo": 7069,
      "Ġhydroxychloroquine": 7070,
      "Ġceremon": 7071,
      "Ġmes": 7072,
      "Ġdos": 7073,
      "andmarkets": 7074,
      "iva": 7075,
      "antic": 7076,
      "Ġovers": 7077,
      "Ġmanner": 7078,
      "Ġpool": 7079,
      "Ġjose": 7080,
      "hesion": 7081,
      "Ġcomponent": 7082,
      "Ġbaby": 7083,
      "dis": 7084,
      "hour": 7085,
      "Ġeric": 7086,
      "Ġcited": 7087,
      "Ġpp": 7088,
      "Ġfan": 7089,
      "Ġboun": 7090,
      "Ġmu": 7091,
      "Ġreductions": 7092,
      "outh": 7093,
      "Ġnice": 7094,
      "Ġcoord": 7095,
      "Ġdrill": 7096,
      "Ġdrag": 7097,
      "Ġproducing": 7098,
      "Ġdiabet": 7099,
      "Ġiii": 7100,
      "Ġcoalition": 7101,
      "Ġfarmers": 7102,
      "Ġaggressive": 7103,
      "bt": 7104,
      "ØŃ": 7105,
      "Ġsar": 7106,
      "Ġsending": 7107,
      "Ġgh": 7108,
      "Ġspar": 7109,
      "Ġkits": 7110,
      "Ġsenator": 7111,
      "Ġcaut": 7112,
      "Ġcampaigns": 7113,
      "Ġships": 7114,
      "Ġliberal": 7115,
      "Ġevolution": 7116,
      "Ġawards": 7117,
      "Ġvolunteers": 7118,
      "wis": 7119,
      "ales": 7120,
      "olf": 7121,
      "Ġkr": 7122,
      "Ġ82": 7123,
      "Ġrepresentatives": 7124,
      "Ġcabinet": 7125,
      "spec": 7126,
      "Ġtay": 7127,
      "Ġpoc": 7128,
      "Ġeag": 7129,
      "Ġelement": 7130,
      "Ġstood": 7131,
      "store": 7132,
      "Ġdeem": 7133,
      "Ġtruck": 7134,
      "Ġunus": 7135,
      "Ġanalyses": 7136,
      "minute": 7137,
      "Ġassociates": 7138,
      "Ġtherapies": 7139,
      "Ġfairly": 7140,
      "Ġmichigan": 7141,
      "Ġdeadline": 7142,
      "Ġcrowd": 7143,
      "Ġdegrees": 7144,
      "Ġobtain": 7145,
      "Ġcapitol": 7146,
      "backs": 7147,
      "gs": 7148,
      "oul": 7149,
      "Ġconferences": 7150,
      "Ġram": 7151,
      "Ġcoordin": 7152,
      "Ġ88": 7153,
      "Ġconcerning": 7154,
      "Ġlots": 7155,
      "Ġiraq": 7156,
      "Ġdiam": 7157,
      "Ã¡n": 7158,
      "Ġelements": 7159,
      "Ġbeds": 7160,
      "Ġatlanta": 7161,
      "Ġreckoning": 7162,
      "Ġconsecutive": 7163,
      "Ġsi": 7164,
      "Ġtow": 7165,
      "idays": 7166,
      "Ġgene": 7167,
      "Ġwarn": 7168,
      "Ġdeferred": 7169,
      "Ġgreg": 7170,
      "Ġcritics": 7171,
      "Ġprinciples": 7172,
      "Ġbreathing": 7173,
      "Ġprompted": 7174,
      "with": 7175,
      "Ġmcc": 7176,
      "Ġmarketplace": 7177,
      "Ġ800": 7178,
      "Ġcontinent": 7179,
      "Ġpowers": 7180,
      "Ġargent": 7181,
      "Ġconsulting": 7182,
      "Ġlinkedin": 7183,
      "Ġaspects": 7184,
      "Ġsurrounding": 7185,
      "uador": 7186,
      "Ġpence": 7187,
      "ila": 7188,
      "Ġjac": 7189,
      "herlands": 7190,
      "uma": 7191,
      "ĠâĢĿ)": 7192,
      "Ġindirect": 7193,
      "Ġafghan": 7194,
      "inding": 7195,
      "Ġinstall": 7196,
      "Ġlows": 7197,
      "Ġannounces": 7198,
      "Ġactivists": 7199,
      "Ġsteve": 7200,
      "Ġreleases": 7201,
      "Ġhygiene": 7202,
      "51": 7203,
      "tc": 7204,
      "Ġtast": 7205,
      "onic": 7206,
      "Ġnan": 7207,
      "Ġsho": 7208,
      "Ġloved": 7209,
      "Ġloyal": 7210,
      "Ġfee": 7211,
      "Ġgovernors": 7212,
      "Ġnetherlands": 7213,
      "Ġformal": 7214,
      "Ġapproaches": 7215,
      "clin": 7216,
      "Ġstanding": 7217,
      "Ġholly": 7218,
      "Ġsnow": 7219,
      "Ġremoved": 7220,
      "Ġvietnam": 7221,
      "Ġcautious": 7222,
      "aÃ§Ã£o": 7223,
      "Ġeps": 7224,
      "acle": 7225,
      "Ġjer": 7226,
      "Ġcham": 7227,
      "Ġplas": 7228,
      "Ġedition": 7229,
      "Ġparks": 7230,
      "Ġrefer": 7231,
      "Ġhospitalizations": 7232,
      "Ġborn": 7233,
      "Ġdeclining": 7234,
      "Ġterror": 7235,
      "Ġconversations": 7236,
      "Ġagriculture": 7237,
      "Ġeat": 7238,
      "ett": 7239,
      "Ġproof": 7240,
      "Ġchart": 7241,
      "Ġintens": 7242,
      "Ġupside": 7243,
      "Ġpolls": 7244,
      "Ġsyria": 7245,
      "Ġ96": 7246,
      "enez": 7247,
      "Ġcheap": 7248,
      "Ġputin": 7249,
      "Ġfurthermore": 7250,
      "Ġsucceed": 7251,
      "Ġaudit": 7252,
      "Ġinfluenza": 7253,
      "ĠĠĠĠĠĠĠĠĠĠĠĠĠĠĠĠ": 7254,
      "Ġevaluate": 7255,
      "Ġcomplications": 7256,
      "Ġinclusion": 7257,
      "Ġguarantee": 7258,
      "lie": 7259,
      "rum": 7260,
      "Ġwil": 7261,
      "Ġang": 7262,
      "Ġlie": 7263,
      "uries": 7264,
      "Ġconclus": 7265,
      "ifies": 7266,
      "Ġactors": 7267,
      "Ġlaid": 7268,
      "Ġ98": 7269,
      "Ġexpecting": 7270,
      "shore": 7271,
      "Ġjobless": 7272,
      "Ġ231": 7273,
      "Ġessentially": 7274,
      "Ġsensitive": 7275,
      "Ġflexible": 7276,
      "ylv": 7277,
      "Ġattractive": 7278,
      "life": 7279,
      "ä¸": 7280,
      "Ġsac": 7281,
      "Ġband": 7282,
      "Ġbbc": 7283,
      "stage": 7284,
      "mental": 7285,
      "Ġseaf": 7286,
      "Ġrow": 7287,
      "Ġload": 7288,
      "Ġcommitments": 7289,
      "Ġpurchased": 7290,
      "Ġoptimism": 7291,
      "Ġmagn": 7292,
      "Ġdevastating": 7293,
      "53": 7294,
      "my": 7295,
      "ãģ": 7296,
      "rol": 7297,
      "Ġaccomp": 7298,
      "Ġsurpass": 7299,
      "Ġguess": 7300,
      "bridge": 7301,
      "Ġmyself": 7302,
      "Ġcalend": 7303,
      "Ġmotiv": 7304,
      "Ġpenal": 7305,
      "Ġchampion": 7306,
      "Ġdynamic": 7307,
      "hit": 7308,
      "link": 7309,
      "Ġsounds": 7310,
      "onia": 7311,
      "Ġdire": 7312,
      "Ġgal": 7313,
      "Ġcool": 7314,
      "Ġplays": 7315,
      "Ġcontents": 7316,
      "Ġtimely": 7317,
      "encing": 7318,
      "nsylv": 7319,
      "away": 7320,
      "Ġescal": 7321,
      "Ġbills": 7322,
      "ĠØ¨": 7323,
      "Ġdramatic": 7324,
      "Ġazerbaijan": 7325,
      "Ġhurricane": 7326,
      "Ġbio": 7327,
      "Ġinhib": 7328,
      "Ġexists": 7329,
      "Ġcohort": 7330,
      "ogue": 7331,
      "Ġfinds": 7332,
      "Ġvaccin": 7333,
      "Ġinspect": 7334,
      "Ġantivir": 7335,
      "Ġhomeless": 7336,
      "Ġpennsylv": 7337,
      "Ġevolving": 7338,
      "Ġobjectives": 7339,
      "Ġdiagnostic": 7340,
      "Ġallegations": 7341,
      "zo": 7342,
      "Ġau": 7343,
      "hem": 7344,
      "resear": 7345,
      "isa": 7346,
      "Ġboom": 7347,
      "Ġsecured": 7348,
      "Ġdemocrat": 7349,
      "Ġarrival": 7350,
      "Ġindependence": 7351,
      "Ġduty": 7352,
      "tical": 7353,
      "Ġgift": 7354,
      "Ġstability": 7355,
      "sell": 7356,
      "Ġnobody": 7357,
      "Ġarmed": 7358,
      "Ġcurve": 7359,
      "Ġvisiting": 7360,
      "Ġbasket": 7361,
      "Ġvolunt": 7362,
      "Ġtells": 7363,
      "Ġmacro": 7364,
      "Ġenhanced": 7365,
      "Ġdiscover": 7366,
      "Ġwatched": 7367,
      "woman": 7368,
      "order": 7369,
      "isure": 7370,
      "Ġdin": 7371,
      "Ġgaming": 7372,
      "Ġford": 7373,
      "Ġrus": 7374,
      "abis": 7375,
      "Ġprince": 7376,
      "Ġeducational": 7377,
      "Ġsegmentation": 7378,
      "Ġstruggled": 7379,
      "Ġfaith": 7380,
      "Ġphilip": 7381,
      "Ġaccepted": 7382,
      "Ġfundamental": 7383,
      "Ġroutine": 7384,
      "bar": 7385,
      "Ġaver": 7386,
      "Ġvon": 7387,
      "ante": 7388,
      "Ġ2024": 7389,
      "Ġkil": 7390,
      "isting": 7391,
      "Ġactively": 7392,
      "Ġremov": 7393,
      "Ġcurrencies": 7394,
      "Ġattach": 7395,
      "Ġdeter": 7396,
      "Ġgreatest": 7397,
      "mont": 7398,
      "Ġdogs": 7399,
      "Ġarchitecture": 7400,
      "Ġsurprising": 7401,
      "Ġbureau": 7402,
      "Ġpennsylvania": 7403,
      "pay": 7404,
      "pol": 7405,
      "yrene": 7406,
      "Ã¨": 7407,
      "Ġvig": 7408,
      "quir": 7409,
      "Ġreput": 7410,
      "Ġ92": 7411,
      "Ġpreval": 7412,
      "Ġfactories": 7413,
      "plus": 7414,
      "Ġports": 7415,
      "Ġhalt": 7416,
      "Ġadministered": 7417,
      "Ġdistribut": 7418,
      "Ġreflected": 7419,
      "Ġpreventing": 7420,
      "Ġcommissioner": 7421,
      "Ġfunctional": 7422,
      "Ġtrouble": 7423,
      "Ġtheory": 7424,
      "Ġppe": 7425,
      "ora": 7426,
      "Ġlinks": 7427,
      "Ġnik": 7428,
      "Ġweren": 7429,
      "Ġ81": 7430,
      "Ġdepression": 7431,
      "Ġstockholders": 7432,
      "Ġsolve": 7433,
      "Ġreceiv": 7434,
      "Ġlisting": 7435,
      "Ġsurveyed": 7436,
      "Ġgathering": 7437,
      "Ġpharmaceuticals": 7438,
      "Ġemotional": 7439,
      "Ġspirit": 7440,
      "Ġmunicip": 7441,
      "ati": 7442,
      "Ġmap": 7443,
      "Ġmoun": 7444,
      "Ġdream": 7445,
      "Ġrub": 7446,
      "Ġshield": 7447,
      "oked": 7448,
      "Ġbrut": 7449,
      "ictions": 7450,
      "Ġbroke": 7451,
      "Ġpressures": 7452,
      "Ġswift": 7453,
      "Ġjournalists": 7454,
      "Ġargued": 7455,
      "Ġracing": 7456,
      "obile": 7457,
      "Ġdeployment": 7458,
      "zerland": 7459,
      "Ġpicks": 7460,
      "Ġtoronto": 7461,
      "service": 7462,
      "Ġbp": 7463,
      "rooms": 7464,
      "Ġric": 7465,
      "Ġspons": 7466,
      "Ġairports": 7467,
      "Ġmeasured": 7468,
      "Ġillustr": 7469,
      "Ġadvisor": 7470,
      "Ġglass": 7471,
      "Ġwebcast": 7472,
      "Ġconcluded": 7473,
      "Ġcolombia": 7474,
      "Ġhesit": 7475,
      "Ġneuro": 7476,
      "Ġresurg": 7477,
      "avir": 7478,
      "Ġkar": 7479,
      "Ġenables": 7480,
      "Ġclubs": 7481,
      "Ġstruck": 7482,
      "ecess": 7483,
      "Ġends": 7484,
      "Ġemployer": 7485,
      "Ġmainland": 7486,
      "Ġcharles": 7487,
      "Ġrenewable": 7488,
      "Ġvictoria": 7489,
      "Ġadequate": 7490,
      "Ġcannabis": 7491,
      "Ġsupermar": 7492,
      "from": 7493,
      "iy": 7494,
      "ĠÙĦ": 7495,
      "oned": 7496,
      "Ġol": 7497,
      "Ġble": 7498,
      "Ġanonym": 7499,
      "Ġconver": 7500,
      "abs": 7501,
      "Ġsigning": 7502,
      "Ġdepends": 7503,
      "Ġsecondary": 7504,
      "Ġesp": 7505,
      "Ġbarr": 7506,
      "Ġmuscle": 7507,
      "ĠØ§ÙĦÙħ": 7508,
      "Ġproposals": 7509,
      "Ġcomplicated": 7510,
      "Ġamendment": 7511,
      "Ġpivot": 7512,
      "sour": 7513,
      "ilton": 7514,
      "oline": 7515,
      "Ġaside": 7516,
      "Ġ2000": 7517,
      "Ġadult": 7518,
      "neum": 7519,
      "Ġsubmitted": 7520,
      "Ġimprovements": 7521,
      "Ġhouses": 7522,
      "Ġarchive": 7523,
      "Ġsolely": 7524,
      "%),": 7525,
      "wart": 7526,
      "onduct": 7527,
      "Ġomn": 7528,
      "anes": 7529,
      "Ġbag": 7530,
      "Ġtourn": 7531,
      "Ġexit": 7532,
      "Ġcompr": 7533,
      "Ġnoting": 7534,
      "Ġintends": 7535,
      "Ġaccum": 7536,
      "engal": 7537,
      "Ġrealize": 7538,
      "Ġtypical": 7539,
      "miconduct": 7540,
      "Ġbreaking": 7541,
      "Ġtrusted": 7542,
      "Ġdiagnosis": 7543,
      "Ġmigrants": 7544,
      "Ġimagine": 7545,
      "Ġtips": 7546,
      "herent": 7547,
      "Ġdates": 7548,
      "Ġweap": 7549,
      "Ġconvert": 7550,
      "Ġhero": 7551,
      "Ġaband": 7552,
      "Ġkent": 7553,
      "ibilities": 7554,
      "Ġroute": 7555,
      "Ġsurging": 7556,
      "Ġputs": 7557,
      "Ġcampus": 7558,
      "Ġaddressing": 7559,
      "Ġdisclaim": 7560,
      "Ġmutations": 7561,
      "Ġfrequently": 7562,
      "Ġoutperformed": 7563,
      "Ġindonesia": 7564,
      ")%": 7565,
      "Ġmck": 7566,
      "Ġlake": 7567,
      "Ġsemiconduct": 7568,
      "Ġshall": 7569,
      "agen": 7570,
      "Ġboston": 7571,
      "Ġretain": 7572,
      "Ġ94": 7573,
      "Ġreferred": 7574,
      "Ġcompete": 7575,
      "Ġhitting": 7576,
      "Ġsteep": 7577,
      "Ġabsence": 7578,
      "Ġdoubled": 7579,
      "Ġstructural": 7580,
      "Ġbankruptcy": 7581,
      "Ġswitzerland": 7582,
      "global": 7583,
      "zy": 7584,
      "Ġax": 7585,
      "orrow": 7586,
      "Ġgop": 7587,
      "ailand": 7588,
      "Ġappend": 7589,
      "Ġstudied": 7590,
      "Ġcurb": 7591,
      "Ġreaders": 7592,
      "Ġacquire": 7593,
      "Ġgeograph": 7594,
      "Ġdramatically": 7595,
      "Ġincredibly": 7596,
      "fs": 7597,
      "not": 7598,
      "pone": 7599,
      "icent": 7600,
      "Ġgear": 7601,
      "Ġcrack": 7602,
      "Ġcrises": 7603,
      "Ġcontrolled": 7604,
      "Ġdenied": 7605,
      "cript": 7606,
      "backed": 7607,
      "Ġborrowing": 7608,
      "mond": 7609,
      "uy": 7610,
      "Ġaw": 7611,
      "Ġmol": 7612,
      "isd": 7613,
      "Ġhay": 7614,
      "Ġislam": 7615,
      "Ġriver": 7616,
      "umin": 7617,
      "Ġleisure": 7618,
      "Ġcontest": 7619,
      "Ġupgr": 7620,
      "Ġsupposed": 7621,
      "criptions": 7622,
      "Ġpicked": 7623,
      "Ġsettlement": 7624,
      "right": 7625,
      "Ġtier": 7626,
      "Ġpneum": 7627,
      "chs": 7628,
      "Ġunions": 7629,
      "Ġfranch": 7630,
      "Ġearned": 7631,
      "Ġstartup": 7632,
      "Ġbegins": 7633,
      "Ġholidays": 7634,
      "ofi": 7635,
      "Ġordinary": 7636,
      "Ġbreath": 7637,
      "Ġdeficit": 7638,
      "Ġcalendar": 7639,
      "Ġonset": 7640,
      "Ġyah": 7641,
      "Ġimf": 7642,
      "Ġdismiss": 7643,
      "Ġremark": 7644,
      "Ġflag": 7645,
      "Ġinsure": 7646,
      "Ġsustained": 7647,
      "Ġadopt": 7648,
      "Ġweakness": 7649,
      "Ġdiscovered": 7650,
      "Ġmigrant": 7651,
      "Ġtitle": 7652,
      "Ġcomputing": 7653,
      "Ġpleased": 7654,
      "Ġgirls": 7655,
      "Ġlawyer": 7656,
      "Ġappendix": 7657,
      "Ġtables": 7658,
      "Ġreim": 7659,
      "Ġgam": 7660,
      "adhesion": 7661,
      "amide": 7662,
      "osen": 7663,
      "ocy": 7664,
      "Ġdiss": 7665,
      "Ġpartly": 7666,
      "Ġrepay": 7667,
      "Ġkevin": 7668,
      "Ġvalued": 7669,
      "Ġformat": 7670,
      "Ġlabel": 7671,
      "Ġfoods": 7672,
      "Ġsteven": 7673,
      "Ġmusk": 7674,
      "Ġecuador": 7675,
      "Ġcharacteristics": 7676,
      "Ġbeauty": 7677,
      "front": 7678,
      "nd": 7679,
      "Ġtip": 7680,
      "itivity": 7681,
      "Ġbrent": 7682,
      "Ġdies": 7683,
      "unk": 7684,
      "iang": 7685,
      "Ġ[...": 7686,
      "otherap": 7687,
      "Ġbroker": 7688,
      "Ġtourists": 7689,
      "Ġdemonstrated": 7690,
      "apolis": 7691,
      "Ġdeemed": 7692,
      "dep": 7693,
      "Ġted": 7694,
      "ini": 7695,
      "Ġpu": 7696,
      "Ġinbox": 7697,
      "arc": 7698,
      "Ġlin": 7699,
      "Ġvenez": 7700,
      "opol": 7701,
      "Ġincident": 7702,
      "Ġintermedi": 7703,
      "Ġmorris": 7704,
      "Ġdeliveries": 7705,
      "Ġmisinformation": 7706,
      "Ġcleaning": 7707,
      "Ġlicens": 7708,
      "Ġfavorable": 7709,
      "Ġcertific": 7710,
      "Ġequivalents": 7711,
      "Ġimmigration": 7712,
      "Ġpreferred": 7713,
      "Ġsoutheast": 7714,
      "Ġdiabetes": 7715,
      "bro": 7716,
      "Ġties": 7717,
      "Ġak": 7718,
      "Ġsd": 7719,
      "Ġsoph": 7720,
      "Ġflying": 7721,
      "Ġbodies": 7722,
      "Ġbengal": 7723,
      "ican": 7724,
      "Ġstations": 7725,
      "Ġray": 7726,
      "Ġraces": 7727,
      "Ġatm": 7728,
      "Ġunp": 7729,
      "Ġpresidency": 7730,
      "anges": 7731,
      "Ġauthorized": 7732,
      "Ġvoted": 7733,
      "Ġseverely": 7734,
      "Ġhonest": 7735,
      "Ġdiversityinc": 7736,
      "Ġdozen": 7737,
      "Ġcolumbia": 7738,
      "Ġjurisd": 7739,
      "84": 7740,
      "Ġfer": 7741,
      "othe": 7742,
      "0000": 7743,
      "Ġpermission": 7744,
      "Ġrisen": 7745,
      "Ġtomorrow": 7746,
      "Ġappreciate": 7747,
      "Ġseafood": 7748,
      "research": 7749,
      "Ġwang": 7750,
      "ione": 7751,
      "Ġgulf": 7752,
      "Ġster": 7753,
      "Ġrna": 7754,
      "Ġju": 7755,
      "Ġstring": 7756,
      "Ġgrap": 7757,
      "Ġcarefully": 7758,
      "Ġequities": 7759,
      "Ġhardware": 7760,
      "atories": 7761,
      "Ġindicate": 7762,
      "Ġchoices": 7763,
      "Ġlimitations": 7764,
      "Ġexcluded": 7765,
      "Ġcrowds": 7766,
      "Ġdutch": 7767,
      "Ġtrigger": 7768,
      "Ġbubble": 7769,
      "Ġillegal": 7770,
      "gets": 7771,
      "Ġtear": 7772,
      "Ġpill": 7773,
      "Ġinev": 7774,
      "ilateral": 7775,
      "Ġexamples": 7776,
      "gered": 7777,
      "Ġtrips": 7778,
      "Ġamended": 7779,
      "Ġrepresented": 7780,
      "Ġnasa": 7781,
      "Ġriders": 7782,
      "Ġentrepreneurs": 7783,
      "54": 7784,
      "61": 7785,
      "Ġbain": 7786,
      "Ġprominent": 7787,
      "Ġexacer": 7788,
      "Ġchile": 7789,
      "Ġlob": 7790,
      "Ġassume": 7791,
      "Ġrepurch": 7792,
      "Ġstudio": 7793,
      "Ġposts": 7794,
      "Ġcontainer": 7795,
      "Ġkorean": 7796,
      "Ġdeployed": 7797,
      "Ġcapture": 7798,
      "Ġvendor": 7799,
      "country": 7800,
      "Ġvenezuel": 7801,
      "600": 7802,
      "700": 7803,
      "Ġpand": 7804,
      "ici": 7805,
      "Ġthailand": 7806,
      "Ġshale": 7807,
      "Ġlewis": 7808,
      "Ġifrs": 7809,
      "Ġsupplier": 7810,
      "Ġvisibility": 7811,
      "Ġpromised": 7812,
      "Ġgasoline": 7813,
      "opharm": 7814,
      "Ġokay": 7815,
      "desivir": 7816,
      "html": 7817,
      "Ġadmissions": 7818,
      "col": 7819,
      "sm": 7820,
      "test": 7821,
      "Ġtank": 7822,
      "Ġgat": 7823,
      "Ġstuck": 7824,
      "irds": 7825,
      "Ġcompound": 7826,
      "Ġpeers": 7827,
      "Ġ97": 7828,
      "Ġpostpone": 7829,
      "Ġsituations": 7830,
      "march": 7831,
      "Ġbasically": 7832,
      "Ġbreakthrough": 7833,
      "Ġlouisiana": 7834,
      "Ġohio": 7835,
      "Ġyahoo": 7836,
      "Ġow": 7837,
      "Ġeased": 7838,
      "oton": 7839,
      "this": 7840,
      "Ġcorner": 7841,
      "Ġagents": 7842,
      "Ġarts": 7843,
      "Ġbarb": 7844,
      "Ġmultim": 7845,
      "Ġphysicians": 7846,
      "Ġfastest": 7847,
      "Ġfleet": 7848,
      "Ġpediatric": 7849,
      "letters": 7850,
      "Ġexacerb": 7851,
      "62": 7852,
      "vard": 7853,
      "Ġtally": 7854,
      "induced": 7855,
      "Ġsessions": 7856,
      "Ġune": 7857,
      "Ġteen": 7858,
      "Ġremdesivir": 7859,
      "Ġentities": 7860,
      "Ġstockp": 7861,
      "Ġmatthe": 7862,
      "Ġdistricts": 7863,
      "Ġmilest": 7864,
      "Ġlaunches": 7865,
      "Ġmanufacturer": 7866,
      "Ġaccuracy": 7867,
      "Ġpregnant": 7868,
      "Ġassembly": 7869,
      "Ġbattery": 7870,
      "Ġdiamond": 7871,
      "Ġjosh": 7872,
      "Ġchf": 7873,
      "Ġdrives": 7874,
      "Ġsubmit": 7875,
      "Ġshouldn": 7876,
      "Ġbarriers": 7877,
      "Ġcorporations": 7878,
      "ollar": 7879,
      "Ġcitizenship": 7880,
      "Ġtemperatures": 7881,
      "Ġelevated": 7882,
      "economic": 7883,
      "aÃ§Ãµes": 7884,
      "pdf": 7885,
      "tor": 7886,
      "Ġcares": 7887,
      "Ġdrawn": 7888,
      "Ġserves": 7889,
      "Ġannually": 7890,
      "Ġmemory": 7891,
      "Ġspecies": 7892,
      "Ġcompletion": 7893,
      "Ġfalls": 7894,
      "Ġbias": 7895,
      "Ġcataly": 7896,
      "Ġfitness": 7897,
      "Ġvenues": 7898,
      "Ġpetrole": 7899,
      "Ġftse": 7900,
      "Ġelectronics": 7901,
      "tax": 7902,
      "ypt": 7903,
      "Ġpure": 7904,
      "Ġboss": 7905,
      "Ġrh": 7906,
      "Ġjack": 7907,
      "Ġrecy": 7908,
      "ologists": 7909,
      "Ġnewsletters": 7910,
      "Ġattended": 7911,
      "Ġdebut": 7912,
      "Ġfocuses": 7913,
      "Ġbroadly": 7914,
      "Ġresponding": 7915,
      "Ġviolent": 7916,
      "Ġsurvival": 7917,
      "Ġqualified": 7918,
      "Ġshifting": 7919,
      "effect": 7920,
      "Ġfurlough": 7921,
      "Ġingredients": 7922,
      "Ġtariffs": 7923,
      "Ġplasma": 7924,
      "dy": 7925,
      "oly": 7926,
      "Ġmp": 7927,
      "Ġhits": 7928,
      "Ġlg": 7929,
      "Ġgates": 7930,
      "Ġperm": 7931,
      "Ġmei": 7932,
      "Ġsignal": 7933,
      "Ġsociet": 7934,
      "Ġresearchandmarkets": 7935,
      "Ġcontributions": 7936,
      "Ġrefused": 7937,
      "Ġmovements": 7938,
      "Ġjournalist": 7939,
      "Ġargue": 7940,
      "Ġappeal": 7941,
      "Ġteacher": 7942,
      "Ġconfirmation": 7943,
      "Ġsubsidiary": 7944,
      "post": 7945,
      "Ġwaves": 7946,
      "Ġpair": 7947,
      "ano": 7948,
      "uru": 7949,
      "Ġstars": 7950,
      "imm": 7951,
      "Ġprolong": 7952,
      "ĠsaÃº": 7953,
      "Ġ',": 7954,
      "ilead": 7955,
      "Ġdraft": 7956,
      "Ġswiss": 7957,
      "Ġhardest": 7958,
      "Ġautomated": 7959,
      "Ġboosted": 7960,
      "Ġaccounted": 7961,
      "Ġborrowers": 7962,
      "Ġresolution": 7963,
      "Ġmerck": 7964,
      "Ġincorporated": 7965,
      "Ġantiviral": 7966,
      "Ġpetroleum": 7967,
      "ais": 7968,
      "hab": 7969,
      "Ġcow": 7970,
      "Ġpcr": 7971,
      "alf": 7972,
      "Ġadj": 7973,
      "Ġnotably": 7974,
      "Ġmarine": 7975,
      "Ġresign": 7976,
      "Ġcontam": 7977,
      "Ġplane": 7978,
      "Ġcreates": 7979,
      "adesh": 7980,
      "Ġinstruments": 7981,
      "ĠsaÃºde": 7982,
      "rich": 7983,
      "tz": 7984,
      "Ġess": 7985,
      "Ġpause": 7986,
      "Ġpump": 7987,
      "Ġdro": 7988,
      "Ġreact": 7989,
      "Ġforg": 7990,
      "Ġgod": 7991,
      "Ġdisast": 7992,
      "Ġintention": 7993,
      "Ġimpress": 7994,
      "Ġcurbs": 7995,
      "Ġsimon": 7996,
      "Ġlifting": 7997,
      "Ġenvironments": 7998,
      "ruption": 7999,
      "Ġcope": 8000,
      "Ġsanofi": 8001,
      "Ġcooper": 8002,
      "Ġabbott": 8003,
      "Ġcovax": 8004,
      "aj": 8005,
      "Ġore": 8006,
      "Ġpas": 8007,
      "Ġpent": 8008,
      "Ġhack": 8009,
      "Ġdefe": 8010,
      "Ġash": 8011,
      "Ġyuan": 8012,
      "acies": 8013,
      "Ġsem": 8014,
      "Ġunn": 8015,
      "Ġabort": 8016,
      "Ġprint": 8017,
      "Ġtheme": 8018,
      "Ġfunded": 8019,
      "Ġmodest": 8020,
      "Ġsuit": 8021,
      "Ġhoped": 8022,
      "Ġkinds": 8023,
      "Ġnortheast": 8024,
      "Ġscrut": 8025,
      "Ġhonor": 8026,
      "Ġepisode": 8027,
      "Ùī": 8028,
      "retion": 8029,
      "Ġpak": 8030,
      "Ġbern": 8031,
      "adi": 8032,
      "atell": 8033,
      "Ġdispro": 8034,
      "Ġhelpful": 8035,
      "Ġannouncing": 8036,
      "Ġperforming": 8037,
      "Ġdiscoun": 8038,
      "Ġdiscip": 8039,
      "Ġprofitable": 8040,
      "Ġreviewed": 8041,
      "Ġaccelerating": 8042,
      "Ġlibert": 8043,
      "Ġdefinition": 8044,
      "aire": 8045,
      "nology": 8046,
      "Ġcbs": 8047,
      "idad": 8048,
      "Ġglo": 8049,
      "ivo": 8050,
      "antly": 8051,
      "astrop": 8052,
      "odes": 8053,
      "Ġdonations": 8054,
      "Ġfluct": 8055,
      "Ġflags": 8056,
      "Ġdetention": 8057,
      "hester": 8058,
      "bnb": 8059,
      "Ġhole": 8060,
      "Ġcommodities": 8061,
      "group": 8062,
      "Ġnurse": 8063,
      "63": 8064,
      "ef": 8065,
      "hl": 8066,
      "lif": 8067,
      "mc": 8068,
      "site": 8069,
      "Ġtact": 8070,
      "Ġfib": 8071,
      "Ġfish": 8072,
      "owed": 8073,
      "Ġsachs": 8074,
      "kshire": 8075,
      "Ġzh": 8076,
      "bean": 8077,
      "Ġdepartments": 8078,
      "Ġrespective": 8079,
      "Ġhyper": 8080,
      "Ġfrontline": 8081,
      "Ø§Øª": 8082,
      "Ġduration": 8083,
      "Ġissuance": 8084,
      "Ġprecautions": 8085,
      "Ġafghanistan": 8086,
      "last": 8087,
      "Ġcrop": 8088,
      "Ġpension": 8089,
      "Ġfoss": 8090,
      "Ġtrained": 8091,
      "empts": 8092,
      "wei": 8093,
      "Ġshortly": 8094,
      "Ġdiscount": 8095,
      "Ġliability": 8096,
      "Ġfallout": 8097,
      "Ġportfolios": 8098,
      "Ġ1990": 8099,
      "Ġpanic": 8100,
      "Ġfortun": 8101,
      "Ġprompting": 8102,
      "Ġoutdoors": 8103,
      "Ġopposed": 8104,
      "Ġmolec": 8105,
      "iated": 8106,
      "nis": 8107,
      "sized": 8108,
      "Ġcub": 8109,
      "Ġgilead": 8110,
      "ctor": 8111,
      "Ġtrib": 8112,
      "abled": 8113,
      "Ġ700": 8114,
      "Ġevac": 8115,
      "Ġofficially": 8116,
      "Ġpressing": 8117,
      "ception": 8118,
      "Ġtalked": 8119,
      "Ġclinic": 8120,
      "Ġpreparation": 8121,
      "Ġarrive": 8122,
      "Ġpersons": 8123,
      "Ġsubstantially": 8124,
      "Ġpilot": 8125,
      "Ġgreece": 8126,
      "Ġwipes": 8127,
      "Ġacknowledged": 8128,
      "Ġdiscrimination": 8129,
      "Ġsymbol": 8130,
      "Ġtaylor": 8131,
      "bal": 8132,
      "war": 8133,
      "heim": 8134,
      "Ġwholes": 8135,
      "Ġunch": 8136,
      "Ġmere": 8137,
      "Ġsomewhat": 8138,
      "Ġ],": 8139,
      "Ġbroken": 8140,
      "Ġslowed": 8141,
      "Ġslowdown": 8142,
      "Ġrenewed": 8143,
      "Ġfatigue": 8144,
      "Ġshifts": 8145,
      "Ġpolyamide": 8146,
      "ingly": 8147,
      "icious": 8148,
      "ette": 8149,
      "Ġproved": 8150,
      "Ġalph": 8151,
      "Ġsaving": 8152,
      "izz": 8153,
      "Ġdispl": 8154,
      "Ġseeks": 8155,
      "Ġcongressional": 8156,
      "Ġexception": 8157,
      "Ġinjury": 8158,
      "Ġvillage": 8159,
      "Ġresurgence": 8160,
      "Ġsatell": 8161,
      "Ġkir": 8162,
      "Ġcontem": 8163,
      "Ġsurg": 8164,
      "Ġsurger": 8165,
      "Ġ93": 8166,
      "Ġaccordingly": 8167,
      "Ġtermin": 8168,
      "Ġfilms": 8169,
      "Ġmidw": 8170,
      "Ġmoments": 8171,
      "Ġfeatured": 8172,
      "Ġsuspected": 8173,
      "Ġcatastrop": 8174,
      "Ġodds": 8175,
      "clinical": 8176,
      "iques": 8177,
      "Ġinput": 8178,
      "Ġdj": 8179,
      "charg": 8180,
      "Ġintense": 8181,
      "Ġsuperv": 8182,
      "Ġbusy": 8183,
      "Ġremind": 8184,
      "Ġmedian": 8185,
      "Ġadvances": 8186,
      "riend": 8187,
      "Ġtreating": 8188,
      "Ġadvisors": 8189,
      "Ġmethodology": 8190,
      "Ġgradually": 8191,
      "Ġallocated": 8192,
      "Ġstructures": 8193,
      "Ġpledged": 8194,
      "Ġtissue": 8195,
      "Ġnutrition": 8196,
      "71": 8197,
      "81": 8198,
      "uce": 8199,
      "invest": 8200,
      "Ġcum": 8201,
      "Ġws": 8202,
      "ingu": 8203,
      "Ġgig": 8204,
      "Ġprohib": 8205,
      "Ġron": 8206,
      "acion": 8207,
      "Ġjpm": 8208,
      "Ġpra": 8209,
      "Ġperce": 8210,
      "Ġuae": 8211,
      "Ġgrapp": 8212,
      "Ġairbnb": 8213,
      "Ġkeeps": 8214,
      "Ġdeeper": 8215,
      "Ġrebu": 8216,
      "Ġterada": 8217,
      "di": 8218,
      "fc": 8219,
      "pret": 8220,
      "inte": 8221,
      "alle": 8222,
      "Ġhire": 8223,
      "Ġngi": 8224,
      "Ġstone": 8225,
      "oth": 8226,
      "Ġye": 8227,
      "Ġalerts": 8228,
      "Ġplate": 8229,
      "Ġamericas": 8230,
      "Ġdefault": 8231,
      "Ġletters": 8232,
      "Ġsuspect": 8233,
      "Ġmedicare": 8234,
      "Ġindicates": 8235,
      "Ġracism": 8236,
      "Ġdiagnosed": 8237,
      "Ġdisclosed": 8238,
      "burg": 8239,
      "Ġheadquarters": 8240,
      "Ġunusual": 8241,
      "Ġdisproportion": 8242,
      "oz": 8243,
      "ole": 8244,
      "Ġhunt": 8245,
      "etime": 8246,
      "Ġky": 8247,
      "Ġimpose": 8248,
      "Ġunderway": 8249,
      "Ġ84": 8250,
      "Ġ91": 8251,
      "Ġattempts": 8252,
      "Ġforest": 8253,
      "Ġreferring": 8254,
      "Ġaffili": 8255,
      "Ġbehalf": 8256,
      "Ġwebsites": 8257,
      "Ġhosts": 8258,
      "Ġdiplomatic": 8259,
      "Ġounces": 8260,
      "Ġmultimedia": 8261,
      "km": 8262,
      "Ġsant": 8263,
      "Ġlad": 8264,
      "Ġnig": 8265,
      "Ġgaps": 8266,
      "Ġbeverage": 8267,
      "Ġrivals": 8268,
      "Ġcomply": 8269,
      "Ġwash": 8270,
      "Ġimplied": 8271,
      "Ġpreserve": 8272,
      "Ġintervent": 8273,
      "Ġvisual": 8274,
      "Ġcourses": 8275,
      "Ġ180": 8276,
      "Ġcopy": 8277,
      "Ġslowing": 8278,
      "Ġmaintained": 8279,
      "Ġimplementing": 8280,
      "Ġsurviv": 8281,
      "Ġconsistently": 8282,
      "Ġcamer": 8283,
      "Ġshifted": 8284,
      "Ġprotocol": 8285,
      "Ġjonathan": 8286,
      "93": 8287,
      "Ġah": 8288,
      "Ġbare": 8289,
      "Ġmale": 8290,
      "Ġretr": 8291,
      "aked": 8292,
      "Ġpoore": 8293,
      "Ġjoy": 8294,
      "Ġanalyze": 8295,
      "Ġhandful": 8296,
      "Ġlaboratories": 8297,
      "ĠØ¹": 8298,
      "bourne": 8299,
      "Ġcrypto": 8300,
      "Ġtheaters": 8301,
      "Ġceremony": 8302,
      "specific": 8303,
      "Ġhollywood": 8304,
      "aug": 8305,
      "fir": 8306,
      "fund": 8307,
      "wal": 8308,
      "Ġtum": 8309,
      "Ġstabil": 8310,
      "aki": 8311,
      "Ġagent": 8312,
      "Ġcrash": 8313,
      "eping": 8314,
      "Ġlifest": 8315,
      "govern": 8316,
      "Ġexplos": 8317,
      "Ġhopefully": 8318,
      "ĠØª": 8319,
      "Ġmessaging": 8320,
      "Ġinventories": 8321,
      "Ġinclusive": 8322,
      "Ġgeographic": 8323,
      "Ġresistance": 8324,
      "Ġwarehouse": 8325,
      "american": 8326,
      "Ġfossil": 8327,
      "ei": 8328,
      "iking": 8329,
      "Ġtied": 8330,
      "isms": 8331,
      "ido": 8332,
      "Ġexpire": 8333,
      "llor": 8334,
      "ancet": 8335,
      "Ġcarib": 8336,
      "Ġdefence": 8337,
      "Ġ110": 8338,
      "Ġnearby": 8339,
      "Ġstayed": 8340,
      "Ġjournalism": 8341,
      "Ġpositioned": 8342,
      "Ġbatt": 8343,
      "Ġbudgets": 8344,
      "Ġfabric": 8345,
      ",âĢĻ": 8346,
      "83": 8347,
      "hous": 8348,
      "lord": 8349,
      "she": 8350,
      "Ġcos": 8351,
      "Ġpour": 8352,
      "ulating": 8353,
      "ope": 8354,
      "aka": 8355,
      "Ġenorm": 8356,
      "Ġaccom": 8357,
      "Ġsoared": 8358,
      "Ġarms": 8359,
      "Ġshell": 8360,
      "Ġphones": 8361,
      "weight": 8362,
      "Ġreads": 8363,
      "Ġbrook": 8364,
      "Ġmeta": 8365,
      "Ġlimiting": 8366,
      "Ġobst": 8367,
      "ackson": 8368,
      "Ġshipments": 8369,
      "Ġrobots": 8370,
      "Ġsuffer": 8371,
      "haust": 8372,
      "Ġevaluating": 8373,
      "Ġpulled": 8374,
      "Ġvirginia": 8375,
      "Ġaggregate": 8376,
      "Ġargentina": 8377,
      "vada": 8378,
      "Ġhamp": 8379,
      "Ġlies": 8380,
      "oper": 8381,
      "Ġnotable": 8382,
      "artic": 8383,
      "Ġintend": 8384,
      "Ġcounties": 8385,
      "Ġinteraction": 8386,
      "Ġcarrier": 8387,
      "Ġmah": 8388,
      "Ġmode": 8389,
      "Ġactivist": 8390,
      "bitious": 8391,
      "Ġpackages": 8392,
      "Ġcharity": 8393,
      "Ġunlock": 8394,
      "Ġdisrupted": 8395,
      "Ġterritor": 8396,
      "Ġbrazilian": 8397,
      "Ġdanger": 8398,
      "Ġtowns": 8399,
      "Ġbulk": 8400,
      "72": 8401,
      "hus": 8402,
      "kish": 8403,
      "âĦ": 8404,
      "çļ": 8405,
      "ĠÙģÙĬ": 8406,
      "Ġdying": 8407,
      "eth": 8408,
      "Ġadoles": 8409,
      "Ġteaching": 8410,
      "Ġlikelihood": 8411,
      "Ġassam": 8412,
      "Ġfinances": 8413,
      "Ġtrades": 8414,
      "Ġidentifying": 8415,
      "Ġharvard": 8416,
      "Ġcontainers": 8417,
      "Ġfavorite": 8418,
      "Ġhorizon": 8419,
      "guard": 8420,
      "Ġsurprised": 8421,
      "Ġexcellent": 8422,
      "president": 8423,
      "çļĦ": 8424,
      "74": 8425,
      "fi": 8426,
      "Ġhat": 8427,
      "Ġsel": 8428,
      "Ġexhaust": 8429,
      "Ġprize": 8430,
      "Ġconting": 8431,
      "Ġovercome": 8432,
      "Ġactor": 8433,
      "Ġgotten": 8434,
      "ÙĬØ©": 8435,
      "Ġhosted": 8436,
      "Ġinstrument": 8437,
      "Ġmelbourne": 8438,
      "................": 8439,
      "Ġstanley": 8440,
      "Ġintellect": 8441,
      "Ġautonomous": 8442,
      "olsonaro": 8443,
      "case": 8444,
      "zen": 8445,
      "Ġpac": 8446,
      "Ġeating": 8447,
      "Ġnike": 8448,
      "Ġislands": 8449,
      "Ġtrick": 8450,
      "eland": 8451,
      "Ġmarketwatch": 8452,
      "Ġreplic": 8453,
      "2024": 8454,
      "ocused": 8455,
      "Ġdifficulties": 8456,
      "Ġparticipating": 8457,
      "Ġbooking": 8458,
      "Ġshutdowns": 8459,
      "Ġinterventions": 8460,
      "Ġcaribbean": 8461,
      "Ġhang": 8462,
      "Ġmosc": 8463,
      "Ġkne": 8464,
      "Ġquiet": 8465,
      "Ġambitious": 8466,
      "Ġcontaining": 8467,
      "Ġoffshore": 8468,
      "20200": 8469,
      "mann": 8470,
      "Ġnonprofit": 8471,
      "Ġherein": 8472,
      "Ġterminal": 8473,
      "Ġlatter": 8474,
      "Ġ2007": 8475,
      "Ġmilk": 8476,
      "Ġspecialist": 8477,
      "Ġachieving": 8478,
      "Ġdivided": 8479,
      "Ġintelligent": 8480,
      "Ġsuspension": 8481,
      "Ġmovies": 8482,
      "businesswire": 8483,
      "otherapy": 8484,
      "Ġott": 8485,
      "Ġfurn": 8486,
      "Ġinability": 8487,
      "Ġ''),": 8488,
      "Ġmeals": 8489,
      "Ġknock": 8490,
      "Ġtraveling": 8491,
      "Ġeliz": 8492,
      "Ġ130": 8493,
      "ika": 8494,
      "Ġfailing": 8495,
      "Ġexciting": 8496,
      "Ġtelephone": 8497,
      "Ġhorr": 8498,
      "Ġalexander": 8499,
      "Ġreputation": 8500,
      "âĦ¢": 8501,
      "Ġmoscow": 8502,
      "foot": 8503,
      "Ġfool": 8504,
      "Ġnfl": 8505,
      "omen": 8506,
      "mented": 8507,
      "Ġvit": 8508,
      "Ġrush": 8509,
      "Ġampl": 8510,
      "Ġpandemics": 8511,
      "gry": 8512,
      "Ġgrab": 8513,
      "Ġeverywhere": 8514,
      "Ġrestrict": 8515,
      "Ġrecommends": 8516,
      "Ġfunctions": 8517,
      "Ġdestroy": 8518,
      "Ġisolated": 8519,
      "contin": 8520,
      "Ġproceedings": 8521,
      "Ġunderstood": 8522,
      "Ġaccompl": 8523,
      "rian": 8524,
      "Ġbolsonaro": 8525,
      "Ġhua": 8526,
      "uset": 8527,
      "Ġforcing": 8528,
      "ulative": 8529,
      "Ġjackson": 8530,
      "Ġbrus": 8531,
      "Ġtwenty": 8532,
      "Ġpublis": 8533,
      "achuset": 8534,
      "Ġdetained": 8535,
      "phy": 8536,
      "def": 8537,
      "Ġtitled": 8538,
      "Ġethnic": 8539,
      "Ġconstantly": 8540,
      "Ġrecruit": 8541,
      "Ġmeiwa": 8542,
      "achusetts": 8543,
      "born": 8544,
      "dam": 8545,
      "dose": 8546,
      "Ġtik": 8547,
      "iner": 8548,
      "Ġsed": 8549,
      "roc": 8550,
      "Ġlived": 8551,
      "Ġgav": 8552,
      "adel": 8553,
      "ighter": 8554,
      "Ġkl": 8555,
      "ĠĠĠĠĠ": 8556,
      "Ġvisa": 8557,
      "Ġartists": 8558,
      "inson": 8559,
      "Ġmilan": 8560,
      "Ġinvolves": 8561,
      "Ġdisrupt": 8562,
      "Ġrolled": 8563,
      "Ġrecovering": 8564,
      "Ġfeedback": 8565,
      "Ġsyndicate": 8566,
      "Ġpursue": 8567,
      "91": 8568,
      "dollar": 8569,
      "Ġtheater": 8570,
      "Ġdc": 8571,
      "Ġnbc": 8572,
      "Ġgaining": 8573,
      "Ġpreced": 8574,
      "Ġsyst": 8575,
      "Ġpatrick": 8576,
      "Ġplanes": 8577,
      "Ġ125": 8578,
      "Ġdefine": 8579,
      "Ġmassachusetts": 8580,
      "Ġresearcher": 8581,
      "Ġbookings": 8582,
      "Ġlandlord": 8583,
      "Ġwriter": 8584,
      "Ġchancellor": 8585,
      "Ġventilation": 8586,
      "Ġvolatile": 8587,
      "Ġoverwhelmed": 8588,
      "election": 8589,
      "Ġerror": 8590,
      "Ġarrangements": 8591,
      "Ġfacilitate": 8592,
      "Ġjewel": 8593,
      "Ġgathered": 8594,
      "Ġmatthew": 8595,
      "cost": 8596,
      "eg": 8597,
      "hatt": 8598,
      "Ġsom": 8599,
      "Ġcv": 8600,
      "Ġphen": 8601,
      "Ġfost": 8602,
      "Ġtoil": 8603,
      "Ġhan": 8604,
      "Ġrejected": 8605,
      "etr": 8606,
      "Ġrans": 8607,
      "Ġjam": 8608,
      "ocur": 8609,
      "Ġads": 8610,
      "Ġadap": 8611,
      "Ġinteractions": 8612,
      "inton": 8613,
      "Ġdefend": 8614,
      "Ġmemo": 8615,
      "Ġsafer": 8616,
      "Ġmiller": 8617,
      "Ġarriving": 8618,
      "Ġspokeswoman": 8619,
      "Ġcriticized": 8620,
      "Ġlicensed": 8621,
      "Ġtroops": 8622,
      "Ġstressed": 8623,
      "Ġbelgium": 8624,
      "Ġpending": 8625,
      "ĠdÃ©": 8626,
      "Ġnu": 8627,
      "omes": 8628,
      "lyn": 8629,
      "Ġrio": 8630,
      "Ġwhit": 8631,
      "Ġbras": 8632,
      "Ġtransf": 8633,
      "Ġdesire": 8634,
      "Ġchristian": 8635,
      "Ġdemonstrate": 8636,
      "Ġexceptional": 8637,
      "Ġwindows": 8638,
      "Ġproteins": 8639,
      "Ġapartment": 8640,
      "Ġstrengthening": 8641,
      "Ġkelly": 8642,
      "Ġsemiconductor": 8643,
      "Ġsurgical": 8644,
      "cur": 8645,
      "focused": 8646,
      "nia": 8647,
      "town": 8648,
      "ï¼": 8649,
      "Ġsv": 8650,
      "Ġsher": 8651,
      "Ġcs": 8652,
      "Ġinherent": 8653,
      "Ġcomo": 8654,
      "Ġrc": 8655,
      "Ġranging": 8656,
      "Ġpeer": 8657,
      "oking": 8658,
      "ergies": 8659,
      "india": 8660,
      "Ġgrades": 8661,
      "Ġentre": 8662,
      "Ġexecution": 8663,
      "Ġsymptom": 8664,
      "ooth": 8665,
      "Ġinvestigate": 8666,
      "Ġroads": 8667,
      "Ġseparation": 8668,
      "Ġconvent": 8669,
      "Ġconvention": 8670,
      "burgh": 8671,
      "Ġrsquo": 8672,
      "nrnr": 8673,
      "Ġintervention": 8674,
      "Ġvoluntary": 8675,
      "Ġwholesale": 8676,
      "82": 8677,
      "cash": 8678,
      "Ġfired": 8679,
      "Ġnbs": 8680,
      "mente": 8681,
      "Ġamc": 8682,
      "orship": 8683,
      "Ġherd": 8684,
      "Ġwarnings": 8685,
      "Ġprotections": 8686,
      "Ġheaded": 8687,
      "Ġartist": 8688,
      "Ġstepped": 8689,
      "Ġslower": 8690,
      "Ġqueen": 8691,
      "Ġindicators": 8692,
      "Ġ1995": 8693,
      "Ġfootprint": 8694,
      "Ġselection": 8695,
      "Ġwebin": 8696,
      "Ġdestr": 8697,
      "Ġinspired": 8698,
      "Ġmountain": 8699,
      "Ġatmosp": 8700,
      "chers": 8701,
      "pan": 8702,
      "Ã«": 8703,
      "Ġwine": 8704,
      "Ġfant": 8705,
      "Ġandro": 8706,
      "Ġlyn": 8707,
      "Ġstag": 8708,
      "Ġontar": 8709,
      "irates": 8710,
      "imo": 8711,
      "Ġexplic": 8712,
      "arel": 8713,
      "Ġaccr": 8714,
      "Ġpayable": 8715,
      "Ġsocially": 8716,
      "Ġwarren": 8717,
      "Ġliver": 8718,
      "Ġurging": 8719,
      "Ġaddressed": 8720,
      "Ġcommentaries": 8721,
      "Ġthreatened": 8722,
      "Ġnorway": 8723,
      "ylum": 8724,
      "Ġadaptive": 8725,
      "Ġtriggered": 8726,
      "Ġsuddenly": 8727,
      "Ġcryptocur": 8728,
      "Ġprosecutor": 8729,
      "Ġintellectual": 8730,
      "bul": 8731,
      "ðŁ": 8732,
      "Ġdim": 8733,
      "Ġecho": 8734,
      "Ġupper": 8735,
      "Ġknowing": 8736,
      "Ġhalted": 8737,
      "Ġmultip": 8738,
      "Ġseasonal": 8739,
      "Ġambass": 8740,
      "Ġetfs": 8741,
      "Ġcontributor": 8742,
      "Ġinflammation": 8743,
      "Ġcontagious": 8744,
      "Ġtaste": 8745,
      ".'": 8746,
      "vals": 8747,
      "Ġbuck": 8748,
      "Ġmall": 8749,
      "Ġtoug": 8750,
      "Ġreward": 8751,
      "Ġcoach": 8752,
      "Ġconsists": 8753,
      "Ġattending": 8754,
      "Ġrefund": 8755,
      "Ġlocked": 8756,
      "Ġplacebo": 8757,
      "Ġjane": 8758,
      "Ġviewed": 8759,
      "Ġstatistical": 8760,
      "Ġfisher": 8761,
      "Ġattributed": 8762,
      "Ġcommunicate": 8763,
      "Ġlibrary": 8764,
      "Ġcalculations": 8765,
      "Ġlungs": 8766,
      "Ġibm": 8767,
      "Ġfrequent": 8768,
      "Ġgreek": 8769,
      "Ġinequality": 8770,
      "Ġdeterior": 8771,
      "Ġwsj": 8772,
      "Ġnbsp": 8773,
      "pal": 8774,
      "Ġhs": 8775,
      "Ġgut": 8776,
      "stone": 8777,
      "Ġasylum": 8778,
      "Ġjen": 8779,
      "iful": 8780,
      "umer": 8781,
      "Ġdisabilities": 8782,
      "forced": 8783,
      "Ġstrains": 8784,
      "Ġinterpret": 8785,
      "Ġblame": 8786,
      "Ġfamous": 8787,
      "Ġpassing": 8788,
      "Ġraises": 8789,
      "hentic": 8790,
      "Ġmigration": 8791,
      "Ġcamera": 8792,
      "Ġempowering": 8793,
      "fast": 8794,
      "may": 8795,
      "Ġbac": 8796,
      "Ġstyle": 8797,
      "Ġvou": 8798,
      "Ġ2026": 8799,
      "anche": 8800,
      "Ġdemograp": 8801,
      "Ġsimpl": 8802,
      "Ġadjustment": 8803,
      "Ġwedding": 8804,
      "Ġpointing": 8805,
      "Ġwalking": 8806,
      "Ø§Ø±": 8807,
      "Ġspectrum": 8808,
      "Ġempower": 8809,
      "Ġrocket": 8810,
      "worthy": 8811,
      "Ġhuawei": 8812,
      "lock": 8813,
      "Ġbound": 8814,
      "Ġng": 8815,
      "Ġforget": 8816,
      "step": 8817,
      "ima": 8818,
      "Ġweaker": 8819,
      "ateful": 8820,
      "Ġoutlets": 8821,
      "Ġpermitted": 8822,
      "Ġroutes": 8823,
      "Ġinteractive": 8824,
      "Ġpatent": 8825,
      "Ġgraph": 8826,
      "Ġcollections": 8827,
      "Ġballots": 8828,
      "abeth": 8829,
      "Ġcontinuity": 8830,
      "Ġoverwhelming": 8831,
      "Ġprolonged": 8832,
      "Ġtiktok": 8833,
      "Ġsystemic": 8834,
      "Ġontario": 8835,
      "iel": 8836,
      "Ġ~": 8837,
      "analy": 8838,
      "Ġgate": 8839,
      "ethe": 8840,
      "uls": 8841,
      "ellow": 8842,
      "Ġadam": 8843,
      "Ġscene": 8844,
      "Ġrises": 8845,
      "Ġminute": 8846,
      "comed": 8847,
      "Ġparam": 8848,
      "Ġcareful": 8849,
      "Ġinfecting": 8850,
      "Ġescape": 8851,
      "Ġlegit": 8852,
      "Ġmembership": 8853,
      "Ġturns": 8854,
      "Ġcelebrate": 8855,
      "Ġclimb": 8856,
      "Ġdependent": 8857,
      "Ġdiagnostics": 8858,
      "Ġfuels": 8859,
      "Ġlawyers": 8860,
      "Ġprevalence": 8861,
      "larg": 8862,
      "Ġsister": 8863,
      "enia": 8864,
      "anth": 8865,
      "Ġmt": 8866,
      "ĠmÃ¡s": 8867,
      "isive": 8868,
      "stock": 8869,
      "opin": 8870,
      "Ġchances": 8871,
      "Ġleban": 8872,
      "Ġshed": 8873,
      "neapolis": 8874,
      "Ġ105": 8875,
      "Ġsalary": 8876,
      "Ġzones": 8877,
      "Ġtopic": 8878,
      "Ġdeliber": 8879,
      "Ġpolicymakers": 8880,
      "Ġabsent": 8881,
      "Ġobjective": 8882,
      "Ġmechanism": 8883,
      "Ġplunged": 8884,
      "Ġgraphic": 8885,
      "Ġcc": 8886,
      "Ġwins": 8887,
      "Ġdun": 8888,
      "Ġnevada": 8889,
      "ela": 8890,
      "llers": 8891,
      "Ġregime": 8892,
      "Ġpattern": 8893,
      "Ġapprovals": 8894,
      "Ġelectr": 8895,
      "Ġgeopol": 8896,
      "Ġcontracting": 8897,
      "after": 8898,
      "Ġecb": 8899,
      "Ġlaunching": 8900,
      "Ġwelcomed": 8901,
      "Ġicu": 8902,
      "Ġfields": 8903,
      "Ġpromotions": 8904,
      "Ġsanders": 8905,
      "Ġdreams": 8906,
      "sten": 8907,
      "irt": 8908,
      "Ġring": 8909,
      "Ġchips": 8910,
      "Ġdisorder": 8911,
      "Ġperu": 8912,
      "Ġbacklog": 8913,
      "Ġguy": 8914,
      "Ġdirected": 8915,
      "Ġextending": 8916,
      "Ġcalc": 8917,
      "Ġtrem": 8918,
      "Ġcaf": 8919,
      "Ġinnovations": 8920,
      "value": 8921,
      "Ġvertical": 8922,
      "Ġcontainment": 8923,
      "Ġmisleading": 8924,
      "Ġsubstit": 8925,
      "Ġcanadians": 8926,
      "Ġseattle": 8927,
      "Ġpromoting": 8928,
      "Ġskept": 8929,
      "fire": 8930,
      "rix": 8931,
      "Ġtm": 8932,
      "orp": 8933,
      "Ġinquir": 8934,
      "Ġanc": 8935,
      "Ġdent": 8936,
      "Ġhaz": 8937,
      "eted": 8938,
      "uting": 8939,
      "âĢĻ,": 8940,
      "Ġseam": 8941,
      "Ġlev": 8942,
      "ipt": 8943,
      "Ġages": 8944,
      "Ġwhereas": 8945,
      "Ġchen": 8946,
      "Ġsuic": 8947,
      "vereign": 8948,
      "Ġconnections": 8949,
      "Ġamazing": 8950,
      "Ġcookie": 8951,
      "Ġkitchen": 8952,
      "Ġshaping": 8953,
      "Ġwarrant": 8954,
      "Ġpneumonia": 8955,
      "biontech": 8956,
      "ãĤ": 8957,
      "ĠÎ": 8958,
      "Ġsr": 8959,
      "only": 8960,
      "arity": 8961,
      "Ġtoler": 8962,
      "Ġnative": 8963,
      "Ġger": 8964,
      "unction": 8965,
      "Ġminneapolis": 8966,
      "Ġreluct": 8967,
      "Ġentr": 8968,
      "Ġimpacting": 8969,
      "Ġcarl": 8970,
      "Ġvaluations": 8971,
      "Ġsolic": 8972,
      "Ġwarns": 8973,
      "Ġspeaker": 8974,
      "shot": 8975,
      "sche": 8976,
      "Ġpersonalized": 8977,
      "Ġconstruct": 8978,
      "Ġreveals": 8979,
      "Ġalternatives": 8980,
      "Ġtasks": 8981,
      "Ġindoors": 8982,
      "Ġpieces": 8983,
      "Ġappointment": 8984,
      "Ġjpmorgan": 8985,
      "%).": 8986,
      "del": 8987,
      "drop": 8988,
      "Ġiron": 8989,
      "Ġbh": 8990,
      "Ġmn": 8991,
      "Ġdrew": 8992,
      "Ġandre": 8993,
      "Ġhu": 8994,
      "Ġchosen": 8995,
      "Ġspin": 8996,
      "ansas": 8997,
      "Ġpride": 8998,
      "Ġperpet": 8999,
      "Ġroche": 9000,
      "Ġscand": 9001,
      "olds": 9002,
      "Ġinteract": 9003,
      "Ġequally": 9004,
      "Ġsouthwest": 9005,
      "Ġscientist": 9006,
      "Ġphysician": 9007,
      "paid": 9008,
      "Ġdescribe": 9009,
      "ambling": 9010,
      "Ġevolve": 9011,
      "Ġvoices": 9012,
      "Ġadvertise": 9013,
      "Ġreforms": 9014,
      "Ġbirthday": 9015,
      "Ġvessels": 9016,
      "Ġdavis": 9017,
      "Ġtournament": 9018,
      "lan": 9019,
      "Ġtrop": 9020,
      "Ġpup": 9021,
      "Ġbever": 9022,
      "Ġchick": 9023,
      "Ġsovereign": 9024,
      "Ġimportantly": 9025,
      "Ġtracker": 9026,
      "Ġtelehealth": 9027,
      "Ġcardi": 9028,
      "Ġprecise": 9029,
      "iami": 9030,
      "Ġnomine": 9031,
      "Ġcontributing": 9032,
      "Ġtraject": 9033,
      "Ġprosecutors": 9034,
      "Ġdesperately": 9035,
      "Ġransom": 9036,
      "oil": 9037,
      "table": 9038,
      "Ø¬": 9039,
      "ĠÙĬ": 9040,
      "Ġpound": 9041,
      "aning": 9042,
      "Ġrum": 9043,
      "Ġabuses": 9044,
      "Ġarbit": 9045,
      "Ġpoised": 9046,
      "Ġdesk": 9047,
      "Ġauthentic": 9048,
      "Ġflip": 9049,
      "Ġdistingu": 9050,
      "lessly": 9051,
      "Ġamounted": 9052,
      "Ġcontinuously": 9053,
      "ĠÙħÙĨ": 9054,
      "Ġincentives": 9055,
      "Ġanalyzed": 9056,
      "Ġtransplantation": 9057,
      "Ġchamber": 9058,
      "Ġenormous": 9059,
      "dog": 9060,
      "mod": 9061,
      "Ġaqu": 9062,
      "inn": 9063,
      "Ġcer": 9064,
      "Ġcure": 9065,
      "Ġinoc": 9066,
      "Ġmiami": 9067,
      "Ġnick": 9068,
      "Ġformed": 9069,
      "thirds": 9070,
      "osures": 9071,
      "Ġleases": 9072,
      "Ġsobre": 9073,
      "Ġcommand": 9074,
      "Ġscan": 9075,
      "Ġremed": 9076,
      "Ġdeserve": 9077,
      "Ġenthus": 9078,
      "iversary": 9079,
      "Ġdemanding": 9080,
      "Ã©r": 9081,
      "Ġcompeting": 9082,
      "Ġguided": 9083,
      "check": 9084,
      "Ġpicking": 9085,
      "Ġreveal": 9086,
      "Ġpictures": 9087,
      "Ġcrowded": 9088,
      "Ġappointed": 9089,
      "Ġscottish": 9090,
      "Ġtransparent": 9091,
      "Ġkilomet": 9092,
      "depth": 9093,
      "Ġimpressive": 9094,
      "Ġunchanged": 9095,
      "largest": 9096,
      "dist": 9097,
      "hum": 9098,
      "Ø¶": 9099,
      "Ġmanc": 9100,
      "Ġreiter": 9101,
      "olly": 9102,
      "Ġconce": 9103,
      "Ġtracks": 9104,
      "Ġunw": 9105,
      "akh": 9106,
[...]
