{"<|endoftext|>":0,"!":1,"\"":2,"#":3,"$":4,"%":5,"&":6,"'":7,"(":8,")":9,"*":10,"+":11,",":12,"-":13,".":14,"/":15,"0":16,"1":17,"2":18,"3":19,"4":20,"5":21,"6":22,"7":23,"8":24,"9":25,":":26,";":27,"<":28,"=":29,">":30,"?":31,"@":32,"A":33,"B":34,"C":35,"D":36,"E":37,"F":38,"G":39,"H":40,"I":41,"J":42,"K":43,"L":44,"M":45,"N":46,"O":47,"P":48,"Q":49,"R":50,"S":51,"T":52,"U":53,"V":54,"W":55,"X":56,"Y":57,"Z":58,"[":59,"\\":60,"]":61,"^":62,"_":63,"`":64,"a":65,"b":66,"c":67,"d":68,"e":69,"f":70,"g":71,"h":72,"i":73,"j":74,"k":75,"l":76,"m":77,"n":78,"o":79,"p":80,"q":81,"r":82,"s":83,"t":84,"u":85,"v":86,"w":87,"x":88,"y":89,"z":90,"{":91,"|":92,"}":93,"~":94,"¡":95,"¢":96,"£":97,"¤":98,"¥":99,"¦":100,"§":101,"¨":102,"©":103,"ª":104,"«":105,"¬":106,"®":107,"¯":108,"°":109,"±":110,"²":111,"³":112,"´":113,"µ":114,"¶":115,"·":116,"¸":117,"¹":118,"º":119,"»":120,"¼":121,"½":122,"¾":123,"¿":124,"À":125,"Á":126,"Â":127,"Ã":128,"Ä":129,"Å":130,"Æ":131,"Ç":132,"È":133,"É":134,"Ê":135,"Ë":136,"Ì":137,"Í":138,"Î":139,"Ï":140,"Ð":141,"Ñ":142,"Ò":143,"Ó":144,"Ô":145,"Õ":146,"Ö":147,"×":148,"Ø":149,"Ù":150,"Ú":151,"Û":152,"Ü":153,"Ý":154,"Þ":155,"ß":156,"à":157,"á":158,"â":159,"ã":160,"ä":161,"å":162,"æ":163,"ç":164,"è":165,"é":166,"ê":167,"ë":168,"ì":169,"í":170,"î":171,"ï":172,"ð":173,"ñ":174,"ò":175,"ó":176,"ô":177,"õ":178,"ö":179,"÷":180,"ø":181,"ù":182,"ú":183,"û":184,"ü":185,"ý":186,"þ":187,"ÿ":188,"Ā":189,"ā":190,"Ă":191,"ă":192,"Ą":193,"ą":194,"Ć":195,"ć":196,"Ĉ":197,"ĉ":198,"Ċ":199,"ċ":200,"Č":201,"č":202,"Ď":203,"ď":204,"Đ":205,"đ":206,"Ē":207,"ē":208,"Ĕ":209,"ĕ":210,"Ė":211,"ė":212,"Ę":213,"ę":214,"Ě":215,"ě":216,"Ĝ":217,"ĝ":218,"Ğ":219,"ğ":220,"Ġ":221,"ġ":222,"Ģ":223,"ģ":224,"Ĥ":225,"ĥ":226,"Ħ":227,"ħ":228,"Ĩ":229,"ĩ":230,"Ī":231,"ī":232,"Ĭ":233,"ĭ":234,"Į":235,"į":236,"İ":237,"ı":238,"Ĳ":239,"ĳ":240,"Ĵ":241,"ĵ":242,"Ķ":243,"ķ":244,"ĸ":245,"Ĺ":246,"ĺ":247,"Ļ":248,"ļ":249,"Ľ":250,"ľ":251,"Ŀ":252,"ŀ":253,"Ł":254,"ł":255,"Ń":256,"Ġt":257,"Ġa":258,"in":259,"he":260,"re":261,"Ġs":262,"on":263,"Ġthe":264,"Ġc":265,"er":266,"Ġo":267,"at":268,"Ġw":269,"en":270,"Ġp":271,"es":272,"or":273,"an":274,"it":275,"Ġf":276,"Ġb":277,"Ġin":278,"Ġm":279,"ing":280,"ed":281,"al":282,"Ġan":283,"is":284,"ar":285,"Ġd":286,"Ġto":287,"Ġof":288,"ic":289,"Ġand":290,"ion":291,"ro":292,"Ġh":293,"as":294,"Ġre":295,"Ġl":296,"ou":297,"Ġth":298,"Ġe":299,"ent":300,"Ġn":301,"il":302,"âĢ":303,"om":304,"id":305,"us":306,"Ġg":307,"ve":308,"ct":309,"le":310,"Ġ-":311,"et":312,"ly":313,"Ġ--":314,"ur":315,"ut":316,"Ġst":317,"Ġfor":318,"un":319,"Ġon":320,"Ġbe":321,"st":322,"ĠâĢ":323,"ir":324,"ation":325,"ay":326,"ce":327,"ol":328,"im":329,"ver":330,"ad":331,"ig":332,"ow":333,"Ġthat":334,"Ġwe":335,"Ġis":336,"ot":337,"ch":338,"Ġit":339,"Ġ2":340,"Ġde":341,"Ġas":342,"ment":343,"ill":344,"Ġv":345,"Ġpro":346,"Ġy":347,"Ġcon":348,"ers":349,"Ġcom":350,"Ġhe":351,"se":352,"Ġr":353,"ith":354,"Ġ1":355,"ac":356,"âĢĻ":357,"Ġwith":358,"Ġwh":359,"Ġal":360,"est":361,"am":362,"ate":363,"ter":364,"ul":365,"ort":366,"Ġse":367,"and":368,"Ġne":369,"Ġex":370,"ies":371,"Ġmo":372,"ld":373,"up":374,"op":375,"th":376,"Ġj":377,"Ġat":378,"if":379,"Ġare":380,"ess":381,"Ġch":382,"res":383,"qu":384,"os":385,"ge":386,"Ġ(":387,"ave":388,"her":389,"Ġ20":390,"ain":391,"oc":392,"ect":393,"Ġtr":394,"em":395,"Ġun":396,"ity":397,"Ġsa":398,"ke":399,"ive":400,"Ġby":401,"Ġsh":402,"Ġco":403,"ial":404,"um":405,"ab":406,"rom":407,"tr":408,"Ġor":409,"Ġ'":410,"vid":411,"Ġfrom":412,"Ġcomp":413,"ap":414,"Ġhave":415,"oun":416,"ts":417,"ĠâĢľ":418,"port":419,"ĠâĢĿ":420,"igh":421,"Ġhas":422,"iv":423,"Ġthis":424,"Ġsaid":425,"el":426,"end":427,"Ġwor":428,"Ġinc":429,"lo":430,"ear":431,"ud":432,"Ġyou":433,"Ġad":434,"Ġwas":435,"Ġnot":436,"Ġmar":437,"red":438,"art":439,"Ġac":440,"00":441,"'s":442,"Ġgo":443,"Ġwill":444,"ions":445,"ant":446,"ould":447,"act":448,"ren":449,"Ġus":450,"Ġres":451,"Ġab":452,"Ġle":453,"ome":454,"Ġ''":455,"ust":456,"ie":457,"Ġexp":458,"ine":459,"19":460,"av":461,"Ġmore":462,"Ġsp":463,"Ġ202":464,"ub":465,"Ġk":466,"ast":467,"od":468,"Ġpl":469,"Ġnew":470,"ure":471,"Ġim":472,"ist":473,"ks":474,"``":475,"Ġ``":476,"ip":477,"all":478,"ib":479,"Ġbut":480,"any":481,"Ġ$":482,"ated":483,"ia":484,"ther":485,"Ġ3":486,"ans":487,"Ġcan":488,"Ġpr":489,"out":490,"ket":491,"ff":492,"ak":493,"Ġi":494,"ug":495,"ard":496,"Ġout":497,"Ġthey":498,"Ġour":499,"Ġcovid":500,"Ġtheir":501,"our":502,"Ġits":503,"Ġop":504,"ue":505,"Ġen":506,"iz":507,"ich":508,"Ġap":509,"Ġqu":510,"Ġall":511,"Ġam":512,"Ġcont":513,"Ġyear":514,"Ġdis":515,"are":516,"Ġper":517,"age":518,"ag":519,"ations":520,"ical":521,"ong":522,"du":523,"Ġint":524,"irus":525,"Ġme":526,"Ġup":527,"Ġwhe":528,"Ġpe":529,"ase":530,"Ġcl":531,"Ġcor":532,"con":533,"und":534,"Ġoff":535,"Ġmarket":536,"ĠĠ":537,"illion":538,"Ġte":539,"ight":540,"ack":541,"ance":542,"der":543,"ice":544,"Ġrec":545,"for":546,"Ġind":547,"ber":548,"ore":549,"able":550,"Ġag":551,"so":552,"ll":553,"og":554,"Ġwhich":555,"Ġmon":556,"ail":557,"Ġacc":558,"Ġgro":559,"ors":560,"Ġwork":561,"Ġbeen":562,"ople":563,"ok":564,"Ġpeople":565,"Ġdo":566,"Ġem":567,"ide":568,"Ġwho":569,"Ġother":570,"Ġfin":571,"Ġso":572,"Ġaf":573,"Ġthan":574,"anc":575,"ous":576,"Ġalso":577,"Ġover":578,"Ġro":579,"own":580,"Ġwere":581,"Ġabout":582,"ike":583,"Ġinv":584,"day":585,"Ġapp":586,"ments":587,"ary":588,"ime":589,"alth":590,"emic":591,"Ġ5":592,"form":593,"ign":594,"ays":595,"Ġ4":596,"ace":597,"ents":598,"Ġsup":599,"ire":600,"very":601,"Ġpart":602,"ates":603,"Ġreport":604,"ities":605,"Ġpre":606,"Ġcomm":607,"ven":608,"Ġthere":609,"Ġimp":610,"lic":611,"pt":612,"Ġsc":613,"Ġcr":614,"Ġhealth":615,"ord":616,"lud":617,"andemic":618,"onav":619,"Ġcompany":620,"ile":621,"ake":622,"vel":623,"Ġ2020":624,"onavirus":625,"Ġpres":626,"Ġstr":627,"Ġfir":628,"Ġcoun":629,"Ġpandemic":630,"ally":631,"acc":632,"Ġone":633,"uch":634,"Ġu":635,"ings":636,"Ġcoronavirus":637,"ital":638,"Ġlo":639,"ition":640,"Ġno":641,"iness":642,"Ġbus":643,"ence":644,"Ġif":645,"Ġsome":646,"Ġser":647,"Ġbr":648,"Ġhad":649,"ree":650,"ec":651,"Ġar":652,"Ġlike":653,"ult":654,"Ġfe":655,"duct":656,"ock":657,"Ġinclud":658,"Ġdr":659,"Ġmillion":660,"Ġhow":661,"Ġcons":662,"Ġbusiness":663,"Ġafter":664,"Ġvacc":665,"old":666,"Ġman":667,"Ġmay":668,"Ġinvest":669,"ens":670,"Ġwould":671,"low":672,"Ġact":673,"Ġinf":674,"try":675,"Ġreg":676,"Ġpo":677,"vern":678,"Ġadd":679,"Ġpol":680,"ugh":681,"Ġdec":682,"Ġass":683,"Ġhis":684,"uring":685,"Ġstate":686,"Ġgovern":687,"Ġtime":688,"fe":689,"ite":690,"Ġinter":691,"Ġ6":692,"conom":693,"Ġtw":694,"Ġfirst":695,"ep":696,"Ġjo":697,"Ġcas":698,"one":699,"Ġpub":700,"ased":701,"Ġbec":702,"Ġris":703,"Ġeconom":704,"Ġfr":705,"Ġwhen":706,"ian":707,"Ġsy":708,"ass":709,"rent":710,"aus":711,"ating":712,"ame":713,"ices":714,"ident":715,"uc":716,"ines":717,"ose":718,"li":719,"vers":720,"Ġunder":721,"Ġwee":722,"Ġwhat":723,"Ġcould":724,"Ġthese":725,"enc":726,"ational":727,"te":728,"lect":729,"Ġnow":730,"Ġworld":731,"Ġneed":732,"lob":733,"ert":734,"ach":735,"Ġcap":736,"Ġget":737,"Ġproduct":738,"Ġdat":739,"Ġpos":740,"ade":741,"Ġany":742,"Ġear":743,"Ġglob":744,"Ġrem":745,"Ġshe":746,"rop":747,"Ġmonth":748,"ility":749,"Ġyour":750,"ures":751,"ory":752,"Ġph":753,"ric":754,"Ġresp":755,"reat":756,"ang":757,"aly":758,"Ġ7":759,"ual":760,"ell":761,"rough":762,"Ġmin":763,"Ġmost":764,"hed":765,"ĠâĢĶ":766,"ress":767,"ild":768,"Ġdem":769,"ious":770,"Ġeff":771,"ues":772,"Ġmed":773,"ning":774,"Ġincre":775,"Ġserv":776,"ected":777,"olog":778,"Ġinto":779,"Ġdata":780,"Ġbo":781,"Ġret":782,"com":783,"Ġtrans":784,"Ġbet":785,"ced":786,"ting":787,"gh":788,"Ġend":789,"ited":790,"ific":791,"Ġla":792,"read":793,"ink":794,"iss":795,"Ġrep":796,"Ġprovid":797,"Ġwhile":798,"Ġrel":799,"Ġke":800,"Ġtech":801,"Ġ&":802,"==":803,"Ġjust":804,"Ġlast":805,"Ġoper":806,"Ġthem":807,"Ġduring":808,"Ġgrow":809,"Ġdes":810,"Ġ8":811,"Ġtest":812,"Ġmany":813,"Ġ2021":814,"amp":815,"Ġgovernment":816,"lp":817,"cess":818,"Ġlead":819,"Ġglobal":820,"000":821,"Ġquar":822,"erm":823,"Ġstud":824,"Ġtwo":825,"sear":826,"loy":827,"Ġfinanc":828,"Ġcontin":829,"Ġpat":830,"Ġsur":831,"Ġthose":832,"ick":833,"ne":834,"Ġhelp":835,"ough":836,"ina":837,"Ġ0":838,"Ġthrough":839,"Ġbu":840,"ause":841,"ss":842,"Ġcur":843,"we":844,"velop":845,"Ġresear":846,"Ġsee":847,"ative":848,"Ġeu":849,"eric":850,"arg":851,"Ġhigh":852,"Ġ9":853,"Ġaut":854,"Ġ10":855,"erg":856,"gr":857,"Ġanaly":858,"Ġback":859,"Ġdevelop":860,"ploy":861,"ted":862,"Ġcol":863,"Ġpublic":864,"ish":865,"20":866,"gan":867,"ise":868,"Ġann":869,"ange":870,"ound":871,"io":872,"Ġsub":873,"Ġsec":874,"Ġsuch":875,"Ġwell":876,"ward":877,"Ġev":878,"urn":879,"Ġcent":880,"Ġweek":881,"Ġincluding":882,"Ġban":883,"Ġdown":884,"Ġsal":885,"ump":886,"ied":887,"ics":888,"Ġeven":889,"ince":890,"Ġdif":891,"Ġagain":892,"fore":893,"Ġprot":894,"iew":895,"Ġnum":896,"Ġgen":897,"Ġonly":898,"ond":899,"..":900,"Ġrest":901,"ater":902,"Ġfinancial":903,"Ġfund":904,"Ġtechn":905,"Ġsign":906,"Ġquarter":907,"Ġameric":908,"Ġsupport":909,"Ġgroup":910,"wn":911,"ost":912,"ind":913,"Ġindus":914,"Ġsch":915,"Ġlong":916,"les":917,"Ġnet":918,"line":919,"Ġ201":920,"ible":921,"Ġgr":922,"Ġinst":923,"Ġyears":924,"Ġcompan":925,"Ġher":926,"co":927,"its":928,"Ġcases":929,"Ġkn":930,"Ġcompanies":931,"Ġwhere":932,"Ġsm":933,"Ġsoc":934,"Ġaccord":935,"Ġdon":936,"round":937,"ons":938,"Ġvaccine":939,"irect":940,"eral":941,"ross":942,"Ġbecause":943,"Ġsince":944,"bs":945,"Ġoffic":946,"ĠâĢĵ":947,"stem":948,"Ġchina":949,"Ġ[":950,"Ġlow":951,"Ġbefore":952,"Ġz":953,"ared":954,"ved":955,"Ġent":956,"Ġ]":957,"Ġresearch":958,"Ġsupp":959,"Ġrequ":960,"Ġimpact":961,"Ġvirus":962,"Ġcar":963,"Ġevery":964,"cr":965,"Ġshould":966,"xt":967,"Ġest":968,"Ġpresident":969,"uct":970,"ood":971,"Ġcall":972,"Ġgu":973,"Ġadv":974,"Ġnews":975,"Ġbl":976,"Ġma":977,"Ġinform":978,"ential":979,"Ġprof":980,"aking":981,"Ġmake":982,"Ġdep":983,"Ġshare":984,"Ġshow":985,"int":986,"ient":987,"ior":988,"ject":989,"Ġdirect":990,"Ġaccording":991,"Ġair":992,"Ġed":993,"ives":994,"),":995,"ft":996,"Ġfl":997,"ights":998,"Ġstill":999,"Ġcost":1000,"ork":1001,"ath":1002,"Ġbot":1003,"Ġsystem":1004,"Ġval":1005,"Ġstock":1006,"Ġins":1007,"tries":1008,"'t":1009,"ivers":1010,"Ġcust":1011,"cent":1012,"Ġexper":1013,"Ġstart":1014,"Ġuse":1015,"Ġpar":1016,"ns":1017,"ict":1018,"Ġplan":1019,"Ġbillion":1020,"Ġsays":1021,"Ġcountry":1022,"Ġbeing":1023,"Ġ19":1024,"Ġinte":1025,"ands":1026,"Ġprev":1027,"ology":1028,"Ġav":1029,"ful":1030,"Ġcustom":1031,"erson":1032,"ces":1033,"br":1034,"Ġpay":1035,"Ġhome":1036,"Ġfol":1037,"ular":1038,"ults":1039,"ients":1040,"app":1041,"cer":1042,"rest":1043,"med":1044,"Ġiss":1045,"Ġcare":1046,"Ġday":1047,"Ġcommun":1048,"Ġatt":1049,"hing":1050,"az":1051,"Ġmonths":1052,"Ġthree":1053,"als":1054,"Ġlook":1055,"ily":1056,"ull":1057,"Ġaround":1058,"ief":1059,"ution":1060,"Ġset":1061,"Ġthink":1062,"Ġemploy":1063,"Ġtake":1064,"air":1065,"Ġintern":1066,"cond":1067,"Ġgrowth":1068,"Ġcurrent":1069,"Ġdet":1070,"ool":1071,"Ġform":1072,"Ġrisk":1073,"Ġnumber":1074,"Ġfore":1075,"rope":1076,"Ġequ":1077,"hip":1078,").":1079,"Ġfact":1080,"Ġfollow":1081,"Ġant":1082,"Ġtrump":1083,"osp":1084,"Ġinformation":1085,"Ġsecond":1086,"ix":1087,"Ġlos":1088,"Ġmuch":1089,"Ġconf":1090,"Ġrecent":1091,"Ġmeas":1092,"Ġorgan":1093,"led":1094,"Ġfut":1095,"Ġgoing":1096,"down":1097,"Ġappro":1098,"Ġsay":1099,"Ġsales":1100,"Ġmy":1101,"urs":1102,"Ġvery":1103,"ax":1104,"Ġstates":1105,"Ġeurope":1106,"une":1107,"ency":1108,"Ġcontr":1109,"Ġ2019":1110,"Ġown":1111,"Ġmarch":1112,"ween":1113,"Ġhig":1114,"tt":1115,"ertain":1116,"Ġbetween":1117,"ene":1118,"ateg":1119,"Ġagainst":1120,"Ġ30":1121,"eng":1122,"Ġteam":1123,"Ġaccess":1124,"Ġvar":1125,"Ġeffect":1126,"Ġdue":1127,"itive":1128,"Ġinfect":1129,"Ġindustry":1130,"Ġeconomic":1131,"Ġbig":1132,"iod":1133,"Ġannoun":1134,"Ġacross":1135,"Ġsocial":1136,"Ġway":1137,"ials":1138,"Ġ12":1139,"man":1140,"Ġtop":1141,"imate":1142,"Ġremain":1143,"Ġbank":1144,"Ġdemand":1145,"ience":1146,"Ġservices":1147,"other":1148,"lease":1149,"Ġcountries":1150,"Ġread":1151,"ants":1152,"ision":1153,"Ġref":1154,"Ġloc":1155,"Ġperiod":1156,"ares":1157,"Ġsol":1158,"Ġresults":1159,"osed":1160,"ospital":1161,"Ġreal":1162,"Ġwar":1163,"ouse":1164,"Ġdiffe":1165,"cl":1166,"the":1167,"tal":1168,"ering":1169,"Ġdig":1170,"Ġnon":1171,"Ġboth":1172,"Ġnational":1173,"bers":1174,"ets":1175,"Ġdid":1176,"Ġhospital":1177,"min":1178,"Ġgood":1179,"Ġmanage":1180,"Ġsecur":1181,"land":1182,"uss":1183,"Ġschool":1184,"Ġplay":1185,"ps":1186,"ists":1187,"uary":1188,"Ġnext":1189,"Ġpolic":1190,"reak":1191,"Ġdef":1192,"ered":1193,"ying":1194,"Ġknow":1195,"Ġmem":1196,"Ġelect":1197,"Ġcris":1198,"Ġimport":1199,"sel":1200,"view":1201,"Ġbro":1202,"ized":1203,"Ġcre":1204,"Ġsen":1205,"Ġfac":1206,"Ġlevel":1207,"Ġmade":1208,"Ġpercent":1209,"Ġchild":1210,"Ġexpect":1211,"Ġdel":1212,"Ġhum":1213,"Ġbel":1214,"tion":1215,"Ġpartic":1216,"Ġve":1217,"Ġrece":1218,"por":1219,"verage":1220,"Ġauth":1221,"Ġsim":1222,"Ġreported":1223,"Ġlif":1224,"per":1225,"Ġtim":1226,"Ġreven":1227,"Ġthen":1228,"Ġfuture":1229,"arge":1230,"====":1231,"Ġdays":1232,"Ġche":1233,"Ġ11":1234,"ars":1235,"Ġwant":1236,"Ġhere":1237,"Ġmas":1238,"Ġ15":1239,"Ġ/":1240,"Ġopen":1241,"Ġpost":1242,"gram":1243,"ves":1244,"aff":1245,"ute":1246,"ms":1247,"Ġfound":1248,"iven":1249,"Ġcapital":1250,"Ġtold":1251,"ization":1252,"ner":1253,"Ġfar":1254,"Ġpot":1255,"Ġtrave":1256,"pl":1257,"Ġinterest":1258,"Ġaddition":1259,"Ġprotect":1260,"Ġterm":1261,"tions":1262,"ety":1263,"Ġspec":1264,"Ġtechnology":1265,"Ġmet":1266,"Ġworkers":1267,"Ġfur":1268,"Ġcrisis":1269,"ically":1270,"Ġmaj":1271,"Ġperson":1272,"ount":1273,"Ġpatients":1274,"gest":1275,"Ġpop":1276,"Ġaff":1277,"Ġconsum":1278,"itions":1279,"ined":1280,"Ġlim":1281,"Ġtotal":1282,"ission":1283,"ised":1284,"Ġdigital":1285,"ron":1286,"ivid":1287,"iting":1288,"ĠĠĠĠ":1289,"Ġel":1290,"ize":1291,"atch":1292,"Ġstrateg":1293,"Ġdise":1294,"ty":1295,"Ġrecord":1296,"ww":1297,"Ġfed":1298,"Ġnear":1299,"mber":1300,"Ġprogram":1301,"Ġtrad":1302,"ned":1303,"Ġfam":1304,"Ġspread":1305,"gin":1306,"Ġcle":1307,"ble":1308,"Ġmajor":1309,"Ġce":1310,"Ġmain":1311,"Ġfour":1312,"Ġface":1313,"ever":1314,"Ġallow":1315,"ds":1316,"Ġob":1317,"sis":1318,"Ġeconomy":1319,"aw":1320,"Ġeng":1321,"Ġcontro":1322,"Ġsame":1323,"ex":1324,"Ġ13":1325,"ov":1326,"str":1327,"Ġlock":1328,"Ġchange":1329,"ready":1330,"Ġright":1331,"ling":1332,"Ġless":1333,"Ġdeath":1334,"yp":1335,"ason":1336,"Ġprop":1337,"Ġunited":1338,"Ġpress":1339,"ued":1340,"iving":1341,"Ġpotential":1342,"ather":1343,"Ġcash":1344,"Ġmanagement":1345,"Ġchang":1346,"Ġes":1347,"Ġalready":1348,"Ġauthor":1349,"Ġprocess":1350,"Ġsupply":1351,"Ø§":1352,"Ġhouse":1353,"ote":1354,"Ġexpected":1355,"Ġamong":1356,"Ġ14":1357,"Ġsou":1358,"ially":1359,"Ġcontinue":1360,"itical":1361,"Ġuk":1362,"Ġkeep":1363,"Ġdoes":1364,"Ġsect":1365,"Ġext":1366,"Ġmod":1367,"Ġworking":1368,"Ġinvestors":1369,"da":1370,"Ġshares":1371,"Ġactiv":1372,"Ġstudy":1373,"Ã©":1374,"Ġforward":1375,"Ġhuman":1376,"Ġpow":1377,"Ġmeet":1378,"iversity":1379,"Ġanother":1380,"Ġreco":1381,"Ġloss":1382,"Ġbid":1383,"ocus":1384,"ending":1385,"ional":1386,"Ġreturn":1387,"Ġput":1388,"ked":1389,"Ġemploye":1390,"Ġused":1391,"Ġmarkets":1392,"Ġvis":1393,"Ġfurther":1394,"orth":1395,"ri":1396,"Ġsit":1397,"Ġlikely":1398,"Ġshort":1399,"Ġchall":1400,"bo":1401,"Ġemerg":1402,"ability":1403,"Ġsignific":1404,"Ġincrease":1405,"Ġprice":1406,"Ġexec":1407,"Ġmeasures":1408,"ey":1409,"ocks":1410,"Ġjune":1411,"ination":1412,"ten":1413,"Ġinternational":1414,"nal":1415,"Ġtravel":1416,"tle":1417,"Ġavail":1418,"Ġhowever":1419,"Ġcity":1420,"Ġpa":1421,"Ġtoday":1422,"ril":1423,"ished":1424,"Ġlaw":1425,"Ġcond":1426,"Ġdifferent":1427,"Ġlab":1428,"Ġdevelopment":1429,"Ġproject":1430,"Ġhigher":1431,"Ġbusinesses":1432,"ired":1433,"ister":1434,"Ġdeb":1435,"Ġkey":1436,"Ġpass":1437,"get":1438,"ry":1439,"year":1440,"Ġcour":1441,"Ġmr":1442,"Ġhold":1443,"hes":1444,"ained":1445,"Ġbene":1446,"Ġstrong":1447,"ness":1448,"ages":1449,"Ġhead":1450,"Ġproducts":1451,"Ġlarge":1452,"Ġanalysis":1453,"Ġperform":1454,"ah":1455,"Ġport":1456,"king":1457,"istr":1458,"Ġfew":1459,"Ġcomple":1460,"Ġfull":1461,"mpt":1462,"Ġhal":1463,"Ġfocus":1464,"Ġresult":1465,"Ġsignificant":1466,"Ġconcer":1467,"Ġonline":1468,"Ġincome":1469,"Ġ//":1470,"Ġbenef":1471,"nes":1472,"Ġoutb":1473,"ases":1474,"Ġcal":1475,"ism":1476,"look":1477,"Ġrate":1478,"Ġdisc":1479,"ustr":1480,"Ġinvestment":1481,"Ġsmall":1482,"ys":1483,"Ġlockdown":1484,"ually":1485,"Ġposs":1486,"acy":1487,"Ġapril":1488,"ving":1489,"Ġbuild":1490,"me":1491,"to":1492,"Ġgreat":1493,"Ġcustomers":1494,"Ġplace":1495,"Ġbetter":1496,"pr":1497,"Ġsl":1498,"erc":1499,"Ġbar":1500,"Ġstre":1501,"Ġearly":1502,"Ġfind":1503,"'re":1504,"rence":1505,"orm":1506,"Ġchildren":1507,"uly":1508,"Ġpriv":1509,"Ġbest":1510,"Ġwithout":1511,"Ġmat":1512,"mar":1513,"ention":1514,"Ġbas":1515,"way":1516,"Ġart":1517,"Ġwr":1518,"Ġeach":1519,"Ġimportant":1520,"Ġ18":1521,"Ġlat":1522,"just":1523,"ains":1524,"cept":1525,"Ġinfl":1526,"Ġlear":1527,"Ġstatements":1528,"Ġmedical":1529,"utions":1530,"Ġquest":1531,"Ġpast":1532,"Ġsu":1533,"atory":1534,"Ġadmin":1535,"Ġmean":1536,"Ġsw":1537,"Ġthough":1538,"ember":1539,"Ġrun":1540,"Ġtax":1541,"Ġstocks":1542,"Ġredu":1543,"Ġfood":1544,"Ġimm":1545,"row":1546,"Ġexecut":1547,"Ġimpro":1548,"Ġfil":1549,"ale":1550,"Ġhop":1551,"Ġ100":1552,"Ġpolicy":1553,"cast":1554,"Ġhard":1555,"ilities":1556,"Ġdeli":1557,"lose":1558,"Ġvalue":1559,"rap":1560,"oci":1561,"ton":1562,"Ġannounced":1563,"uf":1564,"Ġservice":1565,"Ġproduction":1566,"aving":1567,"Ġdisease":1568,"Ġpur":1569,"Ġbelie":1570,"ulation":1571,"Ġcontrol":1572,"Ġcome":1573,"Ġtyp":1574,"Ġprices":1575,"Ġbiden":1576,"Ġdistr":1577,"Ġmove":1578,"asing":1579,"Ġpositive":1580,"Ġrevenue":1581,"Ġtal":1582,"ergy":1583,"Ġavailable":1584,"Ġtimes":1585,".,":1586,"go":1587,"nings":1588,"Ġfree":1589,"Ġprovide":1590,"Ġrights":1591,"portun":1592,"ended":1593,"ality":1594,"Ġ17":1595,"omet":1596,"Ġleaders":1597,"Ġvol":1598,"crib":1599,"Ġopportun":1600,"âĢĶ":1601,"Ġ25":1602,"iday":1603,"Ġli":1604,"gress":1605,"Ġadded":1606,"ier":1607,"Ġmid":1608,"na":1609,"Ġweeks":1610,"ttps":1611,"Ġrestric":1612,"Ġleg":1613,"Ġgener":1614,"ird":1615,"Ġdist":1616,"hold":1617,"Ġsubs":1618,"Ġmight":1619,"Ġlocal":1620,"Ġyork":1621,"Ġable":1622,"Ġassoci":1623,"ified":1624,"Ġ16":1625,"arm":1626,"Ġsouth":1627,"Ġemployees":1628,"Ġclose":1629,"Ġjoh":1630,"ra":1631,"oms":1632,"Ġchief":1633,"stand":1634,"Ġsever":1635,"Ġjan":1636,"less":1637,"Ġ31":1638,"Ġbased":1639,"Ġinit":1640,"els":1641,"ield":1642,"Ġenv":1643,"Ġsecurity":1644,"Ġoil":1645,"ph":1646,"Ġhand":1647,"ived":1648,"Ġhapp":1649,"Ġstaff":1650,"Ġagree":1651,"ody":1652,"Ġoffer":1653,"Ġhim":1654,"Ġcosts":1655,"ening":1656,"Ġtarg":1657,"Ġdeal":1658,"Ġlife":1659,"atic":1660,"Ġlit":1661,"Ġfall":1662,"Ġprevious":1663,"ÙĦ":1664,"ural":1665,"Ġhist":1666,"ider":1667,"Ġplat":1668,"Ġlist":1669,"Ġtreat":1670,"Ġra":1671,"Ġprior":1672,"ins":1673,"be":1674,"Ġcommit":1675,"Ġupd":1676,"ocr":1677,"Ġadjust":1678,"ners":1679,"iron":1680,"Ġsept":1681,"Ġreally":1682,"Ġsuc":1683,"Ġvir":1684,"Ġretail":1685,"Ġwhether":1686,"ising":1687,"Ġoperations":1688,"pect":1689,"Ġuniversity":1690,"Ġvaccines":1691,"ai":1692,"Ġenergy":1693,"Ġpower":1694,"Ġwom":1695,"10":1696,"ral":1697,"Ġoutbreak":1698,"Ġcred":1699,"Ġlot":1700,"Ġleast":1701,"ĠÂ":1702,"ash":1703,"aring":1704,"Ġunt":1705,"Ġcompared":1706,"Ġjuly":1707,"akes":1708,"Ġincreased":1709,"Ġusing":1710,"Ġcompet":1711,"Ġadministr":1712,"Ġspe":1713,"Ġofficials":1714,"Ġstand":1715,"Ġnat":1716,"Ġeffort":1717,"work":1718,"based":1719,"Ġwithin":1720,"Ġplans":1721,"new":1722,"Ġaustr":1723,"Ġcamp":1724,"ged":1725,"Ġwed":1726,"Ġsour":1727,"lier":1728,"Ġvari":1729,"Ġview":1730,"Ġ50":1731,"Ġ200":1732,"Ġtesting":1733,"ufact":1734,"lished":1735,"Ġplatform":1736,"Ġmor":1737,"Ġdrug":1738,"Ġhit":1739,"Ġfederal":1740,"inc":1741,"Ġbeh":1742,"ator":1743,"Ġmult":1744,"aging":1745,"Ġoperating":1746,"Ġseen":1747,"Ġmanufact":1748,"Ġdirector":1749,"Ġjour":1750,"Ġfollowing":1751,"Ġrepres":1752,"Ġfive":1753,"Ġanalyst":1754,"Ġgre":1755,"Ġmonday":1756,"onse":1757,"Ġdiff":1758,"Ġearnings":1759,"Ġtoo":1760,"ped":1761,"Ġaverage":1762,"inated":1763,"Ġmedia":1764,"care":1765,"Â·":1766,"Ġge":1767,"Ġcase":1768,"Ġenviron":1769,"Ġdesign":1770,"Ġstep":1771,"ators":1772,"Ġrates":1773,"ck":1774,"Ġident":1775,"umm":1776,"Ġsaf":1777,"itor":1778,"Ġcorpor":1779,"Ġdemocr":1780,"Ġamerica":1781,"Ġresponse":1782,"Ġsk":1783,"side":1784,"Ġet":1785,"Ġguid":1786,"Ġinstit":1787,"Ġthird":1788,"Ġestim":1789,"ample":1790,"Ġsing":1791,"Ġbi":1792,"Ġlower":1793,"ats":1794,"Ġmoney":1795,"Ġq":1796,"Ġseveral":1797,"Ġyet":1798,"Ġlarg":1799,"Ġbor":1800,"Ġprofess":1801,"Ġchalleng":1802,"50":1803,"Ġamerican":1804,"Ġbuy":1805,"uesday":1806,"Ġacqu":1807,"Ġregul":1808,"Ġaustral":1809,"Ġothers":1810,"Ġtuesday":1811,"Ġmaking":1812,"Ġcut":1813,"ada":1814,"Ġsug":1815,"Ġvide":1816,"Ġuntil":1817,"ium":1818,"Ġhttps":1819,"Ġstay":1820,"Ġvi":1821,"aining":1822,"Ġgiven":1823,"Ġplease":1824,"Ġ24":1825,"Ġdece":1826,"Ġstatement":1827,"cc":1828,"uation":1829,"Ġtren":1830,"Ġbecome":1831,"Ġthings":1832,"ursday":1833,"Ġgeneral":1834,"Ġprodu":1835,"Ġthursday":1836,"Ġcy":1837,"Ġlet":1838,"ibut":1839,"Ġpoin":1840,"ively":1841,"rup":1842,"Ġseptember":1843,"Ġrelated":1844,"ĠâĢĺ":1845,"oll":1846,"ends":1847,"Ġhalf":1848,"term":1849,"Ġinclude":1850,"acks":1851,"Ġsuccess":1852,"Ġeas":1853,"aim":1854,"Ġwatch":1855,"Ġmater":1856,"Ġafric":1857,"Ġunc":1858,"Ġevents":1859,"hers":1860,"ler":1861,"Ġdepart":1862,"Ġtable":1863,"Ġneg":1864,"ense":1865,"Ġsafe":1866,"Ġexecutive":1867,"Ġens":1868,"Ġindivid":1869,"de":1870,"Ġrespons":1871,"Ġmembers":1872,"Ġcertain":1873,"30":1874,"Ġcontact":1875,"Ġsympt":1876,"Ġste":1877,"head":1878,"Ġpoint":1879,"Ġsomet":1880,"Ġenvironment":1881,"Ġdecember":1882,"Ġadditional":1883,"Ġemail":1884,"Ġcommunity":1885,"Ġrestrictions":1886,"Ġoffice":1887,"Ġtem":1888,"aily":1889,"nesday":1890,"Ġwednesday":1891,"Ġtrade":1892,"Ġclin":1893,"Ġpossible":1894,"Ġsix":1895,"Ġrecovery":1896,"Ġclear":1897,"Ġrele":1898,"Ġmust":1899,"Ġparticular":1900,"Ġmil":1901,"Ġcontract":1902,"Ġearlier":1903,"Ġprom":1904,"Ġindividual":1905,"Ġ@":1906,"Ġproble":1907,"Ġminister":1908,"Ġended":1909,"Ġdesp":1910,"err":1911,"ienc":1912,"%.":1913,"Ġtarget":1914,"inese":1915,"Ġeuropean":1916,"Ġperformance":1917,"Ġ21":1918,"apan":1919,"Ġmus":1920,"Ġexpl":1921,"Ġwin":1922,"lement":1923,"Ġissues":1924,"Ġaug":1925,"Ġnearly":1926,"Ġdecl":1927,"Ġturn":1928,"Ġexperience":1929,"bruary":1930,"Ġlive":1931,"self":1932,"Ġhour":1933,"Ġcop":1934,"ger":1935,"Ġpartners":1936,"ately":1937,"Ġcontent":1938,"Ġur":1939,"%,":1940,"ping":1941,"Ġchinese":1942,"aces":1943,"Ġapplic":1944,"Ġgold":1945,"Ġterms":1946,"Ġfriday":1947,"ots":1948,"aged":1949,"ames":1950,"Ġpolice":1951,"Ġconn":1952,"Ġdaily":1953,"Ġdom":1954,"Ġfebruary":1955,"ware":1956,"Ġquick":1957,"Ġsystems":1958,"Ġsafety":1959,"Ġseg":1960,"Ġeduc":1961,"Ġgas":1962,"Ġorder":1963,"ened":1964,"Ġfig":1965,"Ġwhy":1966,"ference":1967,"...":1968,"Ġrelease":1969,"Ġjournal":1970,"Ġfunds":1971,"Ġhaving":1972,"sh":1973,"Ġlatest":1974,"Ġdespite":1975,"Ġpresent":1976,"ogle":1977,"Ġjanuary":1978,"rel":1979,"ify":1980,"Ġmasks":1981,"ibility":1982,"Ġconfir":1983,"Ġcredit":1984,"Ġrisks":1985,"Ġlimited":1986,"Ġda":1987,"Ġjapan":1988,"ably":1989,"Ġnorm":1990,"Ġdev":1991,"Ġconditions":1992,"Ġsuggest":1993,"Ġcaus":1994,"Ġlooking":1995,"Ġadministration":1996,"Ġsurve":1997,"Ġwomen":1998,"Ġrepresent":1999,"ik":2000,"Ġsan":2001,"Ġjob":2002,"Ġdecision":2003,"ift":2004,"Ġdeaths":2005,"Ġcn":2006,"ured":2007,"Ġsell":2008,"Ġbroad":2009,"ilar":2010,"erv":2011,"Ġsector":2012,"pec":2013,"Ġ+":2014,"Ġcomb":2015,"Ġresour":2016,"Ġprep":2017,"========":2018,"ury":2019,"ove":2020,"Ġmic":2021,"Ġprofit":2022,"orn":2023,"Ġcoming":2024,"Ġceo":2025,"Ġassets":2026,"Ġleading":2027,"Ġclos":2028,"Ġreop":2029,"Ġaddress":2030,"ucture":2031,"oot":2032,"Ġ23":2033,"Ġpract":2034,"Ġdiscuss":2035,"Ġevent":2036,"Ġlevels":2037,"most":2038,"Ġdrop":2039,"Ġreporting":2040,"ney":2041,"Ġregion":2042,"ancing":2043,"Ġsus":2044,"Ġblo":2045,"Ġlittle":2046,"Ġwal":2047,"Ġnorth":2048,"Ġpublished":2049,"Ġvideo":2050,"Ġchanges":2051,"Ġfeel":2052,"Ġreview":2053,"Ġformer":2054,"Ġlater":2055,"Ġ*":2056,"Ġfamily":2057,"Ġbegin":2058,"Ġseason":2059,"Ġlaun":2060,"Ġ)":2061,"looking":2062,"Ġsymptoms":2063,"Ġunderstand":2064,"Ġrequire":2065,"Ġhed":2066,"ances":2067,"Ġneeds":2068,"Ġcollect":2069,"ones":2070,"omm":2071,"Ġprotest":2072,"Ġahead":2073,"Ġsimilar":2074,"cal":2075,"Ġbill":2076,"Ġjobs":2077,"Ġ22":2078,"Ġ500":2079,"Ġvot":2080,"Ġdou":2081,"Ġwhite":2082,"Ġdebt":2083,"Ġ40":2084,"Ġboard":2085,"icult":2086,"Ġslow":2087,"Ġep":2088,"Ġshop":2089,"Ġlink":2090,"action":2091,"Ġtaking":2092,"Ġnation":2093,"Ġ28":2094,"Ġ2022":2095,"Ġsust":2096,"Ġgerm":2097,"Ġruss":2098,"Ġprivate":2099,"wh":2100,"Ġbrit":2101,"Ġincreasing":2102,"ched":2103,"Ġcalled":2104,"Ġautom":2105,"Ġdifficult":2106,"ories":2107,"Ġindia":2108,"Ġclaim":2109,"Ġposition":2110,"Ġforecast":2111,"ores":2112,"Ġwest":2113,"Ġwon":2114,"Ġcoll":2115,"cing":2116,"Ġill":2117,"Ġphot":2118,"Ġgot":2119,"21":2120,"thing":2121,"Ġsumm":2122,"Ġclass":2123,"Ġtoget":2124,"Ġuncertain":2125,"Ġque":2126,"ĠĠĠ":2127,"Ġtogether":2128,"Ġreports":2129,"ival":2130,"ols":2131,"Ġgetting":2132,"Ġchain":2133,"Ġorig":2134,"Ġcustomer":2135,"Ġyoun":2136,"Ġhar":2137,"Ġcurrently":2138,"Ġprim":2139,"Ġcentral":2140,"ians":2141,"Ġline":2142,"bit":2143,"ta":2144,"Ġdepartment":2145,"Ġhealthcare":2146,"hic":2147,"mic":2148,"nov":2149,"mon":2150,"Ġpack":2151,"Ġbal":2152,"Ġpolitical":2153,"Ġpoints":2154,"sc":2155,"Ġide":2156,"Ġtre":2157,"Ġdoll":2158,"vere":2159,"Ġalong":2160,"wide":2161,"ÙĬ":2162,"oses":2163,"Ġhol":2164,"Ġannual":2165,"hen":2166,"ways":2167,"Ġmom":2168,"ank":2169,"Ġrul":2170,"ublic":2171,"ung":2172,"hest":2173,"Ġbelieve":2174,"Ġever":2175,"Ġmill":2176,"ret":2177,"gn":2178,"Ġrev":2179,"Ġfail":2180,"Ġblack":2181,"Ġoften":2182,"ris":2183,"aken":2184,"Ġlives":2185,"Ġpurch":2186,"Ġmass":2187,"Ġadjusted":2188,"Ġrap":2189,"Ġparticip":2190,"Ġimprove":2191,"arily":2192,"Ġcommon":2193,"Ġmeeting":2194,"itter":2195,"Ġexample":2196,"Ġonce":2197,"Ġ27":2198,"fol":2199,"Ġir":2200,"Ġstat":2201,"Ġdate":2202,"Ġspecial":2203,"aur":2204,"âĢĵ":2205,"pro":2206,"ining":2207,"Ġchar":2208,"Ġinfection":2209,"Ġold":2210,"ann":2211,"Ġfactors":2212,"Ġjohns":2213,"Ġstudents":2214,"Ġinterview":2215,"Ġfre":2216,"uck":2217,"of":2218,"Ġca":2219,"ems":2220,"Ġled":2221,"Ġarr":2222,"Ġequity":2223,"Ġrespond":2224,"Ġcampa":2225,"Ġhedge":2226,"let":2227,"Ġstop":2228,"Ġlargest":2229,"Ġconsumer":2230,"Ġability":2231,"Ġago":2232,"Ġsund":2233,"uel":2234,"Ġclimate":2235,"Ġmoder":2236,"%)":2237,"uction":2238,"Ġinvol":2239,"que":2240,"Ġfis":2241,"Ġmeans":2242,"Ġamericans":2243,"Ġareas":2244,"Ġdoing":2245,"Ġemergency":2246,"Ġcampaign":2247,"cy":2248,"Ġexc":2249,"Ġrose":2250,"Ġpred":2251,"Ġsenior":2252,"Ġmedic":2253,"inal":2254,"Ġbring":2255,"Ġalmost":2256,"Ġnever":2257,"Ġdeliver":2258,"Ġrise":2259,"by":2260,"Ġboost":2261,"Ġorganization":2262,"Ġrespect":2263,"Ġpopulation":2264,"ender":2265,"Ġgrowing":2266,"Ġx":2267,"Ġtrack":2268,"oid":2269,"ports":2270,"Ġsomething":2271,"mit":2272,"Ġinnov":2273,"essential":2274,"Ġdetail":2275,"Ġinfections":2276,"Ġtreatment":2277,"Ġorganiz":2278,"Ġaccount":2279,"Ġscient":2280,"Ġsolutions":2281,"Ġensure":2282,"tern":2283,"Ġrequired":2284,"Ġespec":2285,"ple":2286,"Ġsent":2287,"Ġhy":2288,"Ġamid":2289,"Ġstrategy":2290,"Ġindic":2291,"Ġhours":2292,"Ġcomes":2293,"Ġlabor":2294,"Ġtrading":2295,"Ġquestion":2296,"Ġefforts":2297,"Ġtested":2298,"Ġrecently":2299,"ley":2300,"Ġcomment":2301,"Ġgive":2302,"Ġcrit":2303,"Ġvirt":2304,"Ġaction":2305,"Ġthreat":2306,"lf":2307,"Ġlate":2308,"ards":2309,"Ġchallenges":2310,"Ġcenter":2311,"Ġvisit":2312,"gen":2313,"Ġtoward":2314,"Ġthous":2315,"Ġflow":2316,"Ġclinical":2317,"Ġexist":2318,"Ġdi":2319,"Ġfirm":2320,"Ġrepublic":2321,"Ġbre":2322,"Ġfeat":2323,"Ġcapac":2324,"Ġrelations":2325,"time":2326,"Ġpersonal":2327,"Ġaway":2328,"Ġhom":2329,"Ġespecially":2330,"Ġship":2331,"Ġpus":2332,"Ġred":2333,"Ġconsider":2334,"Ġindex":2335,"Ġtele":2336,"bc":2337,"Ġcell":2338,"Ġpet":2339,"Ġsunday":2340,"25":2341,"Ġ26":2342,"Ġclosed":2343,"ades":2344,"Ġful":2345,"Ġaccoun":2346,"Ġord":2347,"Ġhope":2348,"Ġbiggest":2349,"Ġocc":2350,"Ġrestaur":2351,"Ġresources":2352,"Ġnas":2353,"Ġsat":2354,"par":2355,"Ġtook":2356,"Ġshut":2357,"Ġreflect":2358,"Ġacquis":2359,"Ø§ÙĦ":2360,"Ġstreet":2361,"Ġprov":2362,"Ġaugust":2363,"Ġportfol":2364,"Ġtour":2365,"ides":2366,"ume":2367,"Ġneeded":2368,"Ġprevent":2369,"Ġconnect":2370,"ument":2371,"Ġwebs":2372,"ugg":2373,"Ġauthorities":2374,"Ġspace":2375,"Ġresearc":2376,"Ġ29":2377,"Ġheld":2378,"16":2379,"ras":2380,"Ġbenefits":2381,"Ġagency":2382,"Ġmicro":2383,"www":2384,"ont":2385,"Ġcit":2386,"Ġprovides":2387,"Ġcame":2388,"cov":2389,"Ġexperts":2390,"Ġbook":2391,"Ġvent":2392,"af":2393,"Ġsecurities":2394,"Ġschools":2395,"Ġasia":2396,"holders":2397,"chie":2398,"Ġtaken":2399,"uge":2400,"val":2401,"imately":2402,"Ġname":2403,"Ġreser":2404,"ĠØ":2405,"Ġsars":2406,"though":2407,"book":2408,"Ġabove":2409,"Ġconcerns":2410,"Ġexch":2411,"Ġrob":2412,"Ġphys":2413,"Ġnumbers":2414,"do":2415,"Ġaud":2416,"abilities":2417,"Ġvariant":2418,"Ġ%":2419,"Ġver":2420,"akers":2421,"Ġenc":2422,"Ġcontinued":2423,"Ġai":2424,"Ġforeign":2425,"12":2426,"org":2427,"Ġequip":2428,"oud":2429,"Ġnote":2430,"ern":2431,"Ġparty":2432,"Ġsustain":2433,"Ġcapacity":2434,"Ġbanks":2435,"mission":2436,"Ġgoogle":2437,"Ġopportunities":2438,"Ġfamil":2439,"Ġnormal":2440,"Ġsoft":2441,"Ġaustralia":2442,"Ġconference":2443,"Ġapproach":2444,"Ġmodel":2445,"Ġrole":2446,"Ġleft":2447,"Ġprem":2448,"Ã³":2449,"Ġsevere":2450,"Ġreceived":2451,"lines":2452,"Ġdoc":2453,"Ġoutside":2454,"Ġsoon":2455,"Ġren":2456,"Ġartic":2457,"ude":2458,"Ġalthough":2459,"aper":2460,"Ġrecomm":2461,"Ġknown":2462,"Ġenough":2463,"employ":2464,"Ġjohnson":2465,"Ġsituation":2466,"Ã¡":2467,"Ġnove":2468,"Ġachie":2469,"Ġrapid":2470,"Ġhot":2471,"Ġmess":2472,"Ġincluded":2473,"Ġstarted":2474,"Ġintegr":2475,"Ġeffective":2476,"Ġfell":2477,"Ġconsumers":2478,"Ġnetwork":2479,"Ġquickly":2480,"here":2481,"medi":2482,"idents":2483,"rs":2484,"Ġfear":2485,"Ùħ":2486,"Ġsource":2487,"icip":2488,"Ġbelow":2489,"Ġadvis":2490,"force":2491,"Ġafrica":2492,"Ġappear":2493,"Ġ2018":2494,"Ġelection":2495,"Ġmiss":2496,"Ġexpens":2497,"Ġreach":2498,"Ġviol":2499,"Ġpers":2500,"Ġcritical":2501,"Ġnovember":2502,"Ġvaccination":2503,"Ġarg":2504,"Ġcommission":2505,"Ġtests":2506,"sw":2507,"Ġschol":2508,"Ġdeep":2509,"Ġprovided":2510,"Ġeducation":2511,"Ġincludes":2512,"Ġcreate":2513,"Ġsure":2514,"Ġlog":2515,"Ġkind":2516,"Ġdivid":2517,"Ġspending":2518,"Ġofficer":2519,"Ġtechnolog":2520,"Ġbegan":2521,"Ġcanada":2522,"Ġamaz":2523,"Ġfun":2524,"ÃŃ":2525,"isions":2526,"Ġoct":2527,"Ġbreak":2528,"Ġattr":2529,"lex":2530,"Ġfinance":2531,"Ġremains":2532,"Ġdone":2533,"ibution":2534,"Ġassess":2535,"Ġcolle":2536,"Ġmaint":2537,"Ġbit":2538,"Ġrequest":2539,"Ġsurvey":2540,"Ġcho":2541,"off":2542,"Ġcalif":2543,"15":2544,"Ġexperienc":2545,"Ġmoment":2546,"Ġhistor":2547,"ij":2548,"Ġtrust":2549,"iation":2550,"Ġwa":2551,"Ġregard":2552,"Ġpropert":2553,"Ġcourse":2554,"Ġfiscal":2555,"Ġfast":2556,"Ġcorporate":2557,"Ġcommerc":2558,"ellig":2559,"atives":2560,"Ġopt":2561,"Ġbasis":2562,"Ġmanufacturing":2563,"Ġtrial":2564,"Ġinflation":2565,"Ġlonger":2566,"Ġfight":2567,"Ġremote":2568,"ither":2569,"aps":2570,"Ġeffic":2571,"Ġtransport":2572,"Ġcommunic":2573,"Ġactivity":2574,"Ġsegment":2575,"rastr":2576,"Ġissue":2577,"Ġvers":2578,"Ġasked":2579,"Ġmargin":2580,"Ġimplement":2581,"Ġ60":2582,"Ġparticularly":2583,"Ġexpand":2584,"Ġinfrastr":2585,"Ġessential":2586,"set":2587,"Ġways":2588,"Ġunl":2589,"Ġguidance":2590,"Ġseries":2591,"ceed":2592,"Ġimmun":2593,"Ġoverall":2594,"Ġmanag":2595,"Ġfinal":2596,"epend":2597,"Ġyoung":2598,"Ġnecess":2599,"Ġreceive":2600,"Ġhost":2601,"ogn":2602,"Ġlearning":2603,"Ġwind":2604,"Ġevid":2605,"Ġintellig":2606,"selves":2607,"Ġeveryone":2608,"lying":2609,"Ġlost":2610,"ape":2611,"ĠâĢĿ.":2612,"Ġmob":2613,"Ġ199":2614,"Ġactivities":2615,"iple":2616,"Ġgroups":2617,"Ġsaying":2618,"Ġportfolio":2619,"Ġalways":2620,"Ġexchange":2621,"Ġdisrup":2622,"Ġpharm":2623,"Ġplayers":2624,"Ġresearchers":2625,"Ġwebsite":2626,"Ġut":2627,"Ġantib":2628,"Ġtrends":2629,"han":2630,"Ġshowed":2631,"Ġtherap":2632,"Ġhighest":2633,"Ġdistancing":2634,"Ġenter":2635,"Ġinfrastructure":2636,"Ġrat":2637,"Ġcommercial":2638,"Ġtur":2639,"Ġacce":2640,"Ġprogress":2641,"Ġwashing":2642,"Ġshows":2643,"Ġreduce":2644,"irc":2645,"Ġinvestig":2646,"Ġunemploy":2647,"Ġreason":2648,"ograp":2649,"Ġchair":2650,"tech":2651,"Ġrules":2652,"Ġ|":2653,"pm":2654,"Ġsuff":2655,"40":2656,"Ġcourt":2657,"den":2658,"Ġconfirmed":2659,"rist":2660,"vered":2661,"Ġrange":2662,"Ġfunding":2663,"izer":2664,"Ġsaw":2665,"Ġprime":2666,"Ġsusp":2667,"88":2668,"Ġwater":2669,"Ġbat":2670,"ams":2671,"Ġfri":2672,"Ġdoct":2673,"Ġtrying":2674,"Ġmakes":2675,"Ġiniti":2676,"Ġcommunities":2677,"Ġrecogn":2678,"Ġacceler":2679,"Ġaim":2680,"ring":2681,"Ġgovernments":2682,"Ġcomplete":2683,"Ġstar":2684,"Ġcance":2685,"Ġamount":2686,"mer":2687,"27":2688,"Ġgreen":2689,"igr":2690,"Ġcaliforn":2691,"Ġrising":2692,"Ġnegative":2693,"Ġequipment":2694,"Ġscholar":2695,"ald":2696,"Ġvaccinated":2697,"Ġagreement":2698,"Ġsingle":2699,"Ã§":2700,"uters":2701,"la":2702,"Ġfrance":2703,"Ġtype":2704,"ters":2705,"Ġstrugg":2706,"Ġavoid":2707,"ĠØ§ÙĦ":2708,"reme":2709,"Ġstores":2710,"Ġopportunity":2711,"ico":2712,"dr":2713,"rote":2714,"Ġbond":2715,"Ġroll":2716,"Ġsold":2717,"Ġestimates":2718,"Ġrather":2719,"anced":2720,"11":2721,"Ġextr":2722,"Ġll":2723,"Ġage":2724,"Ġkill":2725,"micron":2726,"Ġmand":2727,"izing":2728,"ober":2729,"Ġdam":2730,"olid":2731,"Ġsubscrib":2732,"Ġarea":2733,"Ġomicron":2734,"Ġdidn":2735,"ane":2736,"Ġdecre":2737,"jo":2738,"Ġgl":2739,"Ġloans":2740,"Ġofficial":2741,"urance":2742,"ado":2743,"going":2744,"Ġthousands":2745,"ga":2746,"Ġconstr":2747,"Ġje":2748,"Ġcalifornia":2749,"verse":2750,"aker":2751,"Ġindepend":2752,"Ġassist":2753,"Ġnatural":2754,"Ġinvestments":2755,"iety":2756,"use":2757,"ead":2758,"Ġbuilding":2759,"Ġer":2760,"Ġstudies":2761,"Ġland":2762,"Ġself":2763,"Ġoctober":2764,"Ġtell":2765,"ently":2766,"uing":2767,"Ġprob":2768,"yn":2769,"Ġdoesn":2770,"Ġmask":2771,"Ġcand":2772,"Ġwrote":2773,"Ġcirc":2774,"Ġaffect":2775,"Ġvirtual":2776,"pe":2777,"Ġcnn":2778,"ios":2779,"Ġden":2780,"Ġhospitals":2781,"Ġlosses":2782,"Ġhistory":2783,"Ġfront":2784,"Ġdeterm":2785,"Ġpreviously":2786,"lish":2787,"Ġevidence":2788,"Ġny":2789,"Ġvict":2790,"Ġquarant":2791,"26":2792,"che":2793,"ises":2794,"Ġphase":2795,"Ġrac":2796,"Ġexpress":2797,"pos":2798,"Ġconduct":2799,"Ġcloud":2800,"crip":2801,"Ġgm":2802,"reng":2803,"Ġassociated":2804,"Ġwide":2805,"Ġinstead":2806,"Ġthing":2807,"Ġbey":2808,"pa":2809,"kn":2810,"Ġebit":2811,"Ġtwitter":2812,"Ġbehind":2813,"18":2814,"sec":2815,"Ġleader":2816,"Ġentire":2817,"Ġexpectations":2818,"Ġmit":2819,"Ġorganizations":2820,"abor":2821,"Ġannounce":2822,"Ġside":2823,"aster":2824,"Ġfully":2825,"17":2826,"Ġinfected":2827,"Ġcaused":2828,"Ġstreng":2829,"Ġpressure":2830,"Ġfair":2831,"berg":2832,"Ġaid":2833,"Ġpopular":2834,"Ġquestions":2835,"Ġrussia":2836,"Ġbrand":2837,"Ġpolicies":2838,"Ġinflu":2839,"Ġacquisition":2840,"Ġproblem":2841,"Ġunemployment":2842,"ires":2843,"Ġconsolid":2844,"ison":2845,"Ġpros":2846,"24":2847,"ÙĨ":2848,"cil":2849,"Ġimmedi":2850,"Ġbeyond":2851,"Ġunion":2852,"Ġlack":2853,"ession":2854,"Ġ#":2855,"Ġcontain":2856,"Ġcities":2857,"istics":2858,"Ġquality":2859,"Ġanalysts":2860,"back":2861,"ming":2862,"market":2863,"Ġsurge":2864,"Ġfourth":2865,"ging":2866,"Ġteams":2867,"Ġmorning":2868,"Ġscience":2869,"ondon":2870,"Ġconst":2871,"Ġfoot":2872,"Ġcontinues":2873,"Ġcheck":2874,"dle":2875,"Ġanti":2876,"Ġintelligence":2877,"pre":2878,"Ġben":2879,"Ġoffering":2880,"Ġeuro":2881,"Ġrevenues":2882,"ibuted":2883,"ott":2884,"Ġcitiz":2885,"roll":2886,"Ġreb":2887,"oks":2888,"ÙĪ":2889,"Ġloan":2890,"Ġeffects":2891,"mb":2892,"Ġprotection":2893,"Ġwashington":2894,"43":2895,"....":2896,"Ġbenefit":2897,"Ġsuccessful":2898,"Ġsite":2899,"Ġsoftware":2900,"13":2901,"umb":2902,"Ġmillions":2903,"fer":2904,"Ġdelivery":2905,"Ġadop":2906,"Ġmark":2907,"Ġpayments":2908,"Ġobs":2909,"Ġwall":2910,"ĠĠĠĠĠĠĠĠ":2911,"over":2912,"Ġrelative":2913,"Ġfa":2914,"Ġsecret":2915,"ob":2916,"Ġfel":2917,"Ġdescrib":2918,"Ġdomest":2919,"Ġcult":2920,"Ġsmart":2921,"Ġreleased":2922,"Ġpick":2923,"Ġâ":2924,"Ġvia":2925,"sequ":2926,"related":2927,"iment":2928,"Ġoutlook":2929,"Ġserious":2930,"ark":2931,"ĠâĢ¢":2932,"Ġarticle":2933,"Ġlight":2934,"vert":2935,"Ġfacebook":2936,"Ġten":2937,"utes":2938,"Ġstore":2939,"Ġgermany":2940,"Ġcandid":2941,"Ã£":2942,"Ġindividuals":2943,"Ġusers":2944,"Ġencour":2945,"Ġsize":2946,"70":2947,"Ġresidents":2948,"Ġmen":2949,"Ġanticip":2950,"Ġtechnologies":2951,"Ġabs":2952,"Ġoptim":2953,"Ġlib":2954,"Ġcause":2955,"Ġbud":2956,"Ġbrands":2957,"Ġproviding":2958,"Ġchrist":2959,"Ġfamilies":2960,"Ġfav":2961,"Ġexisting":2962,"Ġbase":2963,"Ġdoses":2964,"Ġterr":2965,"Ġlondon":2966,"Ġupdate":2967,"Ġhous":2968,"Ġexpenses":2969,"quid":2970,"Ġcommitte":2971,"Ġphotos":2972,"Ġmultiple":2973,"rec":2974,"Ġmot":2975,"Ġroad":2976,"Ġprojects":2977,"ips":2978,"Ġpath":2979,"Ġmis":2980,"Ġvehic":2981,"Ġcou":2982,"Ġamazon":2983,"Ã£o":2984,"80":2985,"Ġairlines":2986,"Ġscre":2987,"daq":2988,"ma":2989,"Ġbur":2990,"Ġexter":2991,"Ġmeasure":2992,"Ġlearn":2993,"14":2994,"Ġdia":2995,"Ġstim":2996,"Ġdecline":2997,"ls":2998,"ored":2999,"Ġnight":3000,"Ġdiv":3001,"Ġactually":3002,"issions":3003,"Ġlimit":3004,"wor":3005,"Ġselect":3006,"Ġ36":3007,"Ġpatient":3008,"Ġhighl":3009,"Ġnasdaq":3010,"wa":3011,"Ġvarious":3012,"Ġgreater":3013,"come":3014,"ached":3015,"Ġmort":3016,"Ġliving":3017,"xy":3018,"empt":3019,"Ġ2017":3020,"Ġisn":3021,"aced":3022,"Ġpf":3023,"ague":3024,"Ġadding":3025,"Ġps":3026,"ĠâĢĿ,":3027,"Ġdrive":3028,"Ġsubject":3029,"hol":3030,"Ġwent":3031,"Ġspok":3032,"Ġwrit":3033,"Ġdollar":3034,"Ġcover":3035,"po":3036,"rain":3037,"Ġdomestic":3038,"iring":3039,"Ġapprox":3040,"ties":3041,"Ġasset":3042,"istic":3043,"Ġ,":3044,"Ġsummer":3045,"Ġec":3046,"Ġthemselves":3047,"Ġkore":3048,"Ġblock":3049,"ction":3050,"Ġvul":3051,"Ġpolit":3052,"Ġmatter":3053,"Ġresponsible":3054,"23":3055,"Ġexternal":3056,"Ġtransform":3057,"Ġbad":3058,"Ġgame":3059,"Ġyield":3060,"Ġstimul":3061,"Ġestab":3062,"Ġeverything":3063,"Ġseven":3064,"Ġund":3065,"Ġdeveloped":3066,"Ġallowed":3067,"rency":3068,"Ġphil":3069,"Ø§Ø":3070,"ama":3071,"Ġcongress":3072,"ida":3073,"Ġcommittee":3074,"ky":3075,"isation":3076,"Ġintro":3077,"Ġfigure":3078,"Ġvulner":3079,"ban":3080,"Ġsn":3081,"imin":3082,"aries":3083,"Ġforce":3084,"Ġengland":3085,"ables":3086,"Ġtempor":3087,"oss":3088,"fect":3089,"Ġeither":3090,"Ġconvers":3091,"Ġepid":3092,"duction":3093,"Ġbecom":3094,"ĠÂ©":3095,"Ġsil":3096,"Ġpan":3097,"enge":3098,"Ġgames":3099,"Ġseeing":3100,"Ġaffected":3101,"ique":3102,"ification":3103,"Ġmember":3104,"Ġongoing":3105,"ented":3106,"Ġ35":3107,"Ġlegal":3108,"Ġ80":3109,"Ġcollabor":3110,"Ġ.":3111,"fort":3112,"Ġdemon":3113,"Ġindustries":3114,"75":3115,"put":3116,"ĠÂ£":3117,"ero":3118,"Ġreuters":3119,"Ġnurs":3120,"Ġrace":3121,"Ġbalance":3122,"ony":3123,"Ġsche":3124,"clus":3125,"ried":3126,"Ġhong":3127,"Ġregulatory":3128,"Ġsyn":3129,"Ġapproximately":3130,"person":3131,"Ġtex":3132,"reg":3133,"Ġspecific":3134,"Ġclean":3135,"osure":3136,"Ġmonitor":3137,"Ġindustr":3138,"Ġliquid":3139,"while":3140,"Ġkong":3141,"29":3142,"âĢ¦":3143,"load":3144,"Ġproblems":3145,"au":3146,"Ġstory":3147,"Ġinvestor":3148,"35":3149,"dc":3150,"Ġpen":3151,"Ġcore":3152,"Ġmiddle":3153,"Ġdemonstr":3154,"Ġcharg":3155,"Ġhuge":3156,"Ġcaption":3157,"Ġtradition":3158,"Ġpaid":3159,"Ġfocused":3160,"ids":3161,"Ġ70":3162,"Ġcoverage":3163,"Ġchallenge":3164,"Ġdistribution":3165,"Ġpfizer":3166,"istry":3167,"Ġinsights":3168,"Ġmag":3169,"asts":3170,"Ġtransmission":3171,"Ġebitda":3172,"Ġsense":3173,"Ġidea":3174,"Ġnor":3175,"ha":3176,"hod":3177,"Ġexcept":3178,"yr":3179,"Ġprograms":3180,"Ġhomes":3181,"ijing":3182,"Ġcompar":3183,"Ġgain":3184,"Ġflu":3185,"mp":3186,"Ġcitizens":3187,"Ġweb":3188,"Ġ'',":3189,"Ġmac":3190,"Ġpercentage":3191,"Ġestimated":3192,"Ġdiagn":3193,"Ġsens":3194,"Ġissued":3195,"cul":3196,"amb":3197,"Ġclaims":3198,"Ġmal":3199,"Ġmich":3200,"ature":3201,"Ġflo":3202,"hips":3203,"Ġwear":3204,"Ġvice":3205,"where":3206,"44":3207,"aks":3208,"Ġworth":3209,"Ġinstitute":3210,"Ġprofessor":3211,"ply":3212,"hens":3213,"Ġcross":3214,"ament":3215,"Ġtry":3216,"key":3217,"ches":3218,"Ġhide":3219,"leg":3220,"ee":3221,"Ġdead":3222,"Ġscop":3223,"Ġengine":3224,"22":3225,"lies":3226,"Ġsepar":3227,"Ġfacilities":3228,"Ġproperty":3229,"Ġmoving":3230,"Ġnoted":3231,"Ġexplo":3232,"lied":3233,"Ġinsurance":3234,"Ġbehav":3235,"Ġfirms":3236,"Ġdocument":3237,"aud":3238,"Ġmajority":3239,"Ġmanufacture":3240,"Ġtrend":3241,"Ġsites":3242,"Ġbritish":3243,"Ġment":3244,"Ġwhole":3245,"idence":3246,"odies":3247,"Ġspokes":3248,"hood":3249,"Ġbeijing":3250,"Ġappe":3251,"Ġreduced":3252,"Ġapplication":3253,"lin":3254,"Ĥ¬":3255,"Ġeval":3256,"bor":3257,"Ġarch":3258,"Ġregional":3259,"Ġmaterial":3260,"Ġtools":3261,"amm":3262,"amed":3263,"Ġseem":3264,"Ġbraz":3265,"Ġthought":3266,"Ġaccept":3267,"Ġelse":3268,"Ġparts":3269,"Ġ90":3270,"Ġrestaurants":3271,"Ġupdated":3272,"Ġcenters":3273,"Ġjump":3274,"Ġciv":3275,"Ġjohn":3276,"Ġshar":3277,"Ġexpert":3278,"Ġoffers":3279,"================":3280,"Ġconsult":3281,"Ġstarting":3282,"uk":3283,"Ġquarantine":3284,"Ġfuel":3285,"ani":3286,"Ġworks":3287,"Ġsubst":3288,"Ġmc":3289,"agr":3290,"Ġstrategic":3291,"soft":3292,"Ġdecisions":3293,"Ġtender":3294,"Ġindustrial":3295,"actions":3296,"ubs":3297,"Ġsatur":3298,"eration":3299,"Ġediting":3300,"ilt":3301,"Ġtrials":3302,"Ġleave":3303,"Ġdied":3304,"Ġscen":3305,"Ġground":3306,"Ġpain":3307,"place":3308,"Ġprospect":3309,"hel":3310,"Ġtraining":3311,"Ġinitial":3312,"Ġdoub":3313,"Ġmeaning":3314,"rents":3315,"Ġclients":3316,"Ġ2016":3317,"Ġdelay":3318,"hi":3319,"Ġbeginning":3320,"Ġstimulus":3321,"Ġcard":3322,"Ġforced":3323,"Ġassum":3324,"Ġbecame":3325,"Ġthroughout":3326,"Ġrepl":3327,"Ġwave":3328,"Ġeast":3329,"aut":3330,"hs":3331,"Ġwhose":3332,"Ġcat":3333,"Ġdeveloping":3334,"Ġdemocratic":3335,"Ġder":3336,"Ġheart":3337,"Ġworldwide":3338,"Ġprobably":3339,"Ġshift":3340,"prise":3341,"Ġgains":3342,"Ġitaly":3343,"Ġdonald":3344,"Ġshareholders":3345,"Ġorigin":3346,"Ġprinc":3347,"Ġ2012":3348,"Ġsecretary":3349,"rew":3350,"99":3351,"Ġhur":3352,"aft":3353,"imes":3354,"Ġprec":3355,"Ġsignificantly":3356,"Ġoptions":3357,"Ġsaturday":3358,"Ġlt":3359,"60":3360,"Ġrelief":3361,"body":3362,"Ġcanad":3363,"Ġlaunch":3364,"ery":3365,"28":3366,"Ġtexas":3367,"45":3368,"Ġcreated":3369,"mark":3370,"Ġmeanwhile":3371,"ivity":3372,"Ġhelping":3373,"Ġimmune":3374,"acing":3375,"Ġhighly":3376,"Ġsale":3377,"Ġleadership":3378,"bon":3379,"aming":3380,"apt":3381,"elines":3382,"Ġround":3383,"ided":3384,"Ġextra":3385,"Ġelectric":3386,"isl":3387,"Ġreve":3388,"Ġexclud":3389,"Ġafp":3390,"Ġdirectly":3391,"33":3392,"Ġmach":3393,"Ġitems":3394,"Ġrad":3395,"2020":3396,"Ġmilit":3397,"Ġnine":3398,"Ġowners":3399,"news":3400,"Ġconv":3401,"Ġspot":3402,"Ġhelped":3403,"Ġemerging":3404,"mitted":3405,"Ġdetails":3406,"acific":3407,"Ġexpects":3408,"Ġchann":3409,"Ġplant":3410,"Ġnotes":3411,"ensive":3412,"Ġregarding":3413,"Ġbrazil":3414,"rehens":3415,"Ġdest":3416,"Ġjud":3417,"ford":3418,"Ġpurp":3419,"Ġgmt":3420,"equ":3421,"Ġsociety":3422,"Ġmethod":3423,"Ġpaper":3424,"Ġorders":3425,"Ġansw":3426,"Ġpasseng":3427,"Ġconsolidated":3428,"ese":3429,"Ġsuper":3430,"used":3431,"Ġvs":3432,"Ġnyse":3433,"makers":3434,"Ġwel":3435,"Ġmex":3436,"Ġindependent":3437,"Ġbody":3438,"Ġfacility":3439,"Ġcritic":3440,"vant":3441,"Ġscale":3442,"Ġassociation":3443,"Ġrunning":3444,"net":3445,"ills":3446,"Ġbrief":3447,"Ġjoe":3448,"Ġpotentially":3449,"Ġsick":3450,"Ġvote":3451,"Ġexerc":3452,"rench":3453,"duced":3454,"bn":3455,"Ġsurv":3456,"Ġsources":3457,"eline":3458,"Ġopin":3459,"lig":3460,"inks":3461,"Ġmarketing":3462,"Ġpartner":3463,"asons":3464,"Ġnations":3465,"Ġnovel":3466,"Ġnav":3467,"Ġdiscl":3468,"rought":3469,"ension":3470,"Ġachieve":3471,"Ġdiseases":3472,"Ġnecessary":3473,"Ġattack":3474,"Ġnature":3475,"Ġgather":3476,"Ġinstr":3477,"hib":3478,"illing":3479,"Ġblood":3480,"Ø±":3481,"ancy":3482,"Ġconsist":3483,"Ġrespir":3484,"Ġphysical":3485,"Ġstage":3486,"Ġcomprehens":3487,"Ġregular":3488,"Ġcompetitive":3489,"Ġeasy":3490,"Ġchairman":3491,"Ġpict":3492,"Ġworked":3493,"Ġpositions":3494,"Ġminim":3495,"rences":3496,"Ġplanning":3497,"Ġdie":3498,"Ġga":3499,"Ġinternet":3500,"Ġlegisl":3501,"idered":3502,"Ġgoods":3503,"Ġey":3504,"Ġparents":3505,"Ġdesigned":3506,"Ġcivil":3507,"Ġfda":3508,"Ġadvice":3509,"iff":3510,"undred":3511,"Ġconsidered":3512,"hy":3513,"Ġexpense":3514,"Ġscientists":3515,"Ġwarned":3516,"Ġreopen":3517,"Ġuncertainty":3518,"65":3519,"Ġworst":3520,"Ġevol":3521,"Ġcalls":3522,"Ġheav":3523,"Ġsqu":3524,"Ġconcern":3525,"Ġdemocrats":3526,"Ġmicrosoft":3527,"Ġlic":3528,"Ġapple":3529,"Ġic":3530,"Ġisol":3531,"Ġ33":3532,"Ġchance":3533,"Ġ38":3534,"Ġextreme":3535,"Ġhappen":3536,"Ġsex":3537,"Ġministry":3538,"Ġcele":3539,"Ġchanged":3540,"Ġseat":3541,"Ġdriven":3542,"Ġproviders":3543,"Ġhundred":3544,"Ġsomeone":3545,"Ġdavid":3546,"Ġgoal":3547,"Ġsched":3548,"Ġrecorded":3549,"Ġprivacy":3550,"Ġidentify":3551,"Ġenvironmental":3552,"Ġschedul":3553,"cle":3554,"aled":3555,"Ġcorp":3556,"Ġpoll":3557,"Ġfigures":3558,"ek":3559,"Ġconc":3560,"Ġlargely":3561,"Ġpredict":3562,"Ġcomprehensive":3563,"ĠâĤ¬":3564,"Ġcelebr":3565,"Ġking":3566,"Ġlaws":3567,"uit":3568,"Ġhands":3569,"unt":3570,"Ġpurchase":3571,"Ġsports":3572,"Ġitself":3573,"Ġborder":3574,"ges":3575,"ara":3576,"ought":3577,"jected":3578,"ana":3579,"cont":3580,"Ġhousehold":3581,"Ġinnovation":3582,"Ġcateg":3583,"utical":3584,"Ġvo":3585,"Ġprimarily":3586,"Ġele":3587,"Ġspend":3588,"Ġcrude":3589,"Ġplanned":3590,"bed":3591,"ino":3592,"Ġoccur":3593,"Ġ39":3594,"liance":3595,"Ġaccounts":3596,"Ġsolution":3597,"49":3598,"Ġhousing":3599,"Ġfire":3600,"ption":3601,"Ġactions":3602,"Ġprimary":3603,"Ġlockdowns":3604,"Ġstrategies":3605,"Ġtowards":3606,"Ġtro":3607,"Ġnort":3608,"Ġukrain":3609,"Ġreserve":3610,"Ġwindow":3611,"Ġ55":3612,"Ġcounty":3613,"ball":3614,"Ġkorea":3615,"Ġdose":3616,"Ġ45":3617,"aceutical":3618,"Ġinfectious":3619,"Ġstandard":3620,"Ġlaunched":3621,"Ġcdc":3622,"Ġenh":3623,"iant":3624,"Ġarm":3625,"Ġraised":3626,"Ġcook":3627,"Ġsubsid":3628,"Ġidentified":3629,"ledge":3630,"Ġspeed":3631,"Ġrequirements":3632,"uments":3633,"Ġdelta":3634,"Ġreopening":3635,"Ġtreas":3636,"yal":3637,"Ġjoin":3638,"encies":3639,"Ġii":3640,"Ġrecommend":3641,"ze":3642,"ounder":3643,"cape":3644,"Ġparticipants":3645,"Ġfrench":3646,"istered":3647,"Ã³n":3648,"Ġscenar":3649,"ox":3650,"Ġfit":3651,"Ġmodels":3652,"Ġlove":3653,"Ġapproved":3654,"Ġdetect":3655,"Ġrecover":3656,"Ġviolence":3657,"Ġfield":3658,"Ġprote":3659,"46":3660,"Ġactual":3661,"Ġaltern":3662,"Ġcru":3663,"Ġbritain":3664,"Ġmanager":3665,"Ġreached":3666,"Ġneigh":3667,"Ġconstruction":3668,"Ġstress":3669,"acter":3670,"Ġcomplex":3671,"Ġgenerally":3672,"Ġscr":3673,"Ġgrad":3674,"Ġvolume":3675,"Ġeditor":3676,"Ġvulnerable":3677,"wise":3678,"Ġange":3679,"Ġemp":3680,"Ġanything":3681,"Ġaward":3682,"Ġbrought":3683,"Ġweak":3684,"Ġphone":3685,"Ġconsid":3686,"Ġdip":3687,"Ġdeploy":3688,"Ġsectors":3689,"arch":3690,"icians":3691,"Ġunpre":3692,"Ġplaces":3693,"Ġmobile":3694,"quar":3695,"Ġ75":3696,"Ġapproval":3697,"Ġpayment":3698,"Ġsteps":3699,"Ġdisco":3700,"Ġestimate":3701,"Ġbott":3702,"perform":3703,"Ġmission":3704,"Ġask":3705,"ences":3706,"Ġafrican":3707,"month":3708,"Ġunlike":3709,"Ġleague":3710,"Ġfeatures":3711,"Ġanim":3712,"Ġdow":3713,"Ġmax":3714,".)":3715,"Ġprotests":3716,"home":3717,"Ġlinked":3718,"Ġtemper":3719,"ological":3720,"Ġmedicine":3721,"Ġprincip":3722,"uff":3723,"77":3724,"Ġran":3725,"Ġamb":3726,"Ġfoundation":3727,"Ġinvolved":3728,"ux":3729,"Ġflex":3730,"Ġgrant":3731,"Ġillness":3732,"Ġbudget":3733,"Ġmer":3734,"Ġeight":3735,"iants":3736,"Ġrepublican":3737,"covid":3738,"85":3739,"Ġdeclined":3740,"Ġannouncement":3741,"erous":3742,"Ġtrillion":3743,"Ġcorporation":3744,"Ġteac":3745,"Ġbuilt":3746,"Ġtas":3747,"cedented":3748,"Ġmilitary":3749,"95":3750,"fully":3751,"Ġsenate":3752,"Ġmaintain":3753,"cor":3754,"Ġolder":3755,"Ġdividend":3756,"Ġms":3757,"icing":3758,"Ġcancer":3759,"Ġpropos":3760,"Ġcells":3761,"Ġgross":3762,"Ġdefin":3763,"Ġtraditional":3764,"Ġmental":3765,"Ġcu":3766,"oph":3767,"Ġuns":3768,"Ġqual":3769,"Ġinvent":3770,"Ġunprecedented":3771,"36":3772,"Ġweekend":3773,"Ġshot":3774,"Ġadvant":3775,"Ġholding":3776,"Ġmessage":3777,"Ġcrow":3778,"uted":3779,"Ġcondition":3780,"Ġborrow":3781,"Ġtakes":3782,"Ġmigr":3783,"Ġstake":3784,"ife":3785,"alled":3786,"Ġmind":3787,"Ġdoctors":3788,"Ġdescribed":3789,"Ġhon":3790,"200":3791,"Ġtraff":3792,"Ġtalk":3793,"Ġmaterials":3794,"Ġgovernor":3795,"Ġfacing":3796,"lear":3797,"Ġadults":3798,"Ġclick":3799,"Ġtransaction":3800,"Ġairport":3801,"90":3802,"house":3803,"Ġanyone":3804,"Ġtit":3805,"Ġenjo":3806,"Ġactive":3807,"Ġwanted":3808,"Ġoblig":3809,"casts":3810,"Ġwearing":3811,"Ġdecades":3812,"Ġdrugs":3813,"Ġunit":3814,"Ġfavor":3815,"Ġliquidity":3816,"Ġrich":3817,"aven":3818,"Ġmix":3819,"Ġapplications":3820,"Ġcanadian":3821,"Ġresil":3822,"Ġthanks":3823,"Ġready":3824,"Ġholiday":3825,"yl":3826,"Ġpractices":3827,"Ġreasons":3828,"Ġseems":3829,"Ġrough":3830,"ule":3831,"Ġlands":3832,"Ġagre":3833,"Ġstandards":3834,"Ġguidelines":3835,"pon":3836,"Ġcomments":3837,"Ġcouncil":3838,"Ġcentre":3839,"Ġspent":3840,"Ġcopyr":3841,"Ġsustainable":3842,"ael":3843,"Ġlines":3844,"Ġflor":3845,"oti":3846,"Ġyes":3847,"Ġnov":3848,"Ġfriends":3849,"Øª":3850,"Ġsun":3851,"Ġsort":3852,"Ġho":3853,"Ġinvesting":3854,"Ġdollars":3855,"47":3856,"Ġattention":3857,"Ġtalks":3858,"Ġdamage":3859,"fl":3860,"Ġcam":3861,"Ġchains":3862,"ago":3863,"Ġsupplies":3864,"Ġprepared":3865,"Ġltd":3866,"ho":3867,"Ġbull":3868,"Ġfilm":3869,"ĠÃ":3870,"Ġrespiratory":3871,"Ġproceed":3872,"Ġshown":3873,"Ġ65":3874,"Ġsecure":3875,"Ġfiled":3876,"Ġselling":3877,"Ġcopyright":3878,"Ġfollowed":3879,"Ġcalcul":3880,"Ġretailers":3881,"oke":3882,"zer":3883,"bert":3884,"Ġrespectively":3885,"Ġupon":3886,"Ġflights":3887,"Ġpremium":3888,"Ġcomput":3889,"amples":3890,"Ġanalyt":3891,"gaap":3892,"Ġholdings":3893,"Ġstories":3894,"Ġtrue":3895,"Ġprofession":3896,"Ġaustralian":3897,"Ġdiversity":3898,"iat":3899,"Ġtom":3900,"Ġapart":3901,"Ġadvanced":3902,"âĢ¢":3903,"Ġcreating":3904,"cription":3905,"37":3906,"Ġpod":3907,"ador":3908,"Ġjustice":3909,"Ġrecon":3910,"Ġexposure":3911,"Ġpackage":3912,"Ġclim":3913,"Ġpharmaceutical":3914,"ites":3915,"Ġchamp":3916,"Ġoption":3917,"Ġquite":3918,"Ġcontinuing":3919,"Ġsigns":3920,"Ġzo":3921,"Ġtypically":3922,"Ġpush":3923,"face":3924,"Ġdeg":3925,"Ġshared":3926,"Ġforces":3927,"Ġnothing":3928,"Ġroom":3929,"Ġimpacted":3930,"Ġprocesses":3931,"Ġpromot":3932,"iÃ³n":3933,"Ġtransition":3934,"Ġsubscribe":3935,"Ġdil":3936,"Ġtoll":3937,"ibly":3938,"ng":3939,"enec":3940,"omatic":3941,"Ġaren":3942,"Ġacad":3943,"Ġquarterly":3944,"Ġbloom":3945,"Ġattract":3946,"Ġincreases":3947,"Ġdivision":3948,"Ø©":3949,"Ġip":3950,"Ġrenew":3951,"log":3952,"Ġrepe":3953,"Ġkeeping":3954,"Ġmassive":3955,"Ùģ":3956,"lymp":3957,"Ġdang":3958,"Ġconfidence":3959,"Ġfears":3960,"Ġdriving":3961,"ounds":3962,"Ġadvance":3963,"Ġpractice":3964,"Ġdecided":3965,"att":3966,"Ġamoun":3967,"standing":3968,"Ġemissions":3969,"Ġbelieves":3970,"Ġcompetition":3971,"Ġmusic":3972,"Ġdouble":3973,"etary":3974,"Ġ95":3975,"Ġevalu":3976,"Ġbir":3977,"Ġtouch":3978,"Ġstudent":3979,"Ġbanking":3980,"no":3981,"bus":3982,"Ġolymp":3983,"Ġshopping":3984,"Ġtv":3985,"Ġcast":3986,"Ġhor":3987,"Ġgiving":3988,"Ġuser":3989,"Ġcollege":3990,"Ġaccur":3991,"ster":3992,"Ġexclus":3993,"Ġkids":3994,"Ġoffered":3995,"Ġult":3996,"Ġfat":3997,"Ġjoint":3998,"Ġestate":3999,"Ġoriginal":4000,"ivered":4001,"Ġopening":4002,"Ġconducted":4003,"Ġimmediately":4004,"Ġton":4005,"idge":4006,"ston":4007,"Ġspain":4008,"Ġregister":4009,"Ġattacks":4010,"Ġchanging":4011,"Ġunderstanding":4012,"Ġwestern":4013,"05":4014,"Ġadvert":4015,"Ġtext":4016,"Ġfinancing":4017,"Ġcarbon":4018,"Ġinside":4019,"Ġincreasingly":4020,"Ġeconomies":4021,"Ġepidemic":4022,"39":4023,"Ġalone":4024,"Ġtransportation":4025,"Ġratio":4026,"aches":4027,"Ġexpans":4028,"Ġbuying":4029,"Ġreality":4030,"Ġmexico":4031,"Ġmov":4032,"Ġsolid":4033,"Ġclosing":4034,"resh":4035,"Ġobt":4036,"Ġvoters":4037,"Ġcapt":4038,"Ġparis":4039,"ream":4040,"Ġmut":4041,"exp":4042,"Ġreturned":4043,"iver":4044,"Ġwww":4045,"Ġpace":4046,"Ġshowing":4047,"Ġlarger":4048,"Ġdropped":4049,"Ġhundreds":4050,"Ġrein":4051,"Ġfees":4052,"Ġdelivered":4053,"500":4054,"dp":4055,"son":4056,"Ġ2027":4057,"Ġgrand":4058,"Ġthinking":4059,"Ġdifference":4060,"Ġ>":4061,"Ġlooks":4062,"Ġproposed":4063,"Ġraise":4064,"Ġoriginally":4065,"Ġpull":4066,"Ġinstitutions":4067,"Ġworkforce":4068,"Ġattend":4069,"Ġtaxes":4070,"works":4071,"Ġfort":4072,"Ġobject":4073,"Ġeth":4074,"Ġengage":4075,"Ġimpacts":4076,"Ġmovement":4077,"Ġstatus":4078,"67":4079,"Ġfutures":4080,"Ġturned":4081,"omb":4082,"Ġweekly":4083,"Ġalloc":4084,"Ġzero":4085,"Ġcreat":4086,"ropri":4087,"Ġconsidering":4088,"Ġflorida":4089,"Ġunivers":4090,"Ġcry":4091,"Ġventil":4092,"Ġantibodies":4093,"iet":4094,"Ġ=":4095,"Ġunique":4096,"Ġextended":4097,"Ġproduce":4098,"Ġreform":4099,"Ġtown":4100,"igate":4101,"ifying":4102,"osis":4103,"Ġprevention":4104,"Ġdevices":4105,"Ġthank":4106,"Ġcnbc":4107,"34":4108,"Ġdut":4109,"Ġrally":4110,"ronic":4111,"Ġuncertainties":4112,"lor":4113,"astic":4114,"rael":4115,"Ġdecrease":4116,"Ġmichael":4117,"quarter":4118,"Ġvend":4119,"Ġcompon":4120,"Ġguard":4121,"Ġcommitted":4122,"Ġprofessional":4123,"Ġmoved":4124,"Ġrecession":4125,"ags":4126,"Ġfinally":4127,"Ġconserv":4128,"Ġpark":4129,"Ġbecoming":4130,"Ġseek":4131,"Ġdepos":4132,"Ġsett":4133,"Ġexperienced":4134,"Ġsubstant":4135,"apore":4136,"Ġobser":4137,"yle":4138,"Ġlas":4139,"Ġukraine":4140,"bl":4141,"Ġ2015":4142,"Ġversion":4143,"Ġrelatively":4144,"Ġple":4145,"Ġfix":4146,"Ġdrivers":4147,"tered":4148,"Ġisland":4149,"lia":4150,"Ġrelevant":4151,"Ġfelt":4152,"Ġrare":4153,"Ġ32":4154,"Ġ34":4155,"Ġexercise":4156,"Ġtraffic":4157,"ws":4158,"ipp":4159,"lled":4160,"Ġ44":4161,"Ġdecade":4162,"ya":4163,"Ġwat":4164,"Ġdyn":4165,"ously":4166,"Ġson":4167,"Ġregulations":4168,"Ġrapidly":4169,"secut":4170,"Ġscheduled":4171,"Ġprofessionals":4172,"38":4173,"Ġunderlying":4174,"ordin":4175,"letter":4176,"know":4177,"Ġcomplic":4178,"Ġ37":4179,"Ġmaybe":4180,"Ġemployee":4181,"Ġrussian":4182,"Ġculture":4183,"Ġok":4184,"Ġpal":4185,"Ġbreat":4186,"Ġagreed":4187,"Ġleaving":4188,"Ġsmaller":4189,"Ġones":4190,"Ġworse":4191,"Ġgoes":4192,"Ġnegoti":4193,"Ġmur":4194,"Ġexam":4195,"arters":4196,"inations":4197,"Ġpic":4198,"Ġtwe":4199,"Ġcapabilities":4200,"Ġletter":4201,"Ġperspect":4202,"Ġbloomberg":4203,"df":4204,"itch":4205,"Ġroughly":4206,"vent":4207,"vious":4208,"iled":4209,"Ġincl":4210,"Ġaccessed":4211,"Ġmad":4212,"Ġgone":4213,"Ġire":4214,"Ġoffset":4215,"Ġretire":4216,"Ġattempt":4217,");":4218,"Ġmention":4219,"Ġreduction":4220,"iles":4221,"Ġisrael":4222,"ensus":4223,"Ġseeking":4224,"Ġcyber":4225,"Ġpicture":4226,"Ġshif":4227,"Ġplus":4228,"Ġserve":4229,"Ġconsequ":4230,"Ġconstit":4231,"bur":4232,"gi":4233,"ham":4234,"za":4235,"Ġfaster":4236,"Ġadapt":4237,"Ġhealthy":4238,"Ġcorre":4239,"Ġpara":4240,"66":4241,"Ġsend":4242,"Ġobvious":4243,"Ġrestaurant":4244,"Ġcharges":4245,"urity":4246,"Ġnewsletter":4247,"Ġwu":4248,"Ġparties":4249,"Ġslight":4250,"Ġplatforms":4251,"Ġadvantage":4252,"ĠÐ":4253,"Ġunits":4254,"Ġfeed":4255,"Ġsection":4256,"Ġrebound":4257,"dom":4258,"gu":4259,"Ġminutes":4260,"comes":4261,"Ġviral":4262,"Ġsingapore":4263,"oring":4264,"arant":4265,"Ġcoal":4266,"Ġwords":4267,"iction":4268,"Ġscientific":4269,"Ġles":4270,"Ġpoor":4271,"Ġhotel":4272,"Ġid":4273,"Ġhighlight":4274,"kyo":4275,"Ġanalytics":4276,"pass":4277,"Ġtens":4278,"usion":4279,"Ġremained":4280,"Ġposted":4281,"play":4282,"89":4283,"fo":4284,"itors":4285,"Ġmother":4286,"ush":4287,"Ġwealth":4288,"Ġgoals":4289,"anta":4290,"Ġpeak":4291,"Ġafford":4292,"Ġwriting":4293,"Ġvolat":4294,"ny":4295,"Ġfresh":4296,"urch":4297,"Ġresol":4298,"Ġregions":4299,"Ġglobally":4300,"Ġcompleted":4301,"Ġappears":4302,"Ġsynd":4303,"31":4304,"haps":4305,"Ġtokyo":4306,"ica":4307,"Ġha":4308,"Ġpubmed":4309,"Ġoperational":4310,"Ġsimply":4311,"Ġsuggests":4312,"Ġlay":4313,"Ġlung":4314,"Ġcompl":4315,"Ġcurrency":4316,"Ġliabilities":4317,"Ġmonitoring":4318,"Ġtreasury":4319,"Ġpor":4320,"Ġcovered":4321,"rene":4322,"Ġcertainly":4323,"Ġcouple":4324,"Ġpip":4325,"illed":4326,"Ġ300":4327,"Ġcruc":4328,"Ġpresidential":4329,"Ġbarrel":4330,"Ġrepublicans":4331,"Ġdraw":4332,"Ġwait":4333,"Ġstrength":4334,"Ġexact":4335,"Ġdistrict":4336,"Ġmoderna":4337,"Ã§Ã£o":4338,"Ġireland":4339,"bre":4340,"ding":4341,"ros":4342,"eneca":4343,"word":4344,"Ġded":4345,"umes":4346,"Ġhistoric":4347,"Ġotherwise":4348,"Ġdirectors":4349,"Ġdynam":4350,"ona":4351,"Ġbeat":4352,"ups":4353,"Ġtherefore":4354,"Ġarab":4355,"Ġtemporary":4356,"Ġperhaps":4357,"Ġdevelopments":4358,"iam":4359,"Ġrequires":4360,"azeneca":4361,"Ġreturns":4362,"Ġexpansion":4363,"Ġfal":4364,"otive":4365,"Ġsimple":4366,"Ġchec":4367,"Ġpresented":4368,"ses":4369,"Ġgained":4370,"Ġprompt":4371,"Ġoppos":4372,"otech":4373,"Ġkilled":4374,"Ġstrengthe":4375,"Ġtight":4376,"Ġsave":4377,"unch":4378,"Ġmeant":4379,"Ġmanaging":4380,"Ġlandscape":4381,"tw":4382,"Ġusually":4383,"Ġoutcomes":4384,"Ġ48":4385,"Ġwoman":4386,"Ġmanagers":4387,"Ġcoop":4388,"Ġ'':":4389,"angu":4390,"Ġimmunity":4391,"Ġball":4392,"Ġnom":4393,"Ġweather":4394,"Ġvariants":4395,"Ġpopul":4396,"Ġfindings":4397,"Ġcombined":4398,"Ġtourism":4399,"Ġbed":4400,"ibute":4401,"Ġcuts":4402,"Ġopinion":4403,"Ġsud":4404,"Ġpurs":4405,"aves":4406,"ashion":4407,"Ġprotoc":4408,"pread":4409,"Ġframe":4410,"Ġprovider":4411,"Ġairline":4412,"Ġtherapy":4413,"ev":4414,"Ġindian":4415,"Ġcounter":4416,"more":4417,"icient":4418,"Ġproced":4419,"Ġspike":4420,"Ġfaced":4421,"Ġprotective":4422,"Ġpartnership":4423,"Ġautomotive":4424,"Ġmodern":4425,"ground":4426,"Ġcompens":4427,"Ġfailure":4428,"prof":4429,"pers":4430,"Ġacknow":4431,"Ġchem":4432,"Ġwrong":4433,"Ġgeneration":4434,"Ġwidely":4435,"Ø¯":4436,"Ġwild":4437,"Ġber":4438,"icket":4439,"Ġexport":4440,"Ġarrest":4441,"Ġofficers":4442,"part":4443,"Ġpredic":4444,"Ġnar":4445,"chan":4446,"abet":4447,"Ġvehicles":4448,"Ġalle":4449,"Ġuses":4450,"ria":4451,"rep":4452,"Ġmel":4453,"Ġvoting":4454,"Ġsample":4455,"Ġcert":4456,"Ġtransfer":4457,"55":4458,"ading":4459,"Ġappo":4460,"Ġtechnical":4461,"Ġhaven":4462,"commer":4463,"Ġchallenging":4464,"Ġmanufacturers":4465,"Ġcruise":4466,"Ġcents":4467,"Ġtypes":4468,"Ġpassengers":4469,"commerce":4470,"ref":4471,"Ġstructure":4472,"Ġdepend":4473,"Ġallowing":4474,"Ġchannel":4475,"Ġvan":4476,"Ġoperation":4477,"Ġrelationship":4478,"Ġentertain":4479,"Ġpassed":4480,"Ġprotesters":4481,"iency":4482,"ops":4483,"Ġchat":4484,"Ġappropri":4485,"Ġsupporting":4486,"Ġze":4487,"Ġbst":4488,"Ġven":4489,"Ġjones":4490,"Ġrent":4491,"Ġfriend":4492,"Ġscopus":4493,"Ġil":4494,"Ġspring":4495,"Ġinternal":4496,"sa":4497,"ishing":4498,"Ġeur":4499,"ctions":4500,"Ġsigned":4501,"Ġstor":4502,"Ġsav":4503,"coming":4504,"Ġimproved":4505,"Ġtargets":4506,"Ġgeograp":4507,"Ġinitiative":4508,"Ġexposed":4509,"Ġstrict":4510,"Ġforecasts":4511,"Ġequival":4512,"Ġinterests":4513,"Ġib":4514,"Ġsearch":4515,"Ġinde":4516,"argo":4517,"Ġzacks":4518,"Ġurg":4519,"Ġrepresenting":4520,"Ġantibody":4521,"mas":4522,"nel":4523,"Ġfans":4524,"Ġcommod":4525,"Ġputting":4526,"Ġcombination":4527,"Ġcharacter":4528,"32":4529,"Ġwasn":4530,"Ġquant":4531,"ka":4532,"uations":4533,"Ġna":4534,"Ġremember":4535,"Ġhappened":4536,"bour":4537,"mo":4538,"Ġguarant":4539,"tty":4540,"Ġfrequ":4541,"Ġassessment":4542,"Ġstruggling":4543,"Ġgiant":4544,"Ġcoast":4545,"Ġemployers":4546,"Ġdoctor":4547,"ries":4548,"Ġwants":4549,"Ġrule":4550,"Ġwinter":4551,"Ġmortg":4552,"cers":4553,"Ġfashion":4554,"Ġasian":4555,"rome":4556,"Ġoperate":4557,"Ġdownload":4558,"Ġcommunications":4559,"Ġbonds":4560,"Ġzoom":4561,"Ġgerman":4562,"Ġaccounting":4563,"Ġcircum":4564,"Ġalternative":4565,"87":4566,"eria":4567,"Ġpage":4568,"Ġhub":4569,"Ġlou":4570,"Ġcontained":4571,"Ġstruct":4572,"Ġminor":4573,"Ġmostly":4574,"Ġparlia":4575,"Ġupdates":4576,"itation":4577,"izes":4578,"Ġsustainability":4579,"01":4580,"69":4581,"Ġshel":4582,"2019":4583,"Ġcalling":4584,"Ġmetric":4585,"Ġallows":4586,"Ġpriority":4587,"Ġdoz":4588,"Ġpretty":4589,"riers":4590,"wire":4591,"Ġpricing":4592,"Ġinitiatives":4593,"ker":4594,"Ġcharge":4595,"Ġhyd":4596,"ĠØ§ÙĦØ":4597,"Ġlegislation":4598,"Ġalex":4599,"erred":4600,"Ġenable":4601,"Ġglobe":4602,"wan":4603,"Ġeconomists":4604,"Ġlocations":4605,"Ùĥ":4606,"itable":4607,"Ġfranc":4608,"Ġcrucial":4609,"inform":4610,"ady":4611,"Ġparliament":4612,"ba":4613,"vacc":4614,"Ġfewer":4615,"Ġexecutives":4616,"Ġtrip":4617,"Ġblue":4618,"Ġpackaging":4619,"Ġoutput":4620,"Ġfinding":4621,"Ġcro":4622,"era":4623,"liers":4624,"Ġauthors":4625,"Ġconfirm":4626,"Ġjun":4627,"Ġdisney":4628,"Ġ41":4629,"Ġ42":4630,"Ġbringing":4631,"Ġswe":4632,"Ġunless":4633,"ught":4634,"Ġfailed":4635,"Ġbul":4636,"Ġperman":4637,"Ġviews":4638,"Ġenterprise":4639,"Ġcollaboration":4640,"Ġenjoy":4641,"des":4642,"iate":4643,"uses":4644,"orders":4645,"ression":4646,"Ġsupported":4647,"Ġpaul":4648,"google":4649,"Ġcommitment":4650,"Ġsometimes":4651,"Ġcandidate":4652,"reaks":4653,"Ġgives":4654,"Ġresident":4655,"Ġoverse":4656,"Ġmanaged":4657,"Ġfarm":4658,"Ġanticipated":4659,"eing":4660,"long":4661,"Ġcontinu":4662,"Ġartific":4663,"iences":4664,"Ġrevol":4665,"Ġcommunication":4666,"how":4667,"Ġ{":4668,"Ġ}":4669,"thern":4670,"agues":4671,"Ġhopes":4672,"Ġdetailed":4673,"Ġtrig":4674,"Ġgrocer":4675,"Ġgets":4676,"Ġcareer":4677,"Ġconcerned":4678,"Ġoutbreaks":4679,"Ġwuhan":4680,"Ġastr":4681,"Ġfem":4682,"Ġdisapp":4683,"airs":4684,"Ġcircumst":4685,"ken":4686,"Ġhear":4687,"):":4688,"Ġadverse":4689,"Ġoffices":4690,"point":4691,"Ġanswer":4692,"Ð¾":4693,"Ġindo":4694,"Ġbiotech":4695,"Ġversus":4696,"Ġemployment":4697,"Ġcandidates":4698,"Ġcolor":4699,"ech":4700,"Ġsand":4701,"urning":4702,"Ġconte":4703,"Ġ600":4704,"Ġaffecting":4705,"Ġappeared":4706,"ca":4707,"health":4708,"hern":4709,"Ġplayed":4710,"Ġspreading":4711,"Ġwritten":4712,"Ġunf":4713,"Ġ49":4714,"Ġbox":4715,"Ġgrew":4716,"Ġhelps":4717,"Ġsouthern":4718,"Ġbasic":4719,"Ġinstitution":4720,"Ġbench":4721,"Ġtemperature":4722,"cross":4723,"Ġtend":4724,"Ġfle":4725,"aling":4726,"Ġdu":4727,"Ġestablish":4728,"Ġastrazeneca":4729,"Ġcars":4730,"Ġknowledge":4731,"Ġgaap":4732,"erve":4733,"Ġgap":4734,"Ġpurpose":4735,"400":4736,"well":4737,"Ġprojected":4738,"Ġfreed":4739,"known":4740,"expected":4741,"ded":4742,"yan":4743,"Ġsharing":4744,"Ġcycl":4745,"Ġbehavior":4746,"Ġped":4747,"arian":4748,"Ġcomfort":4749,"Ġ''.":4750,"Ġsuppliers":4751,"Ġcontributed":4752,"Ġartificial":4753,"ims":4754,"Ġsequ":4755,"Ġagencies":4756,"Ġclosely":4757,"Ġvehicle":4758,"Ġexpressed":4759,"Ġprotein":4760,"Ġreli":4761,"Ġstra":4762,"Ġscheme":4763,"Ġandrew":4764,"aded":4765,"Ġrid":4766,"Ġspect":4767,"Ġtransactions":4768,"Ġlatin":4769,"Ġcollection":4770,"Ġpacific":4771,"Ġlng":4772,"Ġskills":4773,"otic":4774,"uci":4775,"iveness":4776,"lands":4777,"ua":4778,"west":4779,"Ġmatch":4780,"ĠâĢ¦":4781,"Ġmechan":4782,"Ġroyal":4783,"Ġreducing":4784,"Ġvolumes":4785,"arks":4786,"Ġnursing":4787,"Ġdur":4788,"Ġvital":4789,"Ġtalking":4790,"omp":4791,"cell":4792,"Ġwood":4793,"Ġwides":4794,"Ġmine":4795,"Ġenforce":4796,"Ġdomin":4797,"Ġconversation":4798,"48":4799,"turn":4800,"Ġfounder":4801,"Ġdog":4802,"Ġtool":4803,"Ġgar":4804,"ola":4805,"Ġflight":4806,"Ġimportance":4807,"Ġslightly":4808,"Ġdram":4809,"Ġchoice":4810,"Ġoutdo":4811,"Ġsubsequ":4812,"Ġimmediate":4813,"Ġwidespread":4814,"Ġcab":4815,"resp":4816,"Ġrecords":4817,"Ġresulting":4818,"Ġswed":4819,"Ġimproving":4820,"Ġetf":4821,"Ġken":4822,"Ġregistered":4823,"Ġpoly":4824,"Ġ2014":4825,"Ġrobust":4826,"Ġsuspended":4827,"Ġhydro":4828,"crossref":4829,"Ġnorthern":4830,"Ġpie":4831,"Ġvalues":4832,"igation":4833,"Ġasking":4834,"Ġclub":4835,"Ġmachine":4836,"Ġwelcome":4837,"iar":4838,"tic":4839,"Ġinsp":4840,"Ġtopics":4841,"Ġsexual":4842,"Ġteachers":4843,"Ġinj":4844,"Ġrand":4845,"avio":4846,"Ġprocessing":4847,"Ġconnection":4848,"Ġultimately":4849,"Ġcontext":4850,"Ġsport":4851,"oration":4852,"Ġreading":4853,"Ġresponsibility":4854,"Ġextremely":4855,"ees":4856,"Ġpel":4857,"Ġbab":4858,"ivir":4859,"Ġmonetary":4860,"Ġreturning":4861,"Ġcontracts":4862,"Ġsuggested":4863,"Ġscreen":4864,"bi":4865,"Ġeffectively":4866,"Ġauthority":4867,"Ġurban":4868,"Ġfunction":4869,"Ġracial":4870,"band":4871,"Ġrating":4872,"Ġprogramme":4873,"Ġgeorg":4874,"Ġassistance":4875,"Ġangeles":4876,"Ġcircumstances":4877,"ki":4878,"Ġgave":4879,"Ġprison":4880,"Ġworker":4881,"Ġemot":4882,"Ġ47":4883,"Ġscott":4884,"Ġjapanese":4885,"Ġdiscussion":4886,"Ġshutdown":4887,"Ġestablished":4888,"Ġinterim":4889,"Ġinitially":4890,"Ġrepresents":4891,"Ġsubsidi":4892,"uro":4893,"ych":4894,"Ġconsensus":4895,"Ġbuyers":4896,"Ġappropriate":4897,"py":4898,"Ġoutstanding":4899,"Ġ46":4900,"100":4901,"itect":4902,"Ġthr":4903,"Ġgdp":4904,"ester":4905,"Ġsaud":4906,"Ġmonthly":4907,"Ġorganis":4908,"Ġweight":4909,"Ġramp":4910,"Ġgov":4911,"Ġtranspa":4912,"Ġeye":4913,"Ġdipl":4914,"Ãº":4915,"Ġdefense":4916,"Ġsamples":4917,"Ġnetworks":4918,"Ġnationwide":4919,"Ġfauci":4920,"Ġvision":4921,"Ġnotice":4922,"Ġcount":4923,"Ġwarning":4924,"Ġbattle":4925,"Ġoun":4926,"Ġconcent":4927,"Ġarchitect":4928,"Ġinventory":4929,"met":4930,"room":4931,"enty":4932,"ota":4933,"apped":4934,"Ġmainly":4935,"Ġhappening":4936,"Ġinvestigation":4937,"Ã¤":4938,"Ġchap":4939,"ensed":4940,"Ġowned":4941,"Ġinnovative":4942,"Ġsentiment":4943,"Ġamounts":4944,"06":4945,"Ġcompliance":4946,"ode":4947,"Ġsetting":4948,"Ġath":4949,"inted":4950,"Ġemb":4951,"Ġpaying":4952,"Ġcaution":4953,"Ġnurses":4954,"aland":4955,"week":4956,"Ġ150":4957,"Ġspeaking":4958,"Ġchoose":4959,"Ġmaxim":4960,"Ġts":4961,"Ġdisp":4962,"Ġkept":4963,"Ġinstance":4964,"Ġremaining":4965,"Ġproduced":4966,"Ġclearly":4967,"holder":4968,"59":4969,"Ġalign":4970,"Ġneut":4971,"Ġopened":4972,"Ġvariety":4973,"Ġabsol":4974,"Ùĩ":4975,"Ġtor":4976,"rupt":4977,"Ġsharp":4978,"Ġconcentr":4979,"orge":4980,"Ġease":4981,"portion":4982,"Ġbroader":4983,"Ġign":4984,"Ġunable":4985,"Ġspr":4986,"Ġsurpr":4987,"Ġscenario":4988,"pandemic":4989,"rying":4990,"Ġpil":4991,"Ġatl":4992,"Ġfalling":4993,"Ġimprovement":4994,"Ġcompensation":4995,"Ġentertainment":4996,"Ġital":4997,"Ġhen":4998,"Ġpeace":4999,"Ġamort":5000,"Ġauto":5001,"Ġpublicly":5002,"Ġsubscription":5003,"Ġfalse":5004,"42":5005,"mes":5006,"ÙĤ":5007,"Ġtack":5008,"Ġsle":5009,"isco":5010,"Ġcompos":5011,"Ġeconomist":5012,"Ġtransformation":5013,"Ġbottom":5014,"Ġconflic":5015,"Ġharris":5016,"Ġdetermine":5017,"Ġmining":5018,"Ġelig":5019,"Ġdisruption":5020,"https":5021,"atically":5022,"Ġmoves":5023,"Ġacute":5024,"lling":5025,"Ġ488":5026,"Ġpsych":5027,"86":5028,"Ġtai":5029,"anch":5030,"Ġlux":5031,"Ġcovers":5032,"Ġenab":5033,"Ġapply":5034,"Ġperspective":5035,"istan":5036,"Ġregistr":5037,"Ġwrite":5038,"Ġawa":5039,"Ġrs":5040,"Ġflat":5041,"Ġcontribut":5042,"79":5043,"Ġauction":5044,"Ġmerg":5045,"Ġsession":5046,"Ġvp":5047,"Ġconsumption":5048,"Ġstronger":5049,"Ġcolleagues":5050,"field":5051,"Ġwire":5052,"Ġclot":5053,"eut":5054,"aph":5055,"ferences":5056,"Ġraising":5057,"Ġdiffer":5058,"Ġdeclared":5059,"Ġiran":5060,"Ġ'')":5061,"Ġ43":5062,"Ġ2008":5063,"Ġurged":5064,"Ġfeeling":5065,"Ġdelivering":5066,"agram":5067,"ata":5068,"oles":5069,"Ġmaterially":5070,"Ġinfluence":5071,"Ġhighlights":5072,"Ġyields":5073,"Ġdedic":5074,"ault":5075,"Ġprofits":5076,"Ġrepeated":5077,"Ġstatistics":5078,"coronavirus":5079,"omo":5080,"ifically":5081,"Ġcopper":5082,"Ġabsolute":5083,"uan":5084,"inem":5085,"Ġwilling":5086,"dule":5087,"Ġfever":5088,"Ġfundament":5089,"Ġventure":5090,"Ġoperator":5091,"Ġ85":5092,"grade":5093,"Ġproducers":5094,"Ġcompletely":5095,"ĠÙħ":5096,"Ġbars":5097,"Ġjames":5098,"Ġideas":5099,"Ġinterviews":5100,"Ġinvolve":5101,"Ġvisitors":5102,"Ġtweet":5103,"Ġintr":5104,"ilit":5105,"Ġstated":5106,"Ġcauses":5107,"Ġefficient":5108,"Ġtherapeut":5109,"Ġseparate":5110,"76":5111,"oo":5112,"Ãµ":5113,"Ġincor":5114,"Ġ56":5115,"Ġimmigr":5116,"Ġrevealed":5117,"Ġtask":5118,"Ġexclusive":5119,"Ġsaudi":5120,"Ġharm":5121,"Ġthus":5122,"osing":5123,"Ġclient":5124,"Ġdecide":5125,"Ġtracking":5126,"Ġempow":5127,"Ġstraight":5128,"Ġlangu":5129,"Ġchic":5130,"Ġyourself":5131,"Ġfactor":5132,"Ġsegments":5133,"Ġ1998":5134,"Ġdoubt":5135,"wr":5136,"Ġanx":5137,"Ġnone":5138,"Ġinstagram":5139,"Ġconfident":5140,"Ġprovision":5141,"Ġlogistics":5142,"Ġmomentum":5143,"Ġhistorical":5144,"Ġutil":5145,"Ġzealand":5146,"ptions":5147,"Ġplaying":5148,"Ġelections":5149,"Ġbirth":5150,"Ġmortgage":5151,"Ãµes":5152,"09":5153,"ien":5154,"Ġclar":5155,"Ġbrain":5156,"Ġregulation":5157,"Ġfraud":5158,"Ġpresentation":5159,"Ġunlikely":5160,"Ġtick":5161,"Ġsheet":5162,"Ġdelays":5163,"Ġhappy":5164,"Ġengineering":5165,"Ġpresence":5166,"anging":5167,"2021":5168,"Ġrestr":5169,"Ġadvoc":5170,"Ġkingdom":5171,"Ġlouis":5172,"heast":5173,"outs":5174,"Ġwaste":5175,"Ġlose":5176,"Ġmeetings":5177,"Ġvill":5178,"ias":5179,"Ġeg":5180,"Ġlocation":5181,"Ġdevice":5182,"Ġfeature":5183,"cap":5184,"night":5185,"ystem":5186,"ura":5187,"Ġperfect":5188,"Ġeasier":5189,"Ġfootball":5190,"Ġspaces":5191,"Ġimposed":5192,"Ġshortages":5193,"Ġconstant":5194,"Ġisolation":5195,"ests":5196,"cons":5197,"Ġmulti":5198,"Ġresponses":5199,"Ġsilver":5200,"Ġbullish":5201,"Ġ<":5202,"Ġmrna":5203,"Ġpossibility":5204,"Ġproperties":5205,"Ġassumptions":5206,"iontech":5207,"Ġemerged":5208,"Ġadvisory":5209,"Ġstorage":5210,".âĢĻ":5211,"Ġos":5212,"road":5213,"Ġplaced":5214,"Ġtreatments":5215,"Ġpolitics":5216,"Ġexplore":5217,"Ġbriefing":5218,"Ġbol":5219,"Ġgir":5220,"Ġshock":5221,"Ġstrain":5222,"Ġlabour":5223,"Ġsquare":5224,"Ġsound":5225,"Ġspl":5226,"Ġpled":5227,"Ġdecreased":5228,"Ġrecommendations":5229,"isf":5230,"Ġpassword":5231,"Ġprovince":5232,"........":5233,"Ġdeals":5234,"ander":5235,"craft":5236,"Ġpushed":5237,"Ġmortality":5238,"ht":5239,"Ġnamed":5240,"Ġmart":5241,"Ġpowerful":5242,"Ġsudden":5243,"kins":5244,"uable":5245,"ulated":5246,"Ġtra":5247,"Ġaggress":5248,"Ġ51":5249,"Ġeastern":5250,"ito":5251,"Ġhall":5252,"Ġvac":5253,"Ġvast":5254,"Ġshots":5255,"Ġspan":5256,"Ġprofile":5257,"Ġdefined":5258,"Ġcrypt":5259,"Ġretirement":5260,"Ġsavings":5261,"Ġtheat":5262,"Ġexpend":5263,"Ġ400":5264,"Ġsettle":5265,"Ġhimself":5266,"Ġattribut":5267,"Ġub":5268,"Ġagric":5269,"Ġfaces":5270,"Ġcriticism":5271,"ados":5272,"Ġrefin":5273,"Ġlinking":5274,"Ġreplace":5275,"Ġtroub":5276,"Ġwit":5277,"enn":5278,"Ġimage":5279,"Ġsupreme":5280,"Ġexplained":5281,"oy":5282,"whel":5283,"Ġtar":5284,"ille":5285,"Ġtried":5286,"Ġadds":5287,"Ġavailability":5288,"Ġspeech":5289,"Ġeventually":5290,"Ġintroduced":5291,"Ġjumped":5292,"Ġtes":5293,"Ġoxy":5294,"Ġfather":5295,"unte":5296,"Ġworkplace":5297,"elling":5298,"Ġnhs":5299,"Ġworried":5300,"Ġoutperform":5301,"Ġmineral":5302,"Ġlooked":5303,"Ġreceiving":5304,"Ġlearned":5305,"reciation":5306,"Ġdiagnost":5307,"Ġbehavi":5308,"Ġconservative":5309,"Ġchicago":5310,"vision":5311,"Ø¹":5312,"Ġexcess":5313,"Ġcode":5314,"active":5315,"isters":5316,"box":5317,"Ġexpendit":5318,"adas":5319,"Ġtrail":5320,"Ġspir":5321,"Ġuseful":5322,"Ġplants":5323,"phone":5324,"Ġefficacy":5325,"Ġaccelerated":5326,"Ġchristmas":5327,"Ġconclud":5328,"jan":5329,"ste":5330,"Ġvolunte":5331,"Ġdistance":5332,"Ġeasily":5333,"Ġtargeted":5334,"Ġimplemented":5335,"Ġtaiwan":5336,"Ġcagr":5337,"Ġresist":5338,"Ġspecifically":5339,"Ġagreements":5340,"================================":5341,"Ġvolatility":5342,"hr":5343,"vin":5344,"wood":5345,"Ġbay":5346,"Ġdebate":5347,"Ġwaiting":5348,"Ġdisruptions":5349,"Ġopposition":5350,"Ġgeorgia":5351,"Ġagricult":5352,"can":5353,"lined":5354,"Ġtel":5355,"Ġintended":5356,"Ġpostpon":5357,"Ġmatters":5358,"Ġdealing":5359,"income":5360,"doi":5361,"Ġcomparable":5362,"Ġum":5363,"Ġbeg":5364,"Ġapps":5365,"Ġearth":5366,"Ġwalk":5367,"Ġcomputer":5368,"eff":5369,"ania":5370,"Ġfest":5371,"Ġrobert":5372,"Ġcarry":5373,"Ġinsider":5374,"Ġlawmakers":5375,"Ġautomation":5376,"Ġinsight":5377,"Ġextend":5378,"Ġdocuments":5379,"Ġrecommended":5380,"Ġaccelerate":5381,"Ġexactly":5382,"Ġmike":5383,"semb":5384,"Ġkit":5385,"owned":5386,"Ġcorrect":5387,"41":5388,"greg":5389,"va":5390,"Ġdub":5391,"Ġstorm":5392,"Ġalg":5393,"Ġgenerated":5394,"Ġexperiences":5395,"Ġtemporarily":5396,"Ġmovie":5397,"mi":5398,"Ġing":5399,"emi":5400,"Ġimages":5401,"Ġbigger":5402,"Ġshortage":5403,"Ġgeorge":5404,"Ġsanit":5405,"Ġdisin":5406,"Ġdrilling":5407,"Ġmayor":5408,"itely":5409,"Ġmedium":5410,"Ġperiods":5411,"Ġdistributed":5412,"Ġacquired":5413,"Ġadoption":5414,"Ġconsistent":5415,"Ġreset":5416,"Ġimag":5417,"board":5418,"Ġconnected":5419,"Ġexpanded":5420,"Ġeuros":5421,"mat":5422,"Ġox":5423,"Ġoverwhel":5424,"Ġobviously":5425,"vest":5426,"Ð¸":5427,"icial":5428,"Ġheard":5429,"Ġexceed":5430,"Ġtiming":5431,"Ġpriorit":5432,"Ġmentioned":5433,"Ġta":5434,"Ġlowest":5435,"ength":5436,"Ġclasses":5437,"Ġfreedom":5438,"Ġoxygen":5439,"78":5440,"mal":5441,"Ġusa":5442,"Ġresort":5443,"Ġfellow":5444,"Ġneighbor":5445,"Ġemph":5446,"Ġapplied":5447,"Ġentry":5448,"Ġsupplement":5449,"Ġextent":5450,"Ġprepare":5451,"Ġfighting":5452,"Ġgatherings":5453,"Ð°":5454,"Ðµ":5455,"Ġfu":5456,"Ġdan":5457,"Ġ66":5458,"Ġlawy":5459,"Ġpeter":5460,"Ġmissing":5461,"Ġminimum":5462,"Ġdegree":5463,"Ġsettings":5464,"Ġburn":5465,"Ġsees":5466,"Ġjon":5467,"Ġaccused":5468,"aching":5469,"Ġdevast":5470,"Ġclosures":5471,"Ġreserved":5472,"Ġfixed":5473,"Ġrank":5474,"enders":5475,"Ġsafely":5476,"Ġexploration":5477,"Ġpurchases":5478,"ĠÃł":5479,"Ġchampions":5480,"miss":5481,"Ġroc":5482,"Ġhandling":5483,"Ġpremier":5484,"hal":5485,"Ġincred":5486,"Ġjeff":5487,"date":5488,"pts":5489,"Ġusd":5490,"Ġleads":5491,"Ġturkey":5492,"Ġexpertise":5493,"dnet":5494,"Ġmun":5495,"uth":5496,"Ġaspect":5497,"Ġprefer":5498,"Ġremarks":5499,"Ġdiscussed":5500,"Ġprincipal":5501,"Ġdangerous":5502,"Ġcold":5503,"itude":5504,"etic":5505,"Ġlease":5506,"Ġtransl":5507,"Ġrelig":5508,"Ġzdnet":5509,"Ġexplain":5510,"Ġphoto":5511,"Ġexcluding":5512,"Ġadvertising":5513,"Ġconsequences":5514,"Ġter":5515,"urg":5516,"Ġproc":5517,"Ġreporters":5518,"Ġhotels":5519,"Ġefficiency":5520,"Ġprospects":5521,"Ġvendors":5522,"iance":5523,"report":5524,"Ġhiring":5525,"Ġhasn":5526,"Ġflood":5527,"Ġathlet":5528,"Ġneutral":5529,"Ġgree":5530,"Ġusual":5531,"Ġowner":5532,"Ġspokesperson":5533,"twitter":5534,"fin":5535,"Ġfif":5536,"Ġresource":5537,"Ġpushing":5538,"cies":5539,"Ġiv":5540,"rem":5541,"Ġcough":5542,"Ġtough":5543,"Ġhun":5544,"Ġnic":5545,"Ġexports":5546,"Ġ52":5547,"Ġserved":5548,"Ġissu":5549,"Ġgenerate":5550,"Ġlisten":5551,"Ġratings":5552,"Ġgrocery":5553,"oning":5554,"iced":5555,"lets":5556,"see":5557,"Ġtruly":5558,"Ġending":5559,"Ġentered":5560,"Ġrelationships":5561,"Ġframework":5562,"Ġod":5563,"Ġham":5564,"Ġexhib":5565,"eless":5566,"Ġreck":5567,"Ġplayer":5568,"Ġaims":5569,"Ġprocedures":5570,"56":5571,"car":5572,"Ġwip":5573,"Ġproper":5574,"Ġresc":5575,"Ġ58":5576,"Ġyounger":5577,"Ġrespondents":5578,"Ġhouseholds":5579,"har":5580,"ih":5581,"Ġoh":5582,"itory":5583,"igen":5584,"Ġleverage":5585,"Ġflows":5586,"Ġitalian":5587,"elect":5588,"Ġpetro":5589,"world":5590,"Ġbecomes":5591,"73":5592,"Ġerr":5593,"ita":5594,"Ġmount":5595,"Ġjul":5596,"being":5597,"Ġwid":5598,"Ġmerc":5599,"Ġshr":5600,"Ġrecovered":5601,"Ġspeak":5602,"Ġaudience":5603,"business":5604,"Ġcomponents":5605,"Ġpipeline":5606,"Ġprotocols":5607,"Ġnuc":5608,"Ġfacts":5609,"Ġdifferences":5610,"Ġpersonnel":5611,"Ġadjustments":5612,"Ġcuomo":5613,"Ġreconcil":5614,"Ġsubstantial":5615,"Ġemphas":5616,"flow":5617,"Ġsole":5618,"Ġjoined":5619,"Ġalongside":5620,"Ġmaintaining":5621,"Ġdetermined":5622,"mart":5623,"iny":5624,"ipped":5625,"Ġwouldn":5626,"Ġadditionally":5627,"Ġstreets":5628,"Ġachieved":5629,"Ġenhance":5630,"Ġproposal":5631,"Ġciting":5632,"Ġnames":5633,"Ġspoke":5634,"Ġfintech":5635,"Ã§Ãµes":5636,"Ġheavy":5637,"nr":5638,"sen":5639,"Ã¼":5640,"Ġcatch":5641,"gro":5642,"nam":5643,"Ġpit":5644,"Ġcentury":5645,"Ġinterested":5646,"Ġsuccessfully":5647,"Ġbenchmark":5648,"orter":5649,"Ġbeaut":5650,"Ġchris":5651,"Ġplc":5652,"Ġacquisitions":5653,"Ġaimed":5654,"Ġscope":5655,"Ġcategory":5656,"Ġmm":5657,"Ġstable":5658,"Ġsea":5659,"Ġtrain":5660,"Ġagend":5661,"Ġ99":5662,"Ġshareholder":5663,"Ġtalent":5664,"Ġbooster":5665,"Ġindeed":5666,"free":5667,"pacific":5668,"itarian":5669,"Ġmd":5670,"stream":5671,"ube":5672,"Ġgrade":5673,"Ġhumans":5674,"Ġcutting":5675,"Ġintegration":5676,"Ġpanel":5677,"Ġschedule":5678,"Ġincorpor":5679,"Ġast":5680,"aration":5681,"Ġgender":5682,"Ġstan":5683,"aciÃ³n":5684,"Ġesg":5685,"Ġhandle":5686,"Ġvictor":5687,"Ġencourage":5688,"Ġdiluted":5689,"Ġsin":5690,"osh":5691,"Ġlosing":5692,"Ġdelayed":5693,"Ã±":5694,"Ġsought":5695,"Ġundert":5696,"Ġcloser":5697,"Ġattributable":5698,"Ġinteresting":5699,"Ġordered":5700,"Ġvoice":5701,"information":5702,"Ġrig":5703,"Ġwhom":5704,"Ġrout":5705,"wards":5706,"Ġaffairs":5707,"Ġremotely":5708,"iers":5709,"Ġwife":5710,"Ġfine":5711,"Ġborders":5712,"Ġhus":5713,"Ġeconomics":5714,"Ġzone":5715,"Ġsky":5716,"Ġelsewhere":5717,"Ġtesla":5718,"mn":5719,"ympt":5720,"ĠÃ©":5721,"Ġbure":5722,"Ġ53":5723,"iana":5724,"Ġcarried":5725,"Ġcontribution":5726,"Ġsatisf":5727,"bu":5728,"Ġconven":5729,"Ġincent":5730,"Ġadm":5731,"Ġdatab":5732,"Ġheavily":5733,"iro":5734,"ti":5735,"Ġcfo":5736,"Ġeld":5737,"romb":5738,"Ġplastic":5739,"Ġensuring":5740,"Ġeligible":5741,"wing":5742,"Ġaz":5743,"Ġdani":5744,"Ġstation":5745,"Ġ59":5746,"Ġ2013":5747,"Ġdiscussions":5748,"Ġmargins":5749,"fr":5750,"Ġopp":5751,"Ġimplic":5752,"Ġgovernance":5753,"Ġtechnavio":5754,"Ġthom":5755,"level":5756,"Ġprove":5757,"Ġrail":5758,"izations":5759,"Ġsurround":5760,"Ġruns":5761,"what":5762,"Ġdivers":5763,"emy":5764,"Ġunknown":5765,"ughter":5766,"Ġresilience":5767,"Ġchapter":5768,"Ġbuildings":5769,"Ġbelieved":5770,"Ġappoint":5771,"Ġpermanent":5772,"08":5773,"Ġwhate":5774,"Ġaged":5775,"Ġbrown":5776,"ront":5777,"Ġspokesman":5778,"Ġanimal":5779,"Ġcreative":5780,"respond":5781,"Ġluxury":5782,"Ġwhatever":5783,"Ġtons":5784,"onom":5785,"star":5786,"Ġcoff":5787,"Ġamend":5788,"Ġpartially":5789,"comp":5790,"Ġfilings":5791,"Ġwatching":5792,"Ġmoderate":5793,"Ġfulf":5794,"Ġturning":5795,"Ġalleged":5796,"Ġinequ":5797,"asc":5798,"Ġadequ":5799,"Ġdispos":5800,"Ġcere":5801,"Ġimplementation":5802,"Ġaer":5803,"Ġproud":5804,"Ġupcoming":5805,"Ġinvested":5806,"Ġboeing":5807,"Ġvalid":5808,"Ġshops":5809,"Ġfamiliar":5810,"Ġobserv":5811,"Ġpodcast":5812,"called":5813,"Ġwake":5814,"Ġrely":5815,"Ġexpanding":5816,"Ġsufficient":5817,"Ġdedicated":5818,"Ġticket":5819,"inet":5820,"Ġprosecut":5821,"Ġhighs":5822,"Ġdownturn":5823,"Ġstopped":5824,"Ġpostponed":5825,"bing":5826,"Ġrecip":5827,"Ġscore":5828,"Ġpurposes":5829,"ymptomatic":5830,"04":5831,"Ġbear":5832,"alls":5833,"Ġ54":5834,"Ġ57":5835,"Ġimpair":5836,"Ġtwice":5837,"ologist":5838,"Ġskift":5839,"Ġarrange":5840,"Ġhybr":5841,"Ġacademic":5842,"win":5843,"Ġportion":5844,"Ġcontacts":5845,"Ġrepresentative":5846,"Ġflexibility":5847,"Ġsyndrome":5848,"Ġamortization":5849,"Ġcargo":5850,"isol":5851,"Ġpregn":5852,"Ġhospitalized":5853,"Ġthousand":5854,"Ġshipping":5855,"Ġmandate":5856,"Ġepidemi":5857,"Ġcalculated":5858,"ĠÙĪ":5859,"Ġdirection":5860,"apping":5861,"Ġresulted":5862,"Ġpromise":5863,"Ġselected":5864,"Ġsweden":5865,"Ġwitness":5866,"Ġalleg":5867,"Ġscot":5868,"Ġfollows":5869,"Ġcrew":5870,"Ġrestruct":5871,"Ġsum":5872,"abil":5873,"Ġwonder":5874,"Ġfreight":5875,"Ġlaboratory":5876,"men":5877,"Â®":5878,"Ġmild":5879,"Ġ].":5880,"Ġholds":5881,"Ġexperiencing":5882,"Ġera":5883,"Ġfrank":5884,"ucks":5885,"Ġrequiring":5886,"Ġelev":5887,"03":5888,"worth":5889,"aint":5890,"Ġcorrespond":5891,"Ġregistration":5892,"ils":5893,"Ġsciences":5894,"Ġ69":5895,"Ġsurprise":5896,"Ġboris":5897,"Ġstruggle":5898,"58":5899,"quality":5900,"Ġtracing":5901,"Ġpowell":5902,"Ġparent":5903,"Ġoccup":5904,"Ġadopted":5905,"Ġsubsequent":5906,"Ġagenda":5907,"ÑĤ":5908,"Ġsam":5909,"iter":5910,"Ġlending":5911,"Ġrural":5912,"Ġknew":5913,"ressed":5914,"Ġstream":5915,"Ġsuffered":5916,"sp":5917,"conn":5918,"Ġsurf":5919,"Ġnewsp":5920,"Ġ250":5921,"Ġvictory":5922,"fortun":5923,"Ġchemical":5924,"Ġdial":5925,"Ġhearing":5926,"Ġchronic":5927,"Ġresume":5928,"Ġcouldn":5929,"anged":5930,"Ġcombat":5931,"Ġfemale":5932,"07":5933,"Ġhab":5934,"ques":5935,"Ġafterno":5936,"Ġexperiment":5937,"Ġcybers":5938,"Ġexpensive":5939,"Ġencouraging":5940,"Ġcoup":5941,"audited":5942,"Ġobserved":5943,"Ãª":5944,"Ġoce":5945,"oted":5946,"Ġvary":5947,"Ġworry":5948,"Ġfeb":5949,"Ġinflamm":5950,"Ġphilipp":5951,"Ġrandom":5952,"Ġdisinfect":5953,"Ġrom":5954,"ulate":5955,"Ġkim":5956,"kets":5957,"Ġdisaster":5958,"Ã©s":5959,"Ġfallen":5960,"Ġchecks":5961,"Ġcooperation":5962,"Ġafternoon":5963,"ii":5964,"Ġul":5965,"imited":5966,"Ġride":5967,"Ġunaudited":5968,"Ġcarol":5969,"Ġapplicable":5970,"Ġthreats":5971,"Ġenforcement":5972,"alities":5973,"iling":5974,"state":5975,"igan":5976,"Ġka":5977,"Ġembr":5978,"Ġ76":5979,"Ġvaluable":5980,"Ġlanguage":5981,"oqu":5982,"Ġft":5983,"uty":5984,"Ġassociate":5985,"Ġengagement":5986,"Ġcommodity":5987,"Ġpul":5988,"Ġassemb":5989,"isted":5990,"Ġroles":5991,"Ġdepreciation":5992,"Ġdefic":5993,"print":5994,"ml":5995,"ili":5996,"Ġgard":5997,"iminal":5998,"Ġunfortun":5999,"ivals":6000,"Ġpover":6001,"Ġ62":6002,"Ġ68":6003,"Ġeverybody":6004,"Ġretailer":6005,"Ġpromote":6006,"ows":6007,"Ġrock":6008,"Ġdesper":6009,"ateral":6010,"Ġsmith":6011,"Ġguide":6012,"Ġattor":6013,"Ġjourney":6014,"Ġextraordin":6015,"Ġminority":6016,"Ġpoverty":6017,"Ġryan":6018,"Ġ67":6019,"Ġvaluation":6020,"Ġ140":6021,"Ġsummit":6022,"Ġintegrity":6023,"Ġoverseas":6024,"arent":6025,"Ø¨":6026,"Ġbon":6027,"ersey":6028,"sey":6029,"Ġjpy":6030,"loyd":6031,"Ġmiles":6032,"Ġdeposits":6033,"bai":6034,"iding":6035,"uster":6036,"Ġquarters":6037,"rick":6038,"Ġtelevision":6039,"Ġobligation":6040,"Ġolympics":6041,"stein":6042,"Ġprocure":6043,"02":6044,"Ġbought":6045,"Ġalliance":6046,"Ġfacilit":6047,"Ġprotecting":6048,"Ġfurl":6049,"Ġhappens":6050,"Ġpreca":6051,"Ġsleep":6052,"organ":6053,"Ġprel":6054,"Ġfrustr":6055,"Ġsurface":6056,"Ġaviation":6057,"plant":6058,"Ġtreated":6059,"Ġtensions":6060,"ez":6061,"Ġfile":6062,"ashed":6063,"oming":6064,"ogen":6065,"Ġemer":6066,"ikes":6067,"Ġba":6068,"aro":6069,"Ġkick":6070,"Ġdisplay":6071,"icef":6072,"Ġrollout":6073,"iminary":6074,"Ġdaniel":6075,"pat":6076,"Ġmakers":6077,"Ġabb":6078,"Ġ2023":6079,"Ġdoor":6080,"Ġearn":6081,"Ġaccordance":6082,"Ġbelief":6083,"Ġintegrated":6084,"Ġrequested":6085,"Ġnecessarily":6086,"Ġtelling":6087,"Ġmitigate":6088,"Ġurgent":6089,"Ġeb":6090,"Ġapparent":6091,"Ġfeels":6092,"Ġgenetic":6093,"Ġbankrupt":6094,"Ġtraders":6095,"Ġauthorization":6096,"Ġvisits":6097,"Ġcollected":6098,"Ġjudge":6099,"Ġdetection":6100,"Ġpopulations":6101,"Ġoxford":6102,"ØĮ":6103,"Ġbail":6104,"Ġhou":6105,"Ġword":6106,"Ġko":6107,"Ġimposs":6108,"Ġtravelers":6109,"prises":6110,"Ġarticles":6111,"Ġarabia":6112,"Ġindoor":6113,"fa":6114,"eries":6115,"itz":6116,"Ġjersey":6117,"Ġcann":6118,"Ġ79":6119,"Ġevening":6120,"sels":6121,"Ġblog":6122,"Ġsuffering":6123,"draw":6124,"profit":6125,"Ġpredicted":6126,"Ġfrancisco":6127,"cher":6128,"Ġhill":6129,"Ġnut":6130,"Ġviruses":6131,"Ġcarriers":6132,"Ġedge":6133,"Ġorganisation":6134,"Ġunlimited":6135,"Ġeditorial":6136,"iatric":6137,"oquine":6138,"Ġaware":6139,"inder":6140,"inary":6141,"Ġsad":6142,"ayer":6143,"adium":6144,"apse":6145,"Ġoutcome":6146,"Ġrecr":6147,"Ġ72":6148,"ghan":6149,"Ġrepro":6150,"Ġstreaming":6151,"Ġwales":6152,"Ġgranted":6153,"loroquine":6154,"Ġpreliminary":6155,"lam":6156,"Ñģ":6157,"Ø³":6158,"Ġbub":6159,"Ġthromb":6160,"rencies":6161,"Ġ64":6162,"Ġbrother":6163,"Ġindicated":6164,"Ġlicense":6165,"Ġdisappo":6166,"Ġhybrid":6167,"Ġsong":6168,"Ġlag":6169,"lett":6170,"Ġonto":6171,"igned":6172,"Ġoperators":6173,"Ġharder":6174,"Ġadministrative":6175,"Ġnormally":6176,"Ġepis":6177,"Ġphotograp":6178,"Ġencouraged":6179,"Ġoptimistic":6180,"Ġmotor":6181,"Ġradio":6182,"Ġinstruct":6183,"Ġcomposite":6184,"Ġware":6185,"Ġhyp":6186,"Ġconcept":6187,"Ġvaccinations":6188,"Ġobama":6189,"cribe":6190,"Ġlisted":6191,"Ġdividends":6192,"Ġassistant":6193,"Ġequivalent":6194,"Ġresidential":6195,"Ġbegun":6196,"Ġimpossible":6197,"don":6198,"Ġluc":6199,"Ġunexpected":6200,"ecurity":6201,"Ġcontribute":6202,"Ġpointed":6203,"Ġdozens":6204,"Ġfill":6205,"anda":6206,"Ġmeat":6207,"offs":6208,"Ġnegotiations":6209,"Ġmerger":6210,"Ġdriver":6211,"Ġpublish":6212,"Ġcybersecurity":6213,"ci":6214,"eu":6215,"lim":6216,"erly":6217,"Ġpm":6218,"itis":6219,"Ġmist":6220,"Ġasymptomatic":6221,"Ġfeet":6222,"Ġdemocracy":6223,"Ġpartnerships":6224,"Ġcausing":6225,"Ġreasonable":6226,"Ġobligations":6227,"Ġobtained":6228,"Ġacknowled":6229,"Ġticker":6230,"Ġfab":6231,"aria":6232,"using":6233,"Ġwithdraw":6234,"Ġcolomb":6235,"Ġsummary":6236,"Ġbatter":6237,"Ġentirely":6238,"gl":6239,"light":6240,"Ġwis":6241,"asion":6242,"Ġprin":6243,"Ġanalyz":6244,"minent":6245,"rier":6246,"Ġstaying":6247,"ommod":6248,"Ġreflects":6249,"Ġaudio":6250,"Ġverified":6251,"Ġrecognized":6252,"Ġanimals":6253,"vaccinated":6254,"Ġtransparency":6255,"top":6256,"uate":6257,"Ġeasing":6258,"Ġgall":6259,"quo":6260,"acted":6261,"Ġserving":6262,"Ġplanet":6263,"Ġregulators":6264,"Ġanswers":6265,"Ġcategories":6266,"Ġscenarios":6267,"reprene":6268,"Ġreliable":6269,"rc":6270,"tok":6271,"zz":6272,"Ġfy":6273,"Ġreference":6274,"Ġweigh":6275,"through":6276,"Ġfrag":6277,"Ġcarrying":6278,"Ġcancelled":6279,"Ġmagaz":6280,"Ġhusband":6281,"Ã¶":6282,"tra":6283,"Ġempt":6284,"lix":6285,"Ġbackground":6286,"Ġllc":6287,"Ġdynamics":6288,"Ġalgor":6289,"rid":6290,"wear":6291,"watch":6292,"Ð½":6293,"ctional":6294,"Ġmole":6295,"osystem":6296,"kel":6297,"Ġabuse":6298,"Ġintensive":6299,"2027":6300,"Ġlocated":6301,"Ġspreads":6302,"Ġxi":6303,"Ġmethods":6304,"Ġstakeholders":6305,"Ġconflict":6306,"bel":6307,"hire":6308,"ius":6309,"nic":6310,"xit":6311,"Ġgy":6312,"Ġshang":6313,"Ġentreprene":6314,"Ġreserves":6315,"Ġtap":6316,"ato":6317,"Ġpin":6318,"Ġexcell":6319,"Ġjim":6320,"Ġwors":6321,"Ġaccommod":6322,"Ġcrime":6323,"Ġinfo":6324,"Ġjoining":6325,"Ġpublication":6326,"Ġrealized":6327,"Ġliter":6328,"Ġvirgin":6329,"Ġsubscriber":6330,"Ġrestructuring":6331,"Ġalgorith":6332,"real":6333,"ician":6334,"iger":6335,"illance":6336,"aints":6337,"Ġcontag":6338,"Ġmont":6339,"Ġremo":6340,"Ġministers":6341,"comm":6342,"Ġaircraft":6343,"Ġrequests":6344,"Ġvictims":6345,"controll":6346,"Ġthomas":6347,"itt":6348,"Ġmail":6349,"ira":6350,"ulf":6351,"Ġcha":6352,"Ġshoot":6353,"ibutions":6354,"Ġcriminal":6355,"enced":6356,"Ġextensive":6357,"Ġintrodu":6358,"Ġsharply":6359,"hai":6360,"Ġtail":6361,"ala":6362,"Ġresum":6363,"Ġnumerous":6364,"Ġposting":6365,"Ġsuite":6366,"Ġswit":6367,"Ġcanceled":6368,"Ġmandates":6369,"markets":6370,"Ġpassenger":6371,"Ġbow":6372,"Ġanth":6373,"Ġproven":6374,"Ġjet":6375,"lihood":6376,"Ġdevelopers":6377,"Ġ2009":6378,"Ġcycle":6379,"Ġsteel":6380,"Ġdiverse":6381,"Ġmandatory":6382,"Ġchannels":6383,"ÙģÙĬ":6384,"itative":6385,"Ġlength":6386,"Ġnewly":6387,"Ġdiscr":6388,"Ġcentres":6389,"Ġkilling":6390,"Ġdefinitely":6391,"Ġnuclear":6392,"wind":6393,"Ġci":6394,"Ġwider":6395,"ari":6396,"âĢĭ":6397,"Ġunicef":6398,"elled":6399,"Ġveter":6400,"Ġmorgan":6401,"Ġskin":6402,"Ġguardian":6403,"98":6404,"Ġfly":6405,"Ġmaker":6406,"Ġheight":6407,"Ġrival":6408,"Ġcomprom":6409,"iber":6410,"Ġmuse":6411,"Ġclaimed":6412,"Ġcriteria":6413,"Ġseriously":6414,"Ġcovering":6415,"Ġmerch":6416,"iot":6417,"ashing":6418,"Ġheat":6419,"Ġlee":6420,"ttp":6421,"Ġcontrols":6422,"kin":6423,"Ġblow":6424,"leading":6425,"Ġstands":6426,"Ġplun":6427,"Ġapprec":6428,"Ġoperates":6429,"Ġswitch":6430,"Ġpromising":6431,"Ġwinning":6432,"Ġsanctions":6433,"Ġenterprises":6434,"Ġstarts":6435,"Ġaccurate":6436,"Ġuber":6437,"Ġcoffee":6438,"Ġpun":6439,"Ġly":6440,"imp":6441,"Ġyouth":6442,"Ġ73":6443,"Ġcontrast":6444,"Ġconsideration":6445,"Ġpersist":6446,"Ġanticipate":6447,"Ġecosystem":6448,"Ġproceeds":6449,"Ġcycling":6450,"Ġorganisations":6451,"Ġtherapeutics":6452,"aq":6453,"Ġazer":6454,"ena":6455,"ĠâĢĭ":6456,"Ġintel":6457,"Ġstrike":6458,"feren":6459,"Ġboy":6460,"Ġdepending":6461,"athan":6462,"Ġmaster":6463,"Ġheadqu":6464,"Ġcomparison":6465,"Ġsurvive":6466,"Ġnavigate":6467,"Ġilleg":6468,"Ġanxiety":6469,"bank":6470,"ko":6471,"Ġhiv":6472,"Ġbell":6473,"Ġalert":6474,"Ġchip":6475,"Ġsupports":6476,"Ġlifted":6477,"Ġfounded":6478,"Ġlimits":6479,"Ġviet":6480,"Ġreaching":6481,"Ġownership":6482,"Ġmartin":6483,"64":6484,"800":6485,"coun":6486,"Ġther":6487,"Ġuna":6488,"Ġetc":6489,"Ġunclear":6490,"Ġparticipate":6491,"Ġbreakdown":6492,"Ġterritory":6493,"Ġdeadly":6494,"Ġfifth":6495,"like":6496,"ville":6497,"Ġneither":6498,"Ġadmitted":6499,"Ġrelax":6500,"Ġstret":6501,"Ġpriorities":6502,"ucky":6503,"Ġmedicines":6504,"ĠØ£":6505,"Ġolympic":6506,"Ġtonnes":6507,"Ġconstitution":6508,"Ġnewspaper":6509,"Ġprocurement":6510,"hered":6511,"Ġsir":6512,"Ġcup":6513,"edia":6514,"iser":6515,"oma":6516,"Ġoverview":6517,"Ġcommer":6518,"tenance":6519,"Ġstrongly":6520,"risk":6521,"Ġrecognition":6522,"Ġinstitutional":6523,"Ġextraordinary":6524,"Ġemerge":6525,"cn":6526,"chen":6527,"kes":6528,"rey":6529,"Ġsurged":6530,"Ġsupporters":6531,"Ġdeputy":6532,"Ġforms":6533,"Ġequal":6534,"Ġfactory":6535,"Ġheading":6536,"Ġmatt":6537,"Ġfiling":6538,"Ġhoping":6539,"Ġsurveillance":6540,"Ġreflecting":6541,"Ġprovisions":6542,"Ġingred":6543,"Ġpap":6544,"Ġves":6545,"Ġ120":6546,"americ":6547,"than":6548,"essions":6549,"alling":6550,"Ġopec":6551,"Ġdry":6552,"Ġpossibly":6553,"rowing":6554,"Ġprofitability":6555,"Ġwalmart":6556,"Ġrichard":6557,"ja":6558,"atures":6559,"Ġhaw":6560,"Ġhttp":6561,"Ġreaction":6562,"ula":6563,"Ġrelating":6564,"Ġrestart":6565,"Ġ2010":6566,"Ġentering":6567,"Ġenglish":6568,"Ġsitting":6569,"Ġprojections":6570,"Ġproducer":6571,"Ġexcited":6572,"Ġathletes":6573,"run":6574,"china":6575,"Ġproductivity":6576,"Ġ74":6577,"Ġdetected":6578,"Ġelectricity":6579,"Ġrevolution":6580,"cs":6581,"gers":6582,"iams":6583,"Ã´":6584,"Ġwage":6585,"Ġbike":6586,"Ġmarks":6587,"Ġovernight":6588,"Ġariz":6589,"Ġunderst":6590,"Ġremove":6591,"cohol":6592,"Ġaccessible":6593,"Ġimports":6594,"Ġoutdoor":6595,"Ġazerbai":6596,"Ġtan":6597,"reness":6598,"Ġcancel":6599,"Ġcultural":6600,"Ġcookies":6601,"Ġallocation":6602,"Ġexpenditures":6603,"Ġreligious":6604,"gas":6605,"making":6606,"ray":6607,"Ġhk":6608,"Ġnur":6609,"Ġstick":6610,"Ġwilliam":6611,"Ġ61":6612,"Ġgrown":6613,"coin":6614,"Ġinformed":6615,"Ġelectron":6616,"Ġslowly":6617,"Ġarrived":6618,"Ġhurric":6619,"gov":6620,"serv":6621,"ui":6622,"Ġcp":6623,"Ġchurch":6624,"Ġshape":6625,"Ġourselves":6626,"Ġcreation":6627,"Ġofferor":6628,"Ġscreening":6629,"Ġfestival":6630,"Ġimpairment":6631,"pir":6632,"will":6633,"Ġcov":6634,"Ġbroadcast":6635,"Ġclosure":6636,"Ġcommentary":6637,"Ġmessages":6638,"sk":6639,"sch":6640,"Ġtun":6641,"Ġbes":6642,"umn":6643,"Ġmetal":6644,"Ġcontrovers":6645,"Ġpharma":6646,"Ġuniversities":6647,"Ġattorney":6648,"68":6649,"aid":6650,"dney":6651,"rees":6652,"cel":6653,"Ġdemands":6654,"Ġpayroll":6655,"Ġcollective":6656,"Ġimplications":6657,"Ġmagazine":6658,"Ġmuseum":6659,"rative":6660,"inger":6661,"Ġrain":6662,"Ġexempt":6663,"Ġelected":6664,"Ġlitigation":6665,"Ġdaughter":6666,"Ġsuggesting":6667,"scale":6668,"Ġventures":6669,"Ã¡s":6670,"Ġoccurred":6671,"Ġranked":6672,"Ġhighlighted":6673,"Ġscotland":6674,".-":6675,"ae":6676,"dig":6677,"econom":6678,"Ġwish":6679,"Ġfloyd":6680,"Ġgun":6681,"Ġsuperm":6682,"Ġpresents":6683,"Ġ89":6684,"Ġseverity":6685,"Ġadviser":6686,"Ġjew":6687,"Ġabsolutely":6688,"hort":6689,"pow":6690,"Ġpdf":6691,"usive":6692,"urring":6693,"Ġforum":6694,"Ġyester":6695,"Ġrall":6696,"Ġ2025":6697,"Ġindones":6698,"Ġbuff":6699,"Ġwells":6700,"Ġguests":6701,"Ġelectronic":6702,"Ġelimin":6703,"Ġengaged":6704,"Ġextension":6705,"Ġperformed":6706,"Ġuniversal":6707,"Ð¾Ð":6708,"Ġsplit":6709,"Ġshanghai":6710,"Ġtiss":6711,"Ġthinks":6712,"chain":6713,"Ġ2030":6714,"Ġunvaccinated":6715,"Ġshap":6716,"Ġcontains":6717,"Ġaggreg":6718,"Ġreviews":6719,"Ġhistorically":6720,"Ġseemed":6721,"Ġresilient":6722,"57":6723,"fall":6724,"pres":6725,"Ġice":6726,"onto":6727,"Ġbc":6728,"Ġbrings":6729,"Ġautonom":6730,"Ġ2011":6731,"Ġhospitality":6732,"Ġmaintenance":6733,"Ġlegacy":6734,"Ġmobility":6735,"Ġpoliticians":6736,"Ġstrengthen":6737,"Ġounce":6738,"hand":6739,"ran":6740,"water":6741,"ÑĢ":6742,"Ġcoc":6743,"oman":6744,"terns":6745,"Ġmonkey":6746,"Ġfinish":6747,"Ġslide":6748,"Ġslump":6749,"Ġsurveys":6750,"Ġvirtually":6751,"Ġphilippines":6752,"Ġarizona":6753,"inct":6754,"Ġsor":6755,"isan":6756,"Ġproxy":6757,"Ġdoors":6758,"Ġ71":6759,"Ġ87":6760,"Ġowns":6761,"erring":6762,"Ġbillions":6763,"ubscribe":6764,"Ġmachines":6765,"Ġtackle":6766,"Ġyesterday":6767,"dem":6768,"flix":6769,"glob":6770,"hor":6771,"tar":6772,"vi":6773,"igue":6774,"Ġhes":6775,"Ġreportedly":6776,"ÃŃa":6777,"Ġcancell":6778,"Ġfox":6779,"Ġhair":6780,"Ġlu":6781,"amin":6782,"Ġyout":6783,"Ġplenty":6784,"Ġenroll":6785,"Ġsymb":6786,"Ġtransplant":6787,"Ġpatterns":6788,"Ġprotected":6789,"Ġtargeting":6790,"Ġsimilarly":6791,"Ġintroduction":6792,"Ġocean":6793,"Ġempty":6794,"mates":6795,"Ġdav":6796,"Ġworries":6797,"Ġkid":6798,"Ġoutlined":6799,"Ġ77":6800,"Ġbooks":6801,"Ġofferings":6802,"Ġresponded":6803,"Ġdeeply":6804,"Ġunders":6805,"Ġhurt":6806,"Ġrescue":6807,"ints":6808,"Ġcinem":6809,"Ġpiv":6810,"oral":6811,"Ġmir":6812,"illy":6813,"Ġbeach":6814,"acer":6815,"Ġcapit":6816,"angible":6817,"ifications":6818,"Ġbelg":6819,"beat":6820,"Ġsteady":6821,"Ġdeclines":6822,"Ġpreparing":6823,"Ġvotes":6824,"Ġinvolving":6825,"Ġventilators":6826,"Ġspanish":6827,"Ġcards":6828,"icts":6829,"Ġni":6830,"Ġmarc":6831,"Ġeffectiveness":6832,"Ġvideos":6833,"Ġshoppers":6834,"Ġdisclosure":6835,"Ġawareness":6836,"Ġbn":6837,"Ġyen":6838,"ache":6839,"Ġusage":6840,"Ġallies":6841,"Ġrooms":6842,"ductions":6843,"inking":6844,"Ġ86":6845,"Ġbacked":6846,"Ġstephen":6847,"Ġrolling":6848,"onym":6849,"Ġclimbed":6850,"Ġacademy":6851,"Ġcomfortable":6852,"Ġtariff":6853,"Ġbehaviour":6854,"Ġelderly":6855,"lis":6856,"maker":6857,"pet":6858,"Ġig":6859,"Ġfro":6860,"Ġdre":6861,"urred":6862,"izon":6863,"Ġacting":6864,"Ġ63":6865,"Ġsydney":6866,"Ġminds":6867,"class":6868,"Ġtraded":6869,"Ġlabs":6870,"Ġrestricted":6871,"Ġrecognize":6872,"driven":6873,"Ġcharged":6874,"Ġcommerce":6875,"awn":6876,"but":6877,"iest":6878,"Ġpounds":6879,"Ġthro":6880,"ando":6881,"Ġjail":6882,"Ġlever":6883,"Ġ83":6884,"Ġwarr":6885,"Ġknows":6886,"Ġcompetitors":6887,"Ġrobot":6888,"Ġtechnological":6889,"Ġmetrics":6890,"Ġdining":6891,"icks":6892,"Ġstadium":6893,"Ġunve":6894,"Ġbridge":6895,"Ġinterv":6896,"Ġdigit":6897,"Ġrevised":6898,"Ġdiscovery":6899,"Ġpiece":6900,"Ġsubsidiaries":6901,"Ġdatabase":6902,"Ġsanta":6903,"erts":6904,"Ġdas":6905,"Ġtot":6906,"acking":6907,"Ġimper":6908,"Ġcolumb":6909,"Ġfocusing":6910,"Ġidentity":6911,"Ġexplains":6912,"Ġmissed":6913,"Ġregularly":6914,"Ġeyes":6915,"Ġunsubscribe":6916,"Ġalb":6917,"apol":6918,"Ġmarked":6919,"Ġmoreover":6920,"Ġ78":6921,"Ġholders":6922,"Ġgoldman":6923,"Ġruling":6924,"Ġwrites":6925,"Ġshelter":6926,"Ġcarolina":6927,"founder":6928,"Ġske":6929,"Ġlenders":6930,"Ġnam":6931,"Ġstem":6932,"imination":6933,"Ġraw":6934,"Ġalt":6935,"Ġgrants":6936,"athy":6937,"Ġstartups":6938,"Ġmemor":6939,"Ġlessons":6940,"Ġwinner":6941,"Ġreopened":6942,"Ġhygi":6943,"Ġfavour":6944,"Ġtouching":6945,"Ġbarrels":6946,"Ġrepeatedly":6947,"Ġreconciliation":6948,"rary":6949,"Ġsout":6950,"Ġinject":6951,"isons":6952,"Ġalarm":6953,"Ġrefuge":6954,"Ġmetals":6955,"Ġhopkins":6956,"Ġdifficulty":6957,"Ġparticipation":6958,"Ġcaught":6959,"Ġfloor":6960,"Ġopinions":6961,"Ġaffordable":6962,"Ġmaximum":6963,"Ġyoutube":6964,"chloroquine":6965,"Ġproportion":6966,"Ġmary":6967,"Ġkat":6968,"Ġanywhere":6969,"Ġnetflix":6970,"awa":6971,"Ġcollapse":6972,"Ġirish":6973,"Ġbrexit":6974,"Ġevaluation":6975,"Ġmixed":6976,"Ġdeposit":6977,"Ġchatb":6978,"Ġdiplom":6979,"Ġenabling":6980,"Ġunfortunately":6981,"97":6982,"bid":6983,"Ġbang":6984,"Ġdar":6985,"Ġlift":6986,"Ġstrategist":6987,"Ġpractical":6988,"xychloroquine":6989,"Ġsensors":6990,"Ġnarrow":6991,"Ġtweeted":6992,"Ġbiontech":6993,"icate":6994,"Ġalcohol":6995,"Ġseats":6996,"Ġbrian":6997,"oney":6998,"Ġhumanitarian":6999,"Ġcontracted":7000,"Ġrental":7001,"Ġsnap":7002,"Ġmacron":7003,"Ġarmy":7004,"Ġnutr":7005,"Ġanthony":7006,"Ġsides":7007,"roy":7008,"Ġstages":7009,"cho":7010,"Ġjur":7011,"Ġtruth":7012,"Ġkel":7013,"Ġsets":7014,"Ġnationalities":7015,"Ġcondensed":7016,"Ġrequirement":7017,"olson":7018,"Ġbitcoin":7019,"party":7020,"300":7021,"tail":7022,"omed":7023,"Ġforth":7024,"Ġitem":7025,"Ġconsecut":7026,"Ġabroad":7027,"Ġintent":7028,"Ġadvised":7029,"Ġsolar":7030,"Ġdelhi":7031,"Ġheads":7032,"Ġburden":7033,"Ġneighborhood":7034,"52":7035,"lb":7036,"nc":7037,"Ġcb":7038,"Ġwages":7039,"enza":7040,"Ġfo":7041,"Ġdark":7042,"Ġell":7043,"Ġstuff":7044,"aba":7045,"Ġwilliams":7046,"Ġupt":7047,"Ġfinished":7048,"Ġdrinks":7049,"Ġorganic":7050,"Ġpurchasing":7051,"Ġregardless":7052,"Ġmeaningful":7053,"Ġneighbour":7054,"Ġacknowledge":7055,"Ġarrested":7056,"Ġsurfaces":7057,"Ġhouston":7058,"Ġreass":7059,"Ġrevers":7060,"Ġreliance":7061,"idency":7062,"Ġhel":7063,"istical":7064,"Ġbright":7065,"Ġbanned":7066,"Ġvalley":7067,"Ġpollution":7068,"Ġipo":7069,"Ġhydroxychloroquine":7070,"Ġceremon":7071,"Ġmes":7072,"Ġdos":7073,"andmarkets":7074,"iva":7075,"antic":7076,"Ġovers":7077,"Ġmanner":7078,"Ġpool":7079,"Ġjose":7080,"hesion":7081,"Ġcomponent":7082,"Ġbaby":7083,"dis":7084,"hour":7085,"Ġeric":7086,"Ġcited":7087,"Ġpp":7088,"Ġfan":7089,"Ġboun":7090,"Ġmu":7091,"Ġreductions":7092,"outh":7093,"Ġnice":7094,"Ġcoord":7095,"Ġdrill":7096,"Ġdrag":7097,"Ġproducing":7098,"Ġdiabet":7099,"Ġiii":7100,"Ġcoalition":7101,"Ġfarmers":7102,"Ġaggressive":7103,"bt":7104,"ØŃ":7105,"Ġsar":7106,"Ġsending":7107,"Ġgh":7108,"Ġspar":7109,"Ġkits":7110,"Ġsenator":7111,"Ġcaut":7112,"Ġcampaigns":7113,"Ġships":7114,"Ġliberal":7115,"Ġevolution":7116,"Ġawards":7117,"Ġvolunteers":7118,"wis":7119,"ales":7120,"olf":7121,"Ġkr":7122,"Ġ82":7123,"Ġrepresentatives":7124,"Ġcabinet":7125,"spec":7126,"Ġtay":7127,"Ġpoc":7128,"Ġeag":7129,"Ġelement":7130,"Ġstood":7131,"store":7132,"Ġdeem":7133,"Ġtruck":7134,"Ġunus":7135,"Ġanalyses":7136,"minute":7137,"Ġassociates":7138,"Ġtherapies":7139,"Ġfairly":7140,"Ġmichigan":7141,"Ġdeadline":7142,"Ġcrowd":7143,"Ġdegrees":7144,"Ġobtain":7145,"Ġcapitol":7146,"backs":7147,"gs":7148,"oul":7149,"Ġconferences":7150,"Ġram":7151,"Ġcoordin":7152,"Ġ88":7153,"Ġconcerning":7154,"Ġlots":7155,"Ġiraq":7156,"Ġdiam":7157,"Ã¡n":7158,"Ġelements":7159,"Ġbeds":7160,"Ġatlanta":7161,"Ġreckoning":7162,"Ġconsecutive":7163,"Ġsi":7164,"Ġtow":7165,"idays":7166,"Ġgene":7167,"Ġwarn":7168,"Ġdeferred":7169,"Ġgreg":7170,"Ġcritics":7171,"Ġprinciples":7172,"Ġbreathing":7173,"Ġprompted":7174,"with":7175,"Ġmcc":7176,"Ġmarketplace":7177,"Ġ800":7178,"Ġcontinent":7179,"Ġpowers":7180,"Ġargent":7181,"Ġconsulting":7182,"Ġlinkedin":7183,"Ġaspects":7184,"Ġsurrounding":7185,"uador":7186,"Ġpence":7187,"ila":7188,"Ġjac":7189,"herlands":7190,"uma":7191,"ĠâĢĿ)":7192,"Ġindirect":7193,"Ġafghan":7194,"inding":7195,"Ġinstall":7196,"Ġlows":7197,"Ġannounces":7198,"Ġactivists":7199,"Ġsteve":7200,"Ġreleases":7201,"Ġhygiene":7202,"51":7203,"tc":7204,"Ġtast":7205,"onic":7206,"Ġnan":7207,"Ġsho":7208,"Ġloved":7209,"Ġloyal":7210,"Ġfee":7211,"Ġgovernors":7212,"Ġnetherlands":7213,"Ġformal":7214,"Ġapproaches":7215,"clin":7216,"Ġstanding":7217,"Ġholly":7218,"Ġsnow":7219,"Ġremoved":7220,"Ġvietnam":7221,"Ġcautious":7222,"aÃ§Ã£o":7223,"Ġeps":7224,"acle":7225,"Ġjer":7226,"Ġcham":7227,"Ġplas":7228,"Ġedition":7229,"Ġparks":7230,"Ġrefer":7231,"Ġhospitalizations":7232,"Ġborn":7233,"Ġdeclining":7234,"Ġterror":7235,"Ġconversations":7236,"Ġagriculture":7237,"Ġeat":7238,"ett":7239,"Ġproof":7240,"Ġchart":7241,"Ġintens":7242,"Ġupside":7243,"Ġpolls":7244,"Ġsyria":7245,"Ġ96":7246,"enez":7247,"Ġcheap":7248,"Ġputin":7249,"Ġfurthermore":7250,"Ġsucceed":7251,"Ġaudit":7252,"Ġinfluenza":7253,"ĠĠĠĠĠĠĠĠĠĠĠĠĠĠĠĠ":7254,"Ġevaluate":7255,"Ġcomplications":7256,"Ġinclusion":7257,"Ġguarantee":7258,"lie":7259,"rum":7260,"Ġwil":7261,"Ġang":7262,"Ġlie":7263,"uries":7264,"Ġconclus":7265,"ifies":7266,"Ġactors":7267,"Ġlaid":7268,"Ġ98":7269,"Ġexpecting":7270,"shore":7271,"Ġjobless":7272,"Ġ231":7273,"Ġessentially":7274,"Ġsensitive":7275,"Ġflexible":7276,"ylv":7277,"Ġattractive":7278,"life":7279,"ä¸":7280,"Ġsac":7281,"Ġband":7282,"Ġbbc":7283,"stage":7284,"mental":7285,"Ġseaf":7286,"Ġrow":7287,"Ġload":7288,"Ġcommitments":7289,"Ġpurchased":7290,"Ġoptimism":7291,"Ġmagn":7292,"Ġdevastating":7293,"53":7294,"my":7295,"ãģ":7296,"rol":7297,"Ġaccomp":7298,"Ġsurpass":7299,"Ġguess":7300,"bridge":7301,"Ġmyself":7302,"Ġcalend":7303,"Ġmotiv":7304,"Ġpenal":7305,"Ġchampion":7306,"Ġdynamic":7307,"hit":7308,"link":7309,"Ġsounds":7310,"onia":7311,"Ġdire":7312,"Ġgal":7313,"Ġcool":7314,"Ġplays":7315,"Ġcontents":7316,"Ġtimely":7317,"encing":7318,"nsylv":7319,"away":7320,"Ġescal":7321,"Ġbills":7322,"ĠØ¨":7323,"Ġdramatic":7324,"Ġazerbaijan":7325,"Ġhurricane":7326,"Ġbio":7327,"Ġinhib":7328,"Ġexists":7329,"Ġcohort":7330,"ogue":7331,"Ġfinds":7332,"Ġvaccin":7333,"Ġinspect":7334,"Ġantivir":7335,"Ġhomeless":7336,"Ġpennsylv":7337,"Ġevolving":7338,"Ġobjectives":7339,"Ġdiagnostic":7340,"Ġallegations":7341,"zo":7342,"Ġau":7343,"hem":7344,"resear":7345,"isa":7346,"Ġboom":7347,"Ġsecured":7348,"Ġdemocrat":7349,"Ġarrival":7350,"Ġindependence":7351,"Ġduty":7352,"tical":7353,"Ġgift":7354,"Ġstability":7355,"sell":7356,"Ġnobody":7357,"Ġarmed":7358,"Ġcurve":7359,"Ġvisiting":7360,"Ġbasket":7361,"Ġvolunt":7362,"Ġtells":7363,"Ġmacro":7364,"Ġenhanced":7365,"Ġdiscover":7366,"Ġwatched":7367,"woman":7368,"order":7369,"isure":7370,"Ġdin":7371,"Ġgaming":7372,"Ġford":7373,"Ġrus":7374,"abis":7375,"Ġprince":7376,"Ġeducational":7377,"Ġsegmentation":7378,"Ġstruggled":7379,"Ġfaith":7380,"Ġphilip":7381,"Ġaccepted":7382,"Ġfundamental":7383,"Ġroutine":7384,"bar":7385,"Ġaver":7386,"Ġvon":7387,"ante":7388,"Ġ2024":7389,"Ġkil":7390,"isting":7391,"Ġactively":7392,"Ġremov":7393,"Ġcurrencies":7394,"Ġattach":7395,"Ġdeter":7396,"Ġgreatest":7397,"mont":7398,"Ġdogs":7399,"Ġarchitecture":7400,"Ġsurprising":7401,"Ġbureau":7402,"Ġpennsylvania":7403,"pay":7404,"pol":7405,"yrene":7406,"Ã¨":7407,"Ġvig":7408,"quir":7409,"Ġreput":7410,"Ġ92":7411,"Ġpreval":7412,"Ġfactories":7413,"plus":7414,"Ġports":7415,"Ġhalt":7416,"Ġadministered":7417,"Ġdistribut":7418,"Ġreflected":7419,"Ġpreventing":7420,"Ġcommissioner":7421,"Ġfunctional":7422,"Ġtrouble":7423,"Ġtheory":7424,"Ġppe":7425,"ora":7426,"Ġlinks":7427,"Ġnik":7428,"Ġweren":7429,"Ġ81":7430,"Ġdepression":7431,"Ġstockholders":7432,"Ġsolve":7433,"Ġreceiv":7434,"Ġlisting":7435,"Ġsurveyed":7436,"Ġgathering":7437,"Ġpharmaceuticals":7438,"Ġemotional":7439,"Ġspirit":7440,"Ġmunicip":7441,"ati":7442,"Ġmap":7443,"Ġmoun":7444,"Ġdream":7445,"Ġrub":7446,"Ġshield":7447,"oked":7448,"Ġbrut":7449,"ictions":7450,"Ġbroke":7451,"Ġpressures":7452,"Ġswift":7453,"Ġjournalists":7454,"Ġargued":7455,"Ġracing":7456,"obile":7457,"Ġdeployment":7458,"zerland":7459,"Ġpicks":7460,"Ġtoronto":7461,"service":7462,"Ġbp":7463,"rooms":7464,"Ġric":7465,"Ġspons":7466,"Ġairports":7467,"Ġmeasured":7468,"Ġillustr":7469,"Ġadvisor":7470,"Ġglass":7471,"Ġwebcast":7472,"Ġconcluded":7473,"Ġcolombia":7474,"Ġhesit":7475,"Ġneuro":7476,"Ġresurg":7477,"avir":7478,"Ġkar":7479,"Ġenables":7480,"Ġclubs":7481,"Ġstruck":7482,"ecess":7483,"Ġends":7484,"Ġemployer":7485,"Ġmainland":7486,"Ġcharles":7487,"Ġrenewable":7488,"Ġvictoria":7489,"Ġadequate":7490,"Ġcannabis":7491,"Ġsupermar":7492,"from":7493,"iy":7494,"ĠÙĦ":7495,"oned":7496,"Ġol":7497,"Ġble":7498,"Ġanonym":7499,"Ġconver":7500,"abs":7501,"Ġsigning":7502,"Ġdepends":7503,"Ġsecondary":7504,"Ġesp":7505,"Ġbarr":7506,"Ġmuscle":7507,"ĠØ§ÙĦÙħ":7508,"Ġproposals":7509,"Ġcomplicated":7510,"Ġamendment":7511,"Ġpivot":7512,"sour":7513,"ilton":7514,"oline":7515,"Ġaside":7516,"Ġ2000":7517,"Ġadult":7518,"neum":7519,"Ġsubmitted":7520,"Ġimprovements":7521,"Ġhouses":7522,"Ġarchive":7523,"Ġsolely":7524,"%),":7525,"wart":7526,"onduct":7527,"Ġomn":7528,"anes":7529,"Ġbag":7530,"Ġtourn":7531,"Ġexit":7532,"Ġcompr":7533,"Ġnoting":7534,"Ġintends":7535,"Ġaccum":7536,"engal":7537,"Ġrealize":7538,"Ġtypical":7539,"miconduct":7540,"Ġbreaking":7541,"Ġtrusted":7542,"Ġdiagnosis":7543,"Ġmigrants":7544,"Ġimagine":7545,"Ġtips":7546,"herent":7547,"Ġdates":7548,"Ġweap":7549,"Ġconvert":7550,"Ġhero":7551,"Ġaband":7552,"Ġkent":7553,"ibilities":7554,"Ġroute":7555,"Ġsurging":7556,"Ġputs":7557,"Ġcampus":7558,"Ġaddressing":7559,"Ġdisclaim":7560,"Ġmutations":7561,"Ġfrequently":7562,"Ġoutperformed":7563,"Ġindonesia":7564,")%":7565,"Ġmck":7566,"Ġlake":7567,"Ġsemiconduct":7568,"Ġshall":7569,"agen":7570,"Ġboston":7571,"Ġretain":7572,"Ġ94":7573,"Ġreferred":7574,"Ġcompete":7575,"Ġhitting":7576,"Ġsteep":7577,"Ġabsence":7578,"Ġdoubled":7579,"Ġstructural":7580,"Ġbankruptcy":7581,"Ġswitzerland":7582,"global":7583,"zy":7584,"Ġax":7585,"orrow":7586,"Ġgop":7587,"ailand":7588,"Ġappend":7589,"Ġstudied":7590,"Ġcurb":7591,"Ġreaders":7592,"Ġacquire":7593,"Ġgeograph":7594,"Ġdramatically":7595,"Ġincredibly":7596,"fs":7597,"not":7598,"pone":7599,"icent":7600,"Ġgear":7601,"Ġcrack":7602,"Ġcrises":7603,"Ġcontrolled":7604,"Ġdenied":7605,"cript":7606,"backed":7607,"Ġborrowing":7608,"mond":7609,"uy":7610,"Ġaw":7611,"Ġmol":7612,"isd":7613,"Ġhay":7614,"Ġislam":7615,"Ġriver":7616,"umin":7617,"Ġleisure":7618,"Ġcontest":7619,"Ġupgr":7620,"Ġsupposed":7621,"criptions":7622,"Ġpicked":7623,"Ġsettlement":7624,"right":7625,"Ġtier":7626,"Ġpneum":7627,"chs":7628,"Ġunions":7629,"Ġfranch":7630,"Ġearned":7631,"Ġstartup":7632,"Ġbegins":7633,"Ġholidays":7634,"ofi":7635,"Ġordinary":7636,"Ġbreath":7637,"Ġdeficit":7638,"Ġcalendar":7639,"Ġonset":7640,"Ġyah":7641,"Ġimf":7642,"Ġdismiss":7643,"Ġremark":7644,"Ġflag":7645,"Ġinsure":7646,"Ġsustained":7647,"Ġadopt":7648,"Ġweakness":7649,"Ġdiscovered":7650,"Ġmigrant":7651,"Ġtitle":7652,"Ġcomputing":7653,"Ġpleased":7654,"Ġgirls":7655,"Ġlawyer":7656,"Ġappendix":7657,"Ġtables":7658,"Ġreim":7659,"Ġgam":7660,"adhesion":7661,"amide":7662,"osen":7663,"ocy":7664,"Ġdiss":7665,"Ġpartly":7666,"Ġrepay":7667,"Ġkevin":7668,"Ġvalued":7669,"Ġformat":7670,"Ġlabel":7671,"Ġfoods":7672,"Ġsteven":7673,"Ġmusk":7674,"Ġecuador":7675,"Ġcharacteristics":7676,"Ġbeauty":7677,"front":7678,"nd":7679,"Ġtip":7680,"itivity":7681,"Ġbrent":7682,"Ġdies":7683,"unk":7684,"iang":7685,"Ġ[...":7686,"otherap":7687,"Ġbroker":7688,"Ġtourists":7689,"Ġdemonstrated":7690,"apolis":7691,"Ġdeemed":7692,"dep":7693,"Ġted":7694,"ini":7695,"Ġpu":7696,"Ġinbox":7697,"arc":7698,"Ġlin":7699,"Ġvenez":7700,"opol":7701,"Ġincident":7702,"Ġintermedi":7703,"Ġmorris":7704,"Ġdeliveries":7705,"Ġmisinformation":7706,"Ġcleaning":7707,"Ġlicens":7708,"Ġfavorable":7709,"Ġcertific":7710,"Ġequivalents":7711,"Ġimmigration":7712,"Ġpreferred":7713,"Ġsoutheast":7714,"Ġdiabetes":7715,"bro":7716,"Ġties":7717,"Ġak":7718,"Ġsd":7719,"Ġsoph":7720,"Ġflying":7721,"Ġbodies":7722,"Ġbengal":7723,"ican":7724,"Ġstations":7725,"Ġray":7726,"Ġraces":7727,"Ġatm":7728,"Ġunp":7729,"Ġpresidency":7730,"anges":7731,"Ġauthorized":7732,"Ġvoted":7733,"Ġseverely":7734,"Ġhonest":7735,"Ġdiversityinc":7736,"Ġdozen":7737,"Ġcolumbia":7738,"Ġjurisd":7739,"84":7740,"Ġfer":7741,"othe":7742,"0000":7743,"Ġpermission":7744,"Ġrisen":7745,"Ġtomorrow":7746,"Ġappreciate":7747,"Ġseafood":7748,"research":7749,"Ġwang":7750,"ione":7751,"Ġgulf":7752,"Ġster":7753,"Ġrna":7754,"Ġju":7755,"Ġstring":7756,"Ġgrap":7757,"Ġcarefully":7758,"Ġequities":7759,"Ġhardware":7760,"atories":7761,"Ġindicate":7762,"Ġchoices":7763,"Ġlimitations":7764,"Ġexcluded":7765,"Ġcrowds":7766,"Ġdutch":7767,"Ġtrigger":7768,"Ġbubble":7769,"Ġillegal":7770,"gets":7771,"Ġtear":7772,"Ġpill":7773,"Ġinev":7774,"ilateral":7775,"Ġexamples":7776,"gered":7777,"Ġtrips":7778,"Ġamended":7779,"Ġrepresented":7780,"Ġnasa":7781,"Ġriders":7782,"Ġentrepreneurs":7783,"54":7784,"61":7785,"Ġbain":7786,"Ġprominent":7787,"Ġexacer":7788,"Ġchile":7789,"Ġlob":7790,"Ġassume":7791,"Ġrepurch":7792,"Ġstudio":7793,"Ġposts":7794,"Ġcontainer":7795,"Ġkorean":7796,"Ġdeployed":7797,"Ġcapture":7798,"Ġvendor":7799,"country":7800,"Ġvenezuel":7801,"600":7802,"700":7803,"Ġpand":7804,"ici":7805,"Ġthailand":7806,"Ġshale":7807,"Ġlewis":7808,"Ġifrs":7809,"Ġsupplier":7810,"Ġvisibility":7811,"Ġpromised":7812,"Ġgasoline":7813,"opharm":7814,"Ġokay":7815,"desivir":7816,"html":7817,"Ġadmissions":7818,"col":7819,"sm":7820,"test":7821,"Ġtank":7822,"Ġgat":7823,"Ġstuck":7824,"irds":7825,"Ġcompound":7826,"Ġpeers":7827,"Ġ97":7828,"Ġpostpone":7829,"Ġsituations":7830,"march":7831,"Ġbasically":7832,"Ġbreakthrough":7833,"Ġlouisiana":7834,"Ġohio":7835,"Ġyahoo":7836,"Ġow":7837,"Ġeased":7838,"oton":7839,"this":7840,"Ġcorner":7841,"Ġagents":7842,"Ġarts":7843,"Ġbarb":7844,"Ġmultim":7845,"Ġphysicians":7846,"Ġfastest":7847,"Ġfleet":7848,"Ġpediatric":7849,"letters":7850,"Ġexacerb":7851,"62":7852,"vard":7853,"Ġtally":7854,"induced":7855,"Ġsessions":7856,"Ġune":7857,"Ġteen":7858,"Ġremdesivir":7859,"Ġentities":7860,"Ġstockp":7861,"Ġmatthe":7862,"Ġdistricts":7863,"Ġmilest":7864,"Ġlaunches":7865,"Ġmanufacturer":7866,"Ġaccuracy":7867,"Ġpregnant":7868,"Ġassembly":7869,"Ġbattery":7870,"Ġdiamond":7871,"Ġjosh":7872,"Ġchf":7873,"Ġdrives":7874,"Ġsubmit":7875,"Ġshouldn":7876,"Ġbarriers":7877,"Ġcorporations":7878,"ollar":7879,"Ġcitizenship":7880,"Ġtemperatures":7881,"Ġelevated":7882,"economic":7883,"aÃ§Ãµes":7884,"pdf":7885,"tor":7886,"Ġcares":7887,"Ġdrawn":7888,"Ġserves":7889,"Ġannually":7890,"Ġmemory":7891,"Ġspecies":7892,"Ġcompletion":7893,"Ġfalls":7894,"Ġbias":7895,"Ġcataly":7896,"Ġfitness":7897,"Ġvenues":7898,"Ġpetrole":7899,"Ġftse":7900,"Ġelectronics":7901,"tax":7902,"ypt":7903,"Ġpure":7904,"Ġboss":7905,"Ġrh":7906,"Ġjack":7907,"Ġrecy":7908,"ologists":7909,"Ġnewsletters":7910,"Ġattended":7911,"Ġdebut":7912,"Ġfocuses":7913,"Ġbroadly":7914,"Ġresponding":7915,"Ġviolent":7916,"Ġsurvival":7917,"Ġqualified":7918,"Ġshifting":7919,"effect":7920,"Ġfurlough":7921,"Ġingredients":7922,"Ġtariffs":7923,"Ġplasma":7924,"dy":7925,"oly":7926,"Ġmp":7927,"Ġhits":7928,"Ġlg":7929,"Ġgates":7930,"Ġperm":7931,"Ġmei":7932,"Ġsignal":7933,"Ġsociet":7934,"Ġresearchandmarkets":7935,"Ġcontributions":7936,"Ġrefused":7937,"Ġmovements":7938,"Ġjournalist":7939,"Ġargue":7940,"Ġappeal":7941,"Ġteacher":7942,"Ġconfirmation":7943,"Ġsubsidiary":7944,"post":7945,"Ġwaves":7946,"Ġpair":7947,"ano":7948,"uru":7949,"Ġstars":7950,"imm":7951,"Ġprolong":7952,"ĠsaÃº":7953,"Ġ',":7954,"ilead":7955,"Ġdraft":7956,"Ġswiss":7957,"Ġhardest":7958,"Ġautomated":7959,"Ġboosted":7960,"Ġaccounted":7961,"Ġborrowers":7962,"Ġresolution":7963,"Ġmerck":7964,"Ġincorporated":7965,"Ġantiviral":7966,"Ġpetroleum":7967,"ais":7968,"hab":7969,"Ġcow":7970,"Ġpcr":7971,"alf":7972,"Ġadj":7973,"Ġnotably":7974,"Ġmarine":7975,"Ġresign":7976,"Ġcontam":7977,"Ġplane":7978,"Ġcreates":7979,"adesh":7980,"Ġinstruments":7981,"ĠsaÃºde":7982,"rich":7983,"tz":7984,"Ġess":7985,"Ġpause":7986,"Ġpump":7987,"Ġdro":7988,"Ġreact":7989,"Ġforg":7990,"Ġgod":7991,"Ġdisast":7992,"Ġintention":7993,"Ġimpress":7994,"Ġcurbs":7995,"Ġsimon":7996,"Ġlifting":7997,"Ġenvironments":7998,"ruption":7999,"Ġcope":8000,"Ġsanofi":8001,"Ġcooper":8002,"Ġabbott":8003,"Ġcovax":8004,"aj":8005,"Ġore":8006,"Ġpas":8007,"Ġpent":8008,"Ġhack":8009,"Ġdefe":8010,"Ġash":8011,"Ġyuan":8012,"acies":8013,"Ġsem":8014,"Ġunn":8015,"Ġabort":8016,"Ġprint":8017,"Ġtheme":8018,"Ġfunded":8019,"Ġmodest":8020,"Ġsuit":8021,"Ġhoped":8022,"Ġkinds":8023,"Ġnortheast":8024,"Ġscrut":8025,"Ġhonor":8026,"Ġepisode":8027,"Ùī":8028,"retion":8029,"Ġpak":8030,"Ġbern":8031,"adi":8032,"atell":8033,"Ġdispro":8034,"Ġhelpful":8035,"Ġannouncing":8036,"Ġperforming":8037,"Ġdiscoun":8038,"Ġdiscip":8039,"Ġprofitable":8040,"Ġreviewed":8041,"Ġaccelerating":8042,"Ġlibert":8043,"Ġdefinition":8044,"aire":8045,"nology":8046,"Ġcbs":8047,"idad":8048,"Ġglo":8049,"ivo":8050,"antly":8051,"astrop":8052,"odes":8053,"Ġdonations":8054,"Ġfluct":8055,"Ġflags":8056,"Ġdetention":8057,"hester":8058,"bnb":8059,"Ġhole":8060,"Ġcommodities":8061,"group":8062,"Ġnurse":8063,"63":8064,"ef":8065,"hl":8066,"lif":8067,"mc":8068,"site":8069,"Ġtact":8070,"Ġfib":8071,"Ġfish":8072,"owed":8073,"Ġsachs":8074,"kshire":8075,"Ġzh":8076,"bean":8077,"Ġdepartments":8078,"Ġrespective":8079,"Ġhyper":8080,"Ġfrontline":8081,"Ø§Øª":8082,"Ġduration":8083,"Ġissuance":8084,"Ġprecautions":8085,"Ġafghanistan":8086,"last":8087,"Ġcrop":8088,"Ġpension":8089,"Ġfoss":8090,"Ġtrained":8091,"empts":8092,"wei":8093,"Ġshortly":8094,"Ġdiscount":8095,"Ġliability":8096,"Ġfallout":8097,"Ġportfolios":8098,"Ġ1990":8099,"Ġpanic":8100,"Ġfortun":8101,"Ġprompting":8102,"Ġoutdoors":8103,"Ġopposed":8104,"Ġmolec":8105,"iated":8106,"nis":8107,"sized":8108,"Ġcub":8109,"Ġgilead":8110,"ctor":8111,"Ġtrib":8112,"abled":8113,"Ġ700":8114,"Ġevac":8115,"Ġofficially":8116,"Ġpressing":8117,"ception":8118,"Ġtalked":8119,"Ġclinic":8120,"Ġpreparation":8121,"Ġarrive":8122,"Ġpersons":8123,"Ġsubstantially":8124,"Ġpilot":8125,"Ġgreece":8126,"Ġwipes":8127,"Ġacknowledged":8128,"Ġdiscrimination":8129,"Ġsymbol":8130,"Ġtaylor":8131,"bal":8132,"war":8133,"heim":8134,"Ġwholes":8135,"Ġunch":8136,"Ġmere":8137,"Ġsomewhat":8138,"Ġ],":8139,"Ġbroken":8140,"Ġslowed":8141,"Ġslowdown":8142,"Ġrenewed":8143,"Ġfatigue":8144,"Ġshifts":8145,"Ġpolyamide":8146,"ingly":8147,"icious":8148,"ette":8149,"Ġproved":8150,"Ġalph":8151,"Ġsaving":8152,"izz":8153,"Ġdispl":8154,"Ġseeks":8155,"Ġcongressional":8156,"Ġexception":8157,"Ġinjury":8158,"Ġvillage":8159,"Ġresurgence":8160,"Ġsatell":8161,"Ġkir":8162,"Ġcontem":8163,"Ġsurg":8164,"Ġsurger":8165,"Ġ93":8166,"Ġaccordingly":8167,"Ġtermin":8168,"Ġfilms":8169,"Ġmidw":8170,"Ġmoments":8171,"Ġfeatured":8172,"Ġsuspected":8173,"Ġcatastrop":8174,"Ġodds":8175,"clinical":8176,"iques":8177,"Ġinput":8178,"Ġdj":8179,"charg":8180,"Ġintense":8181,"Ġsuperv":8182,"Ġbusy":8183,"Ġremind":8184,"Ġmedian":8185,"Ġadvances":8186,"riend":8187,"Ġtreating":8188,"Ġadvisors":8189,"Ġmethodology":8190,"Ġgradually":8191,"Ġallocated":8192,"Ġstructures":8193,"Ġpledged":8194,"Ġtissue":8195,"Ġnutrition":8196,"71":8197,"81":8198,"uce":8199,"invest":8200,"Ġcum":8201,"Ġws":8202,"ingu":8203,"Ġgig":8204,"Ġprohib":8205,"Ġron":8206,"acion":8207,"Ġjpm":8208,"Ġpra":8209,"Ġperce":8210,"Ġuae":8211,"Ġgrapp":8212,"Ġairbnb":8213,"Ġkeeps":8214,"Ġdeeper":8215,"Ġrebu":8216,"Ġterada":8217,"di":8218,"fc":8219,"pret":8220,"inte":8221,"alle":8222,"Ġhire":8223,"Ġngi":8224,"Ġstone":8225,"oth":8226,"Ġye":8227,"Ġalerts":8228,"Ġplate":8229,"Ġamericas":8230,"Ġdefault":8231,"Ġletters":8232,"Ġsuspect":8233,"Ġmedicare":8234,"Ġindicates":8235,"Ġracism":8236,"Ġdiagnosed":8237,"Ġdisclosed":8238,"burg":8239,"Ġheadquarters":8240,"Ġunusual":8241,"Ġdisproportion":8242,"oz":8243,"ole":8244,"Ġhunt":8245,"etime":8246,"Ġky":8247,"Ġimpose":8248,"Ġunderway":8249,"Ġ84":8250,"Ġ91":8251,"Ġattempts":8252,"Ġforest":8253,"Ġreferring":8254,"Ġaffili":8255,"Ġbehalf":8256,"Ġwebsites":8257,"Ġhosts":8258,"Ġdiplomatic":8259,"Ġounces":8260,"Ġmultimedia":8261,"km":8262,"Ġsant":8263,"Ġlad":8264,"Ġnig":8265,"Ġgaps":8266,"Ġbeverage":8267,"Ġrivals":8268,"Ġcomply":8269,"Ġwash":8270,"Ġimplied":8271,"Ġpreserve":8272,"Ġintervent":8273,"Ġvisual":8274,"Ġcourses":8275,"Ġ180":8276,"Ġcopy":8277,"Ġslowing":8278,"Ġmaintained":8279,"Ġimplementing":8280,"Ġsurviv":8281,"Ġconsistently":8282,"Ġcamer":8283,"Ġshifted":8284,"Ġprotocol":8285,"Ġjonathan":8286,"93":8287,"Ġah":8288,"Ġbare":8289,"Ġmale":8290,"Ġretr":8291,"aked":8292,"Ġpoore":8293,"Ġjoy":8294,"Ġanalyze":8295,"Ġhandful":8296,"Ġlaboratories":8297,"ĠØ¹":8298,"bourne":8299,"Ġcrypto":8300,"Ġtheaters":8301,"Ġceremony":8302,"specific":8303,"Ġhollywood":8304,"aug":8305,"fir":8306,"fund":8307,"wal":8308,"Ġtum":8309,"Ġstabil":8310,"aki":8311,"Ġagent":8312,"Ġcrash":8313,"eping":8314,"Ġlifest":8315,"govern":8316,"Ġexplos":8317,"Ġhopefully":8318,"ĠØª":8319,"Ġmessaging":8320,"Ġinventories":8321,"Ġinclusive":8322,"Ġgeographic":8323,"Ġresistance":8324,"Ġwarehouse":8325,"american":8326,"Ġfossil":8327,"ei":8328,"iking":8329,"Ġtied":8330,"isms":8331,"ido":8332,"Ġexpire":8333,"llor":8334,"ancet":8335,"Ġcarib":8336,"Ġdefence":8337,"Ġ110":8338,"Ġnearby":8339,"Ġstayed":8340,"Ġjournalism":8341,"Ġpositioned":8342,"Ġbatt":8343,"Ġbudgets":8344,"Ġfabric":8345,",âĢĻ":8346,"83":8347,"hous":8348,"lord":8349,"she":8350,"Ġcos":8351,"Ġpour":8352,"ulating":8353,"ope":8354,"aka":8355,"Ġenorm":8356,"Ġaccom":8357,"Ġsoared":8358,"Ġarms":8359,"Ġshell":8360,"Ġphones":8361,"weight":8362,"Ġreads":8363,"Ġbrook":8364,"Ġmeta":8365,"Ġlimiting":8366,"Ġobst":8367,"ackson":8368,"Ġshipments":8369,"Ġrobots":8370,"Ġsuffer":8371,"haust":8372,"Ġevaluating":8373,"Ġpulled":8374,"Ġvirginia":8375,"Ġaggregate":8376,"Ġargentina":8377,"vada":8378,"Ġhamp":8379,"Ġlies":8380,"oper":8381,"Ġnotable":8382,"artic":8383,"Ġintend":8384,"Ġcounties":8385,"Ġinteraction":8386,"Ġcarrier":8387,"Ġmah":8388,"Ġmode":8389,"Ġactivist":8390,"bitious":8391,"Ġpackages":8392,"Ġcharity":8393,"Ġunlock":8394,"Ġdisrupted":8395,"Ġterritor":8396,"Ġbrazilian":8397,"Ġdanger":8398,"Ġtowns":8399,"Ġbulk":8400,"72":8401,"hus":8402,"kish":8403,"âĦ":8404,"çļ":8405,"ĠÙģÙĬ":8406,"Ġdying":8407,"eth":8408,"Ġadoles":8409,"Ġteaching":8410,"Ġlikelihood":8411,"Ġassam":8412,"Ġfinances":8413,"Ġtrades":8414,"Ġidentifying":8415,"Ġharvard":8416,"Ġcontainers":8417,"Ġfavorite":8418,"Ġhorizon":8419,"guard":8420,"Ġsurprised":8421,"Ġexcellent":8422,"president":8423,"çļĦ":8424,"74":8425,"fi":8426,"Ġhat":8427,"Ġsel":8428,"Ġexhaust":8429,"Ġprize":8430,"Ġconting":8431,"Ġovercome":8432,"Ġactor":8433,"Ġgotten":8434,"ÙĬØ©":8435,"Ġhosted":8436,"Ġinstrument":8437,"Ġmelbourne":8438,"................":8439,"Ġstanley":8440,"Ġintellect":8441,"Ġautonomous":8442,"olsonaro":8443,"case":8444,"zen":8445,"Ġpac":8446,"Ġeating":8447,"Ġnike":8448,"Ġislands":8449,"Ġtrick":8450,"eland":8451,"Ġmarketwatch":8452,"Ġreplic":8453,"2024":8454,"ocused":8455,"Ġdifficulties":8456,"Ġparticipating":8457,"Ġbooking":8458,"Ġshutdowns":8459,"Ġinterventions":8460,"Ġcaribbean":8461,"Ġhang":8462,"Ġmosc":8463,"Ġkne":8464,"Ġquiet":8465,"Ġambitious":8466,"Ġcontaining":8467,"Ġoffshore":8468,"20200":8469,"mann":8470,"Ġnonprofit":8471,"Ġherein":8472,"Ġterminal":8473,"Ġlatter":8474,"Ġ2007":8475,"Ġmilk":8476,"Ġspecialist":8477,"Ġachieving":8478,"Ġdivided":8479,"Ġintelligent":8480,"Ġsuspension":8481,"Ġmovies":8482,"businesswire":8483,"otherapy":8484,"Ġott":8485,"Ġfurn":8486,"Ġinability":8487,"Ġ''),":8488,"Ġmeals":8489,"Ġknock":8490,"Ġtraveling":8491,"Ġeliz":8492,"Ġ130":8493,"ika":8494,"Ġfailing":8495,"Ġexciting":8496,"Ġtelephone":8497,"Ġhorr":8498,"Ġalexander":8499,"Ġreputation":8500,"âĦ¢":8501,"Ġmoscow":8502,"foot":8503,"Ġfool":8504,"Ġnfl":8505,"omen":8506,"mented":8507,"Ġvit":8508,"Ġrush":8509,"Ġampl":8510,"Ġpandemics":8511,"gry":8512,"Ġgrab":8513,"Ġeverywhere":8514,"Ġrestrict":8515,"Ġrecommends":8516,"Ġfunctions":8517,"Ġdestroy":8518,"Ġisolated":8519,"contin":8520,"Ġproceedings":8521,"Ġunderstood":8522,"Ġaccompl":8523,"rian":8524,"Ġbolsonaro":8525,"Ġhua":8526,"uset":8527,"Ġforcing":8528,"ulative":8529,"Ġjackson":8530,"Ġbrus":8531,"Ġtwenty":8532,"Ġpublis":8533,"achuset":8534,"Ġdetained":8535,"phy":8536,"def":8537,"Ġtitled":8538,"Ġethnic":8539,"Ġconstantly":8540,"Ġrecruit":8541,"Ġmeiwa":8542,"achusetts":8543,"born":8544,"dam":8545,"dose":8546,"Ġtik":8547,"iner":8548,"Ġsed":8549,"roc":8550,"Ġlived":8551,"Ġgav":8552,"adel":8553,"ighter":8554,"Ġkl":8555,"ĠĠĠĠĠ":8556,"Ġvisa":8557,"Ġartists":8558,"inson":8559,"Ġmilan":8560,"Ġinvolves":8561,"Ġdisrupt":8562,"Ġrolled":8563,"Ġrecovering":8564,"Ġfeedback":8565,"Ġsyndicate":8566,"Ġpursue":8567,"91":8568,"dollar":8569,"Ġtheater":8570,"Ġdc":8571,"Ġnbc":8572,"Ġgaining":8573,"Ġpreced":8574,"Ġsyst":8575,"Ġpatrick":8576,"Ġplanes":8577,"Ġ125":8578,"Ġdefine":8579,"Ġmassachusetts":8580,"Ġresearcher":8581,"Ġbookings":8582,"Ġlandlord":8583,"Ġwriter":8584,"Ġchancellor":8585,"Ġventilation":8586,"Ġvolatile":8587,"Ġoverwhelmed":8588,"election":8589,"Ġerror":8590,"Ġarrangements":8591,"Ġfacilitate":8592,"Ġjewel":8593,"Ġgathered":8594,"Ġmatthew":8595,"cost":8596,"eg":8597,"hatt":8598,"Ġsom":8599,"Ġcv":8600,"Ġphen":8601,"Ġfost":8602,"Ġtoil":8603,"Ġhan":8604,"Ġrejected":8605,"etr":8606,"Ġrans":8607,"Ġjam":8608,"ocur":8609,"Ġads":8610,"Ġadap":8611,"Ġinteractions":8612,"inton":8613,"Ġdefend":8614,"Ġmemo":8615,"Ġsafer":8616,"Ġmiller":8617,"Ġarriving":8618,"Ġspokeswoman":8619,"Ġcriticized":8620,"Ġlicensed":8621,"Ġtroops":8622,"Ġstressed":8623,"Ġbelgium":8624,"Ġpending":8625,"ĠdÃ©":8626,"Ġnu":8627,"omes":8628,"lyn":8629,"Ġrio":8630,"Ġwhit":8631,"Ġbras":8632,"Ġtransf":8633,"Ġdesire":8634,"Ġchristian":8635,"Ġdemonstrate":8636,"Ġexceptional":8637,"Ġwindows":8638,"Ġproteins":8639,"Ġapartment":8640,"Ġstrengthening":8641,"Ġkelly":8642,"Ġsemiconductor":8643,"Ġsurgical":8644,"cur":8645,"focused":8646,"nia":8647,"town":8648,"ï¼":8649,"Ġsv":8650,"Ġsher":8651,"Ġcs":8652,"Ġinherent":8653,"Ġcomo":8654,"Ġrc":8655,"Ġranging":8656,"Ġpeer":8657,"oking":8658,"ergies":8659,"india":8660,"Ġgrades":8661,"Ġentre":8662,"Ġexecution":8663,"Ġsymptom":8664,"ooth":8665,"Ġinvestigate":8666,"Ġroads":8667,"Ġseparation":8668,"Ġconvent":8669,"Ġconvention":8670,"burgh":8671,"Ġrsquo":8672,"nrnr":8673,"Ġintervention":8674,"Ġvoluntary":8675,"Ġwholesale":8676,"82":8677,"cash":8678,"Ġfired":8679,"Ġnbs":8680,"mente":8681,"Ġamc":8682,"orship":8683,"Ġherd":8684,"Ġwarnings":8685,"Ġprotections":8686,"Ġheaded":8687,"Ġartist":8688,"Ġstepped":8689,"Ġslower":8690,"Ġqueen":8691,"Ġindicators":8692,"Ġ1995":8693,"Ġfootprint":8694,"Ġselection":8695,"Ġwebin":8696,"Ġdestr":8697,"Ġinspired":8698,"Ġmountain":8699,"Ġatmosp":8700,"chers":8701,"pan":8702,"Ã«":8703,"Ġwine":8704,"Ġfant":8705,"Ġandro":8706,"Ġlyn":8707,"Ġstag":8708,"Ġontar":8709,"irates":8710,"imo":8711,"Ġexplic":8712,"arel":8713,"Ġaccr":8714,"Ġpayable":8715,"Ġsocially":8716,"Ġwarren":8717,"Ġliver":8718,"Ġurging":8719,"Ġaddressed":8720,"Ġcommentaries":8721,"Ġthreatened":8722,"Ġnorway":8723,"ylum":8724,"Ġadaptive":8725,"Ġtriggered":8726,"Ġsuddenly":8727,"Ġcryptocur":8728,"Ġprosecutor":8729,"Ġintellectual":8730,"bul":8731,"ðŁ":8732,"Ġdim":8733,"Ġecho":8734,"Ġupper":8735,"Ġknowing":8736,"Ġhalted":8737,"Ġmultip":8738,"Ġseasonal":8739,"Ġambass":8740,"Ġetfs":8741,"Ġcontributor":8742,"Ġinflammation":8743,"Ġcontagious":8744,"Ġtaste":8745,".'":8746,"vals":8747,"Ġbuck":8748,"Ġmall":8749,"Ġtoug":8750,"Ġreward":8751,"Ġcoach":8752,"Ġconsists":8753,"Ġattending":8754,"Ġrefund":8755,"Ġlocked":8756,"Ġplacebo":8757,"Ġjane":8758,"Ġviewed":8759,"Ġstatistical":8760,"Ġfisher":8761,"Ġattributed":8762,"Ġcommunicate":8763,"Ġlibrary":8764,"Ġcalculations":8765,"Ġlungs":8766,"Ġibm":8767,"Ġfrequent":8768,"Ġgreek":8769,"Ġinequality":8770,"Ġdeterior":8771,"Ġwsj":8772,"Ġnbsp":8773,"pal":8774,"Ġhs":8775,"Ġgut":8776,"stone":8777,"Ġasylum":8778,"Ġjen":8779,"iful":8780,"umer":8781,"Ġdisabilities":8782,"forced":8783,"Ġstrains":8784,"Ġinterpret":8785,"Ġblame":8786,"Ġfamous":8787,"Ġpassing":8788,"Ġraises":8789,"hentic":8790,"Ġmigration":8791,"Ġcamera":8792,"Ġempowering":8793,"fast":8794,"may":8795,"Ġbac":8796,"Ġstyle":8797,"Ġvou":8798,"Ġ2026":8799,"anche":8800,"Ġdemograp":8801,"Ġsimpl":8802,"Ġadjustment":8803,"Ġwedding":8804,"Ġpointing":8805,"Ġwalking":8806,"Ø§Ø±":8807,"Ġspectrum":8808,"Ġempower":8809,"Ġrocket":8810,"worthy":8811,"Ġhuawei":8812,"lock":8813,"Ġbound":8814,"Ġng":8815,"Ġforget":8816,"step":8817,"ima":8818,"Ġweaker":8819,"ateful":8820,"Ġoutlets":8821,"Ġpermitted":8822,"Ġroutes":8823,"Ġinteractive":8824,"Ġpatent":8825,"Ġgraph":8826,"Ġcollections":8827,"Ġballots":8828,"abeth":8829,"Ġcontinuity":8830,"Ġoverwhelming":8831,"Ġprolonged":8832,"Ġtiktok":8833,"Ġsystemic":8834,"Ġontario":8835,"iel":8836,"Ġ~":8837,"analy":8838,"Ġgate":8839,"ethe":8840,"uls":8841,"ellow":8842,"Ġadam":8843,"Ġscene":8844,"Ġrises":8845,"Ġminute":8846,"comed":8847,"Ġparam":8848,"Ġcareful":8849,"Ġinfecting":8850,"Ġescape":8851,"Ġlegit":8852,"Ġmembership":8853,"Ġturns":8854,"Ġcelebrate":8855,"Ġclimb":8856,"Ġdependent":8857,"Ġdiagnostics":8858,"Ġfuels":8859,"Ġlawyers":8860,"Ġprevalence":8861,"larg":8862,"Ġsister":8863,"enia":8864,"anth":8865,"Ġmt":8866,"ĠmÃ¡s":8867,"isive":8868,"stock":8869,"opin":8870,"Ġchances":8871,"Ġleban":8872,"Ġshed":8873,"neapolis":8874,"Ġ105":8875,"Ġsalary":8876,"Ġzones":8877,"Ġtopic":8878,"Ġdeliber":8879,"Ġpolicymakers":8880,"Ġabsent":8881,"Ġobjective":8882,"Ġmechanism":8883,"Ġplunged":8884,"Ġgraphic":8885,"Ġcc":8886,"Ġwins":8887,"Ġdun":8888,"Ġnevada":8889,"ela":8890,"llers":8891,"Ġregime":8892,"Ġpattern":8893,"Ġapprovals":8894,"Ġelectr":8895,"Ġgeopol":8896,"Ġcontracting":8897,"after":8898,"Ġecb":8899,"Ġlaunching":8900,"Ġwelcomed":8901,"Ġicu":8902,"Ġfields":8903,"Ġpromotions":8904,"Ġsanders":8905,"Ġdreams":8906,"sten":8907,"irt":8908,"Ġring":8909,"Ġchips":8910,"Ġdisorder":8911,"Ġperu":8912,"Ġbacklog":8913,"Ġguy":8914,"Ġdirected":8915,"Ġextending":8916,"Ġcalc":8917,"Ġtrem":8918,"Ġcaf":8919,"Ġinnovations":8920,"value":8921,"Ġvertical":8922,"Ġcontainment":8923,"Ġmisleading":8924,"Ġsubstit":8925,"Ġcanadians":8926,"Ġseattle":8927,"Ġpromoting":8928,"Ġskept":8929,"fire":8930,"rix":8931,"Ġtm":8932,"orp":8933,"Ġinquir":8934,"Ġanc":8935,"Ġdent":8936,"Ġhaz":8937,"eted":8938,"uting":8939,"âĢĻ,":8940,"Ġseam":8941,"Ġlev":8942,"ipt":8943,"Ġages":8944,"Ġwhereas":8945,"Ġchen":8946,"Ġsuic":8947,"vereign":8948,"Ġconnections":8949,"Ġamazing":8950,"Ġcookie":8951,"Ġkitchen":8952,"Ġshaping":8953,"Ġwarrant":8954,"Ġpneumonia":8955,"biontech":8956,"ãĤ":8957,"ĠÎ":8958,"Ġsr":8959,"only":8960,"arity":8961,"Ġtoler":8962,"Ġnative":8963,"Ġger":8964,"unction":8965,"Ġminneapolis":8966,"Ġreluct":8967,"Ġentr":8968,"Ġimpacting":8969,"Ġcarl":8970,"Ġvaluations":8971,"Ġsolic":8972,"Ġwarns":8973,"Ġspeaker":8974,"shot":8975,"sche":8976,"Ġpersonalized":8977,"Ġconstruct":8978,"Ġreveals":8979,"Ġalternatives":8980,"Ġtasks":8981,"Ġindoors":8982,"Ġpieces":8983,"Ġappointment":8984,"Ġjpmorgan":8985,"%).":8986,"del":8987,"drop":8988,"Ġiron":8989,"Ġbh":8990,"Ġmn":8991,"Ġdrew":8992,"Ġandre":8993,"Ġhu":8994,"Ġchosen":8995,"Ġspin":8996,"ansas":8997,"Ġpride":8998,"Ġperpet":8999,"Ġroche":9000,"Ġscand":9001,"olds":9002,"Ġinteract":9003,"Ġequally":9004,"Ġsouthwest":9005,"Ġscientist":9006,"Ġphysician":9007,"paid":9008,"Ġdescribe":9009,"ambling":9010,"Ġevolve":9011,"Ġvoices":9012,"Ġadvertise":9013,"Ġreforms":9014,"Ġbirthday":9015,"Ġvessels":9016,"Ġdavis":9017,"Ġtournament":9018,"lan":9019,"Ġtrop":9020,"Ġpup":9021,"Ġbever":9022,"Ġchick":9023,"Ġsovereign":9024,"Ġimportantly":9025,"Ġtracker":9026,"Ġtelehealth":9027,"Ġcardi":9028,"Ġprecise":9029,"iami":9030,"Ġnomine":9031,"Ġcontributing":9032,"Ġtraject":9033,"Ġprosecutors":9034,"Ġdesperately":9035,"Ġransom":9036,"oil":9037,"table":9038,"Ø¬":9039,"ĠÙĬ":9040,"Ġpound":9041,"aning":9042,"Ġrum":9043,"Ġabuses":9044,"Ġarbit":9045,"Ġpoised":9046,"Ġdesk":9047,"Ġauthentic":9048,"Ġflip":9049,"Ġdistingu":9050,"lessly":9051,"Ġamounted":9052,"Ġcontinuously":9053,"ĠÙħÙĨ":9054,"Ġincentives":9055,"Ġanalyzed":9056,"Ġtransplantation":9057,"Ġchamber":9058,"Ġenormous":9059,"dog":9060,"mod":9061,"Ġaqu":9062,"inn":9063,"Ġcer":9064,"Ġcure":9065,"Ġinoc":9066,"Ġmiami":9067,"Ġnick":9068,"Ġformed":9069,"thirds":9070,"osures":9071,"Ġleases":9072,"Ġsobre":9073,"Ġcommand":9074,"Ġscan":9075,"Ġremed":9076,"Ġdeserve":9077,"Ġenthus":9078,"iversary":9079,"Ġdemanding":9080,"Ã©r":9081,"Ġcompeting":9082,"Ġguided":9083,"check":9084,"Ġpicking":9085,"Ġreveal":9086,"Ġpictures":9087,"Ġcrowded":9088,"Ġappointed":9089,"Ġscottish":9090,"Ġtransparent":9091,"Ġkilomet":9092,"depth":9093,"Ġimpressive":9094,"Ġunchanged":9095,"largest":9096,"dist":9097,"hum":9098,"Ø¶":9099,"Ġmanc":9100,"Ġreiter":9101,"olly":9102,"Ġconce":9103,"Ġtracks":9104,"Ġunw":9105,"akh":9106,"Ġdispar":9107,"Ġcluster":9108,"Ġapparel":9109,"Ġunderwr":9110,"Ġcapable":9111,"ropol":9112,"Ġcurfe":9113,"Ġforesee":9114,"Ġrecept":9115,"Ġdistress":9116,"Ġ2003":9117,"Ġaiming":9118,"Ġpopularity":9119,"Ġmalays":9120,"Ġwaters":9121,"Ġquantitative":9122,"Ġguarantees":9123,"Ġcautioned":9124,"Ġenabled":9125,"Ġclarity":9126,"donald":9127,"Ġfranchise":9128,"Ġlifestyle":9129,"gre":9130,"mobile":9131,"Ġfilled":9132,"isse":9133,"rous":9134,"Ġjin":9135,"osi":9136,"oshi":9137,"aped":9138,"acked":9139,"Ġembed":9140,"nered":9141,"Ġcolon":9142,"aza":9143,"Ġbrows":9144,"Ġprosper":9145,"Ġmexican":9146,"riage":9147,"Ġweighted":9148,"Ġclothing":9149,"Ġexperimental":9150,"Ġintroduce":9151,"Ġstretch":9152,"Ġug":9153,"Ġcad":9154,"Ġbip":9155,"Ġml":9156,"Ġreverse":9157,"Ġva":9158,"ami":9159,"reshold":9160,"Ġincurred":9161,"Ġclock":9162,"ensions":9163,"Ġoperated":9164,"Ġgrateful":9165,"Ġaccessibility":9166,"Ġheadlines":9167,"Ġbaseline":9168,"Ġlikes":9169,"Ġindicator":9170,"Ġutility":9171,"Ġcitizen":9172,"Ġenjoying":9173,"Ġventilator":9174,"Ġincredible":9175,"igenous":9176,"Ġlgbt":9177,"Ġscrutiny":9178,"core":9179,"dra":9180,"jp":9181,"Ġwet":9182,"Ġdna":9183,"Ġwelf":9184,"Ġrmb":9185,"emia":9186,"Ġmarried":9187,"Ġiot":9188,"Ġaccident":9189,"Ġanniversary":9190,"Ġexploring":9191,"Ġintegrate":9192,"Ġadvisers":9193,"Ġmurphy":9194,"Ġdrawing":9195,"Ġsatisfaction":9196,"Ġinstructions":9197,"Ġunveiled":9198,"Ġdrove":9199,"Ġelizabeth":9200,"Ġtremend":9201,"Ġwelfare":9202,"growing":9203,"page":9204,"inter":9205,"itan":9206,"Ġinr":9207,"Ġmi":9208,"Ġthreshold":9209,"Ġgiants":9210,"Ġcomed":9211,"Ġabe":9212,"Ġleaves":9213,"ailing":9214,"Ġwinners":9215,"Ġbreach":9216,"swire":9217,"Ġgreenhouse":9218,"Ġjean":9219,"Ġpickup":9220,"Ġtenants":9221,"Ġtraditionally":9222,"Ġfluid":9223,"Ġreplay":9224,"Ġagricultural":9225,"Ġproperly":9226,"Ġultra":9227,"commun":9228,"Ġjoseph":9229,"uits":9230,"inf":9231,"rell":9232,"Ġoc":9233,"Ġward":9234,"alin":9235,"Ġhid":9236,"Ġthor":9237,"olic":9238,"Ġrhe":9239,"Ġjord":9240,"Ġquart":9241,"Ġscores":9242,"Ġacts":9243,"Ġrelation":9244,"Ġwellness":9245,"Ġsmell":9246,"Ġentit":9247,"Ġdepr":9248,"Ġcheaper":9249,"Ġdiscretion":9250,"Ġregulator":9251,"Ġwoods":9252,"Ġpeloton":9253,"Ġimmigrants":9254,"Ġchampionship":9255,"Ġinflammatory":9256,"Ġbeliefs":9257,"controlled":9258,"Ġresumed":9259,"Ġsparked":9260,"Ġinsurers":9261,"Ġcatalyst":9262,"Ġpakistan":9263,"Ġnigeria":9264,"Ġambassador":9265,"card":9266,"law":9267,"Ġpad":9268,"Ġshad":9269,"Ġcompare":9270,"Ġbloc":9271,"Ġprofiles":9272,"Ġaccessing":9273,"Ġvisited":9274,"Ġsugar":9275,"Ġemails":9276,"Ġindicating":9277,"Ġencoun":9278,"Ġsooner":9279,"Ġcolleges":9280,"Ġsmartphone":9281,"Ġchristop":9282,"Ġjudg":9283,"Ġmutual":9284,"consin":9285,"Ġdubai":9286,"Ġgarden":9287,"Ġvigil":9288,"Ġkentucky":9289,"hattan":9290,"pin":9291,"uated":9292,"Ġpione":9293,"Ġinmates":9294,"Ġ900":9295,"Ġdepth":9296,"aware":9297,"Ġorganizers":9298,"Ġindexes":9299,"inois":9300,"Ġrecommendation":9301,"Ġsettled":9302,"Ġexamine":9303,"Ġpermanently":9304,"friend":9305,"lon":9306,"arr":9307,"Ġdive":9308,"oto":9309,"uda":9310,"agon":9311,"Ġpartial":9312,"Ġmanhattan":9313,"Ġpolling":9314,"Ġtechniques":9315,"Ġdeclaration":9316,"Ġconnectivity":9317,"Ġforeigners":9318,"Ġrebounded":9319,"Ġappointments":9320,"Ġchaos":9321,"Ġrallied":9322,"Ġweapons":9323,"ea":9324,"Ġty":9325,"icon":9326,"iments":9327,"Ġyang":9328,"tering":9329,"Ġcounts":9330,"Ġassurance":9331,"Ġwars":9332,"Ġhospitalization":9333,"Ġmatches":9334,"Ġclaiming":9335,"Ġprogressive":9336,"Ġseparately":9337,"Ġpredictions":9338,"performing":9339,"Ġsweet":9340,"demand":9341,"Ġbarbara":9342,"Ġperceived":9343,"Ġtrajectory":9344,"Ġcath":9345,"itud":9346,"Ġmamm":9347,"Ġhug":9348,"Ġ'').":9349,"Ġaccus":9350,"Ġassault":9351,"Ġlau":9352,"Ġdonors":9353,"Ġtimeline":9354,"Ġcourts":9355,"Ġdenmark":9356,"Ġacceptance":9357,"Ġdestinations":9358,"Ġaccurately":9359,"Ġmadrid":9360,"Ġresorts":9361,"Ġsorry":9362,"inting":9363,"Ġosc":9364,"Ġmines":9365,"Ġdans":9366,"Ġist":9367,"Ġyellow":9368,"Ġjess":9369,"Ġjab":9370,"Ġsaved":9371,"Ġabr":9372,"Ġbutton":9373,"Ġimpe":9374,"Ġcoronaviruses":9375,"Ġpoland":9376,"Ġcapability":9377,"Ġpassion":9378,"nesota":9379,"Ġsla":9380,"Ġagreeing":9381,"Ġcollectively":9382,"general":9383,"Ġrobin":9384,"Ġargument":9385,"Ġsuspend":9386,"Ġebola":9387,"europe":9388,"Ġcancellation":9389,"Ġbounce":9390,"Ġcontaminated":9391,"cut":9392,"four":9393,"oh":9394,"vo":9395,"zone":9396,"Ġtam":9397,"Ġsid":9398,"Ġfargo":9399,"Ġliv":9400,"eto":9401,"ether":9402,"Ġonc":9403,"ationally":9404,"Ġopens":9405,"Ġscar":9406,"Ġearning":9407,"ella":9408,"Ġreporter":9409,"Ġnewsom":9410,"Ġnewswire":9411,"Ġemployed":9412,"Ġpropri":9413,"Ġ160":9414,"Ġcontraction":9415,"Ġgolden":9416,"Ġharass":9417,"Ġconsultant":9418,"Ġlawsuit":9419,"Ġresolve":9420,"Ġballot":9421,"Ġatlantic":9422,"Ġwisconsin":9423,"rate":9424,"Ġfake":9425,"rock":9426,"Ġhr":9427,"Ġlapt":9428,"Ġvout":9429,"Ġalber":9430,"Ġmos":9431,"aine":9432,"Ġkh":9433,"Ġups":9434,"Ġsoaring":9435,"Ġcasual":9436,"Ġminnesota":9437,"Ġrelatives":9438,"Ġsignals":9439,"Ġentity":9440,"Ġwarming":9441,"theless":9442,"ova":9443,"Ġprivile":9444,"Ġmichel":9445,"Ġwalked":9446,"Ġquarantined":9447,"Ġultimate":9448,"Ġcontroversial":9449,"Ġleveraging":9450,"Ġmounting":9451,"Ġgeopolitical":9452,"bucks":9453,"Ġaven":9454,"Ġpages":9455,"Ġdall":9456,"roup":9457,"igo":9458,"think":9459,"Ġchase":9460,"Ġcomputers":9461,"Ġintangible":9462,"Ġtherein":9463,"Ġconsent":9464,"Ġwarm":9465,"Ġfarms":9466,"Ġexecute":9467,"Ġdropping":9468,"Ġtelegram":9469,"Ġappearance":9470,"Ġassessed":9471,"Ġblocked":9472,"Ġdestination":9473,"Ġillnesses":9474,"Ġcrore":9475,"Ġsubsequently":9476,"Ġsporting":9477,"Ġconvenience":9478,"digit":9479,"Ġeliminate":9480,"linker":9481,"interest":9482,"sed":9483,"sapp":9484,"Ġtab":9485,"Ġsamp":9486,"Ġcart":9487,"atar":9488,"arus":9489,"Ġrena":9490,"Ġnsw":9491,"vey":9492,"ighed":9493,"Ġrt":9494,"Ġinvited":9495,"Ġcrunch":9496,"anger":9497,"Ġlasting":9498,"Ġcurtail":9499,"Ġgrid":9500,"Ġsoccer":9501,"Ġgoodwill":9502,"places":9503,"Ġportug":9504,"Ġdistribute":9505,"Ġgenerations":9506,"Ġdistinct":9507,"Ġbiopharm":9508,"Ġqueens":9509,"product":9510,"Ġnevertheless":9511,"Ġboosting":9512,"Ġconsiderable":9513,"Ġmobil":9514,"Ġinvestigating":9515,"Ġengineers":9516,"Ġdominant":9517,"Ġefficiently":9518,"Ġadvocates":9519,"Ġprincess":9520,"Ġrobotics":9521,"Ġbengaluru":9522,"bec":9523,"ãĢ":9524,"orous":9525,"Ġbanc":9526,"Ġbacter":9527,"Ġdict":9528,"Ġtouc":9529,"Ġgp":9530,"trans":9531,"ustin":9532,"ista":9533,"Ġ350":9534,"Ġ09":9535,"Ġsuscept":9536,"Ġepicent":9537,"Ġautomatically":9538,"Ġvulnerability":9539,"Ġchecking":9540,"Ġvpn":9541,"winning":9542,"Ġhawai":9543,"Ġsurgery":9544,"Ġjewelry":9545,"Ġtoilet":9546,"Ġmanchester":9547,"bear":9548,"Ġcumm":9549,"Ġlind":9550,"imadas":9551,"chi":9552,"Ġcogn":9553,"Ġkam":9554,"Ġemirates":9555,"Ġros":9556,"Ġbrid":9557,"encia":9558,"Ġherself":9559,"Ġairways":9560,"Ġconfusion":9561,"Ġelectoral":9562,"Ġemergence":9563,"phones":9564,"Ġannouncements":9565,"Ġmotors":9566,"Ġblockchain":9567,"Ġreplaced":9568,"Ġiph":9569,"Ġincentive":9570,"Ġdisclaimer":9571,"Ġremarkable":9572,"Ġphenomen":9573,"dec":9574,"giving":9575,"je":9576,"sup":9577,"tim":9578,"washing":9579,"Ð»":9580,"ener":9581,"Ġpess":9582,"Ġpitch":9583,"Ġreferen":9584,"Ġnerv":9585,"Ġbeating":9586,"acional":9587,"Ġreserv":9588,"Ġprisons":9589,"Ġinters":9590,"Ġindigenous":9591,"Ġinvasion":9592,"Ġstrip":9593,"Ġdecent":9594,"Ġfinancially":9595,"Ġbelong":9596,"Ġtotaled":9597,"Ġgenerating":9598,"Ġconstraints":9599,"Ġconducting":9600,"Ġspotlight":9601,"Ġcolorado":9602,"Ġcorrespondent":9603,"Ġbnt":9604,"Ġtotally":9605,"Ġoversight":9606,"Ġmorrison":9607,"Ġabortion":9608,"Ġadolesc":9609,"dos":9610,"gering":9611,"mine":9612,"Ġbold":9613,"Ġmalls":9614,"Ġmapping":9615,"Ġlunch":9616,"urally":9617,"ulations":9618,"Ġtrucks":9619,"Ġquito":9620,"Ġdisorders":9621,"Ġappet":9622,"Ġconspir":9623,"Ġwhatsapp":9624,"Ġincremental":9625,"Ġsalaries":9626,"Ã©e":9627,"Ġbenefited":9628,"raid":9629,"Ġindication":9630,"162":9631,"Ġunemployed":9632,"Ġconsolidation":9633,"Ġassuming":9634,"Ġexcludes":9635,"Ġberkshire":9636,"Ġmemorial":9637,"Ġconvertible":9638,"Ġrebuild":9639,"Ġbrussels":9640,"Ġcummings":9641,"ao":9642,"eds":9643,"Ġdave":9644,"Ġrelying":9645,"gel":9646,"vide":9647,"Ġcrimes":9648,"ultane":9649,"Ġrelies":9650,"Ġ106":9651,"ospace":9652,"Ġapprove":9653,"Ġmeters":9654,"Ġpersonally":9655,"struct":9656,"Ġslack":9657,"Ġvariable":9658,"who":9659,"Ġutilities":9660,"Ġpenetr":9661,"Ġdemonstrators":9662,"Ġconcert":9663,"Ġfortune":9664,"Ġmechanisms":9665,"Ġbehaviors":9666,"Ġexceeded":9667,"Ġveteran":9668,"Ġuptick":9669,"Ġaccompany":9670,"cf":9671,"data":9672,"nan":9673,"tes":9674,"äº":9675,"Ġmul":9676,"Ġanger":9677,"isc":9678,"Ġreactions":9679,"Ġgang":9680,"Ġunrest":9681,"Ġmarsh":9682,"Ġmarriage":9683,"avor":9684,"Ġspots":9685,"Ġcorn":9686,"Ġcraz":9687,"Ġbetting":9688,"Ġsubur":9689,"cover":9690,"Ġadvancing":9691,"Ġsenators":9692,"Ġsimultane":9693,"Ġfederation":9694,"Ġstead":9695,"Ġcollaps":9696,"follow":9697,"Ġhopeful":9698,"Ġwinds":9699,"author":9700,"Ġfatalities":9701,"Ġsolidarity":9702,"Ġsweeping":9703,"Ġthrive":9704,"Ġtsx":9705,"Ġegypt":9706,"patient":9707,"Ġliterally":9708,"Ġmolecular":9709,"Ġandroid":9710,"bes":9711,"rit":9712,"Ġ:":9713,"Ġace":9714,"Ġwo":9715,"iture":9716,"Ġhots":9717,"Ġlig":9718,"Ġnich":9719,"iration":9720,"Ġquot":9721,"Ġcork":9722,"ecd":9723,"Ġconsc":9724,"achment":9725,"Ġ750":9726,"Ġbob":9727,"Ġsmes":9728,"Ġfactset":9729,"ÙĦÙī":9730,"Ġfeaturing":9731,"Ġdamaged":9732,"borne":9733,"Ġfueled":9734,"Ġwealthy":9735,"Ġpeaceful":9736,"Ġpsychological":9737,"Ġbeautiful":9738,"ascular":9739,"Ġapparently":9740,"Ġwithdrawal":9741,"winds":9742,"Ġsarah":9743,"Ġbipart":9744,"cles":9745,"high":9746,"ji":9747,"Ġtie":9748,"Ġfred":9749,"omer":9750,"sters":9751,"igating":9752,"Ġprox":9753,"Ġplumm":9754,"Ġupward":9755,"Ġafraid":9756,"Ġassigned":9757,"Ġtransit":9758,"Ġguys":9759,"airy":9760,"Ġantigen":9761,"Ġlocally":9762,"aham":9763,"Ġbarron":9764,"justed":9765,"Ġmuslim":9766,"Ġexplan":9767,"Ġideal":9768,"Ġquestioned":9769,"Ġstarbucks":9770,"Ġconversion":9771,"Ġawarded":9772,"Ġcertified":9773,"Ġmilestone":9774,"92":9775,"eed":9776,"Øµ":9777,"Ġtumb":9778,"Ġauf":9779,"eding":9780,"Ġlar":9781,"Ġbeer":9782,"Ġchs":9783,"Ġchose":9784,"Ġcompiled":9785,"Ġrecall":9786,"Ġsystematic":9787,"Ġbeneficial":9788,"Ġslam":9789,"Ġdealers":9790,"Ġpromises":9791,"Ġillinois":9792,"Ġtracked":9793,"Ġstruggles":9794,"Ġcoverings":9795,"Ġattendance":9796,"eva":9797,"Ġtherapeutic":9798,"Ã¼r":9799,"Ġrefugees":9800,"Ġproprietary":9801,"kers":9802,"large":9803,"uke":9804,"uant":9805,"zh":9806,"Ġtent":9807,"edited":9808,"Ġhate":9809,"Ġhud":9810,"eter":9811,"sement":9812,"avax":9813,"Ġbron":9814,"Ġrestore":9815,"Ġfundra":9816,"Ġparking":9817,"Ġfolks":9818,"Ġmetropol":9819,"iencies":9820,"Ġboards":9821,"Ġequipped":9822,"Ġturkish":9823,"points":9824,"Ġachievements":9825,"Ġprocedure":9826,"Ġinvolvement":9827,"flows":9828,"Ġdesperate":9829,"Ġmerchand":9830,"Ġchatbot":9831,"Ġjerome":9832,"Ġaccumulated":9833,"Ġrecycl":9834,"Ġbeverages":9835,"Ġchristopher":9836,"Ġhotsp":9837,"gar":9838,"rete":9839,"Ġct":9840,"Ġfires":9841,"ali":9842,"Ġans":9843,"Ġdor":9844,"Ġgolf":9845,"anded":9846,"Ġtrace":9847,"Ġcounsel":9848,"Ġinterior":9849,"liest":9850,"Ġdatas":9851,"Ġdeveloper":9852,"Ġforemost":9853,"Ġengaging":9854,"Ġcontrolling":9855,"Ġhumanity":9856,"Ġvisible":9857,"Ġclinics":9858,"Ġassessing":9859,"Ġhosting":9860,"Ġrepeat":9861,"Ġpursuant":9862,"Ġcrown":9863,"Ġvacation":9864,"Ġsupplemental":9865,"Ġarrangement":9866,"Ġlucrative":9867,"Ġshooting":9868,"Ġcompromise":9869,"Ġinjection":9870,"Ġloyalty":9871,"Ġconventional":9872,"ĠÎ¼":9873,"Ġlgbtq":9874,"Ġjordan":9875,"lims":9876,"york":9877,"rect":9878,"Ġsizes":9879,"Ġowing":9880,"Ġdump":9881,"Ġlists":9882,"Ġniss":9883,"Ġdisability":9884,"Ġdonate":9885,"Ġguest":9886,"Ġcommunist":9887,"ĠĠĠĠĠĠ":9888,"Ø§ÙĨ":9889,"Ġdifferently":9890,"Ġcalm":9891,"Ġslipped":9892,"Ġmidst":9893,"Ġspeaks":9894,"Ġvariations":9895,"Ġdesigners":9896,"Ġsixth":9897,"Ġprepar":9898,"Ġdoug":9899,"Ġclassroom":9900,"Ġtelecom":9901,"Ġcomplaint":9902,"Ġnarrative":9903,"Ġchemicals":9904,"Ġalbum":9905,"Ġsacr":9906,"Ġfluctuations":9907,"Ġmalaysia":9908,"900":9909,"blo":9910,"bted":9911,"fts":9912,"fold":9913,"gold":9914,"lad":9915,"vol":9916,"Ø®":9917,"Ġtone":9918,"Ġaides":9919,"requ":9920,"Ġcant":9921,"iti":9922,"itiv":9923,"Ġmps":9924,"eded":9925,"alia":9926,"Ġdup":9927,"Ġhired":9928,"aska":9929,"Ġcohen":9930,"Ġorth":9931,"Ġcompass":9932,"astics":9933,"Ġrot":9934,"Ġcounting":9935,"Ġassert":9936,"Ġcarn":9937,"Ġinternationally":9938,"Ġbelarus":9939,"ovic":9940,"Ġprocessed":9941,"Ġ170":9942,"Ġrevise":9943,"udeau":9944,"Ġpharmacy":9945,"Ġminimize":9946,"Ġgraduate":9947,"Ġurgency":9948,"Ġbiotechnology":9949,"Ġpelosi":9950,"Ġpublishing":9951,"Ġdisasters":9952,"Ġdefeat":9953,"Ġcalculation":9954,"Ġtremendous":9955,"Ġnervous":9956,"found":9957,"list":9958,"Ġvel":9959,"Ġpc":9960,"Ġpays":9961,"Ġbath":9962,"Ġhog":9963,"Ġlens":9964,"Ġnr":9965,"illa":9966,"Ġvin":9967,"Ġry":9968,"Ġalive":9969,"ibaba":9970,"Ġpriced":9971,"Ġdisag":9972,"under":9973,"Ġrecurring":9974,"Ġsci":9975,"Ġanyway":9976,"Ġreminder":9977,"Ġdonation":9978,"Ġimported":9979,"Ġtravellers":9980,"Ġmetres":9981,"Ġregulated":9982,"Ġmedication":9983,"security":9984,"Ġscreens":9985,"Ġcollaborative":9986,"amento":9987,"Ġminimal":9988,"Ġsunak":9989,"Ġcomplaints":9990,"Ġcontinuous":9991,"Ġwidth":9992,"Ġrecipients":9993,"Ġmckin":9994,"Ġdallas":9995,"gian":9996,"summ":9997,"Ø·":9998,"Ġ000":9999,"erved":10000,"Ġpaus":10001,"Ġfert":10002,"Ġbarg":10003,"Ġhuff":10004,"Ġreject":10005,"Ġlam":10006,"idade":10007,"Ġdeleg":10008,"Ġru":10009,"Ġsean":10010,"Ġsemi":10011,"upta":10012,"ulty":10013,"Ġproductive":10014,"Ġmini":10015,"erman":10016,"Ġsupportive":10017,"Ġveget":10018,"Ġrecording":10019,"Ġviewers":10020,"Ġbiological":10021,"Ġoccasion":10022,"Ġtourist":10023,"Ġanticipates":10024,"Ġsuperior":10025,"Ġsubsidies":10026,"Ġinjured":10027,"Ġembass":10028,"Ġhence":10029,"Ġsummar":10030,"Ġembrace":10031,"Ġeager":10032,"Ġinevitable":10033,"Ġterritories":10034,"ï¼Į":10035,"Ġbipartisan":10036,"auc":10037,"uity":10038,"var":10039,"Ġsight":10040,"ashes":10041,"oug":10042,"advant":10043,"cha":10044,"Ġasc":10045,"sea":10046,"acles":10047,"Ġmood":10048,"Ġsab":10049,"Ġdrink":10050,"Ġstudying":10051,"neys":10052,"Ġ107":10053,"Ġbacking":10054,"Ġeveryday":10055,"Ġairbus":10056,"Ġlegend":10057,"Ġrepresentation":10058,"Ġqueimadas":10059,"Ġannualized":10060,"Ġbooked":10061,"Ġarguing":10062,"Ġstark":10063,"Ġburning":10064,"Ġsilicon":10065,"Ġsquad":10066,"Ġcomplexity":10067,"Ġerrors":10068,"company":10069,"Ġpulmon":10070,"Ġmagnitude":10071,"first":10072,"Ġgavin":10073,"Ġlandlords":10074,"aa":10075,"Ġbans":10076,"Ġdairy":10077,"icted":10078,"omin":10079,"leans":10080,"aco":10081,"Ġmoody":10082,"Ġjr":10083,"Ġtriple":10084,"Ġorleans":10085,"Ġkur":10086,"Ġretired":10087,"Ġkeen":10088,"Ġformula":10089,"Ġheadline":10090,"aires":10091,"develop":10092,"Ġruled":10093,"Ġaffects":10094,"Ġlegislative":10095,"Ġambul":10096,"Ġpodcasts":10097,"Ġlayoffs":10098,"Ġwitnessed":10099,"connell":10100,"Ġsophistic":10101,"Ġunnecess":10102,"Ġlebanon":10103,"94":10104,"mt":10105,"ram":10106,"Ġtiny":10107,"Ġcater":10108,"Ġdress":10109,"stit":10110,"illo":10111,"Ġalibaba":10112,"Ġseasons":10113,"ocal":10114,"Ġadmission":10115,"Ġmars":10116,"iao":10117,"Ġbusinesswire":10118,"Ġphr":10119,"Ġeffiss":10120,"Ġtransmiss":10121,"Ġdonated":10122,"media":10123,"Ġforever":10124,"Ġbankers":10125,"Ġexpectancy":10126,"Ġperformances":10127,"Ġgenerates":10128,"101":10129,"Ġdesignated":10130,"Ġnorthwest":10131,"Ġpositioning":10132,"Ġbaseball":10133,"Ġ365":10134,"Ġbadly":10135,"Ġcelebrity":10136,"Ġregistering":10137,"controlling":10138,"Ġheightened":10139,"Ġdinner":10140,"Ġcertificate":10141,"Ġliberty":10142,"Ġsurvivors":10143,"Ġeffissimo":10144,"rie":10145,"ä»":10146,"Ġsbs":10147,"Ġpag":10148,"Ġdol":10149,"Ġhi":10150,"Ġlith":10151,"Ġgon":10152,"Ġdeut":10153,"Ġuncom":10154,"endo":10155,"Ġker":10156,"ogether":10157,"Ġcricket":10158,"Ġsmooth":10159,"Ġparalle":10160,"Ġanton":10161,"Ġexpectation":10162,"Ġchel":10163,"ometer":10164,"newyork":10165,"Ġ2005":10166,"Ġclassic":10167,"Ġconnecting":10168,"Ġterrible":10169,"Ġgrounds":10170,"Ġdiego":10171,"Ġgauge":10172,"Ġdefinitive":10173,"Ġattempting":10174,"Ġberlin":10175,"Ġthrombocy":10176,"Ġneurolog":10177,"Ġransomware":10178,"newyorker":10179,"bound":10180,"dd":10181,"gt":10182,"vac":10183,"Ġtp":10184,"Ġsie":10185,"Ġcul":10186,"Ġanne":10187,"arth":10188,"asy":10189,"Ġgpt":10190,"Ġalter":10191,"Ġsear":10192,"ection":10193,"Ġunav":10194,"Ġshah":10195,"trump":10196,"ancies":10197,"Ġross":10198,"Ġapplying":10199,"Ġbranch":10200,"Ġunderperform":10201,"Ġretention":10202,"2026":10203,"Ġzinc":10204,"Ġinsisted":10205,"Ġseconds":10206,"Ġremainder":10207,"Ġmetro":10208,"Ġprogrammes":10209,"Ġsignificance":10210,"Ġstaffing":10211,"Ġaustria":10212,"Ġ2001":10213,"Ġ2006":10214,"Ġharry":10215,"Ġmillenn":10216,"ĠamazÃ´":10217,"Ġmitigation":10218,"Ġlimitation":10219,"Ġradical":10220,"Ġenhancing":10221,"Ġdipped":10222,"Ġtightening":10223,"Ġgeography":10224,"informed":10225,"Ġmechanical":10226,"Ġcoca":10227,"ĠÎ¼g":10228,"Ðº":10229,"Ġbump":10230,"Ġjes":10231,"ighth":10232,"Ġcorruption":10233,"Ġteach":10234,"sored":10235,"Ġoverl":10236,"Ġanybody":10237,"Ġsheets":10238,"Ġbets":10239,"Ġrepair":10240,"iov":10241,"Ġadvent":10242,"Ġtopped":10243,"Ġelite":10244,"Ġsuitable":10245,"Ġavoiding":10246,"Ġaids":10247,"Ġcatal":10248,"Ġderiv":10249,"Ġfragile":10250,"school":10251,"Ġislamic":10252,"Ġbarely":10253,"Ġubs":10254,"Ġcort":10255,"Ġdimin":10256,"rob":10257,"âĢĻ.":10258,"Ġali":10259,"Ġmoon":10260,"Ġoral":10261,"Ġabc":10262,"Ġdisadvant":10263,"Ġgoverning":10264,"Ġcaps":10265,"Ġposed":10266,"Ġreloc":10267,"Ġ104":10268,"beit":10269,"ĠÂ»":10270,"Ġmoral":10271,"Ġdeparture":10272,"Ġfailures":10273,"Ġsubscribers":10274,"Ġdivest":10275,"Ġprospective":10276,"Ġisolate":10277,"Ġgradual":10278,"breaking":10279,"Ġstanford":10280,"Ġfulfill":10281,"Ġconstitutional":10282,"Ġbangl":10283,"Ġlicensing":10284,"adelph":10285,"Ġjinping":10286,"mus":10287,"size":10288,"uous":10289,"Ã¢":10290,"heit":10291,"Ġot":10292,"Ġinn":10293,"Ġinaug":10294,"aron":10295,"Ġdal":10296,"Ġlady":10297,"Ġnv":10298,"stop":10299,"owa":10300,"Ġrav":10301,"Ġjason":10302,"ifer":10303,"Ġtrudeau":10304,"Ġwheel":10305,"lick":10306,"Ġmanif":10307,"Ġbackdrop":10308,"Ġinstalled":10309,"Ġcostume":10310,"Ġconfined":10311,"Ġorganized":10312,"Ġcleared":10313,"Ġallowance":10314,"Ġstrongest":10315,"Ġgreatly":10316,"Ġthoughts":10317,"Ġordering":10318,"Ġcommonly":10319,"Ġarray":10320,"Ġcritically":10321,"Ġaudiences":10322,"Ġwalls":10323,"lson":10324,"haul":10325,"Ġmcconnell":10326,"Ġradi":10327,"Ġrarely":10328,"Ġsequencing":10329,"Ġdisposal":10330,"Ġaerospace":10331,"ogenic":10332,"Ġvaccinate":10333,"Ġentitled":10334,"Ġnissan":10335,"iors":10336,"zing":10337,"ÂĢ":10338,"æľ":10339,"rele":10340,"Ġbomb":10341,"Ġein":10342,"Ġgay":10343,"Ġconj":10344,"Ġ2050":10345,"Ġincumb":10346,"Ġresh":10347,"usters":10348,"Ġoppon":10349,"anches":10350,"Ġroot":10351,"wegian":10352,"Ġchildhood":10353,"Ġcondem":10354,"Ġreduces":10355,"newswire":10356,"Ġbalanced":10357,"Ġdetermination":10358,"chell":10359,"Ġinfluential":10360,"Ġconsultation":10361,"Ġrounds":10362,"Ġukrainian":10363,"ĠØ§ÙĦØ£":10364,"Ġswedish":10365,"Ġkenya":10366,"Ġexpenditure":10367,"Ġprioritize":10368,"Ġmistake":10369,"Ġconclusion":10370,"Ġsupermarkets":10371,"Ġvenezuela":10372,"Ġcameras":10373,"Ġottawa":10374,"communic":10375,"Ġappetite":10376,"Ġthrombocytop":10377,"adelphia":10378,"ÂĢÂ":10379,"vas":10380,"Ø´":10381,"ãĥ":10382,"Ġcher":10383,"Ġandy":10384,"Ġlender":10385,"Ġnord":10386,"Ġstance":10387,"Ġstored":10388,"sex":10389,"Ġriot":10390,"Ġrecre":10391,"owners":10392,"Ġbrad":10393,"Ġpose":10394,"Ġwellbeing":10395,"Ã©n":10396,"Ġdistur":10397,"Ġcredits":10398,"Ġsuga":10399,"Ġdiscussing":10400,"Ġ225":10401,"ÙĬØ±":10402,"Ġthreatening":10403,"Ġbreast":10404,"Ġnegatively":10405,"Ġcircle":10406,"Ġdemonstrations":10407,"Ġinstruction":10408,"Ġriding":10409,"Ġpapers":10410,"Ġfrozen":10411,"Ġyeah":10412,"Ġcrazy":10413,"oa":10414,"rd":10415,"Ġ00":10416,"Ġou":10417,"Ġlun":10418,"Ġluk":10419,"Ġgab":10420,"Ġhey":10421,"sem":10422,"Ġcompelling":10423,"Ġincidents":10424,"Ġimaging":10425,"iban":10426,"Ġquote":10427,"Ġfraction":10428,"Ġcapex":10429,"Ġ1980":10430,"manuel":10431,"Ġ111":10432,"Ġpowered":10433,"Ġadminister":10434,"Ġlistening":10435,"Ġviable":10436,"share":10437,"Ġpacked":10438,"Ġtrees":10439,"Ġspecialized":10440,"Ġphysically":10441,"Ġmotion":10442,"Ġethical":10443,"Ġethics":10444,"Ġcorrection":10445,"Ġundertake":10446,"Ġtickets":10447,"Ġexemption":10448,"Ġcinemas":10449,"Ġthroat":10450,"Ġnominee":10451,"summary":10452,"bb":10453,"due":10454,"fight":10455,"rus":10456,"infl":10457,"Ġslo":10458,"esity":10459,"itr":10460,"Ġbread":10461,"Ġdated":10462,"roit":10463,"Ġnsa":10464,"stal":10465,"oli":10466,"child":10467,"Ġcoinc":10468,"Ġabd":10469,"Ġkate":10470,"ours":10471,"Ġcram":10472,"Ġanymore":10473,"Ġdescription":10474,"Ġgeneva":10475,"Ġrefr":10476,"Ġfiles":10477,"Ġsustaining":10478,"Ġgerms":10479,"Ġassessments":10480,"Ġvictim":10481,"Ġoptimize":10482,"Ġassumed":10483,"Ġemotion":10484,"Ġdispute":10485,"Ġsprint":10486,"Ġpledge":10487,"Ġaggressively":10488,"ihla":10489,"Ġdisappointed":10490,"Ġmaryland":10491,"Ġattachments":10492,"Ġcumulative":10493,"alinna":10494,"Ġhidden":10495,"Ġbats":10496,"Ġbunch":10497,"Ġmund":10498,"Ġdash":10499,"Ġhubs":10500,"Ġlip":10501,"Ġthrow":10502,"acent":10503,"ocol":10504,"Ġcox":10505,"artered":10506,"Ġallergy":10507,"Ġmeg":10508,"Ġstudios":10509,"Ġ101":10510,"Ġ108":10511,"Ġinstant":10512,"Ġcarries":10513,"bra":10514,"Ġequality":10515,"Ġdefer":10516,"Ġhardly":10517,"Ġdelivers":10518,"Ġvoter":10519,"Ġclassified":10520,"Ġacceleration":10521,"Ġdetermining":10522,"Ġsubjects":10523,"Ġpolitically":10524,"oxx":10525,"Ġnovavax":10526,"Ġisraeli":10527,"profile":10528,"Ġconcentration":10529,"Ġtaught":10530,"Ġfulfilling":10531,"Ġbasketball":10532,"Ġgloves":10533,"Ġdestruction":10534,"Ġmetropolitan":10535,"Ġmckinsey":10536,"jet":10537,"inces":10538,"held":10539,"Ġpihla":10540,"Ġweighed":10541,"charge":10542,"ifery":10543,"Ġuncon":10544,"Ġpremarket":10545,"Ġcolumn":10546,"Ġsecuring":10547,"Ġsalesforce":10548,"Ġchest":10549,"Ġchallenged":10550,"Ġsafeguard":10551,"Ġmuslims":10552,"ÙĬÙĨ":10553,"Ġinvestigations":10554,"Ġtennes":10555,"Ġnorwegian":10556,"Ġnaval":10557,"Ġevaluated":10558,"Ġattempted":10559,"Ġconstitute":10560,"Ġenjoyed":10561,"Ġestablishment":10562,"Ġreplacement":10563,"Ġexhibit":10564,"Ġplunge":10565,"ferencing":10566,"powered":10567,"Ġtribun":10568,"Ġatmosphere":10569,"etheless":10570,"Ġchicken":10571,"Ġcurfew":10572,"jalinna":10573,"lash":10574,"mate":10575,"ship":10576,"xic":10577,"Ġie":10578,"inos":10579,"Ġoreg":10580,"Ġdak":10581,"Ġhp":10582,"Ġhip":10583,"asio":10584,"idas":10585,"Ġtraged":10586,"umar":10587,"redict":10588,"Ġapolog":10589,"adequ":10590,"Ġtranscript":10591,"Ġ109":10592,"Ġdownward":10593,"Ġgrace":10594,"Ġblind":10595,"Ġformally":10596,"Ġrisky":10597,"Ġvegas":10598,"Ġheadache":10599,"Ġsymptomatic":10600,"Ġforecasting":10601,"Ġcommented":10602,"Ġdiver":10603,"Ġmississ":10604,"Ġexpressions":10605,"Ġphiladelphia":10606,"iminals":10607,"Ġcrossing":10608,"Ġcooking":10609,"Ġqualify":10610,"Ġcambridge":10611,"Ġgirl":10612,"Ġpersistent":10613,"Ġnamrc":10614,"Ġcoordinated":10615,"Ġmunicipal":10616,"Ġexacerbated":10617,"Ġforeseeable":10618,"Ġconspiracy":10619,"96":10620,"fit":10621,"uine":10622,"âĤ¬":10623,"Ġtill":10624,"Ġinadequ":10625,"Ġana":10626,"Ġlights":10627,"Ġlucky":10628,"adjusted":10629,"ĠrÃ©":10630,"ifi":10631,"Ġshorter":10632,"ivan":10633,"arer":10634,"berry":10635,"Ġlaura":10636,"Ġdowntown":10637,"Ġgrave":10638,"Ġelon":10639,"Ġbiology":10640,"Ġresponsibilities":10641,"Ġcontractors":10642,"Ġbreaks":10643,"Ġbreakup":10644,"Ġversions":10645,"Ġexclude":10646,"Ġopposite":10647,"Ġfriendly":10648,"Ġignore":10649,"Ġsanitizer":10650,"Ġallegedly":10651,"Ġprinting":10652,"Ġchatbots":10653,"Ġpocket":10654,"Ġintermediate":10655,"effective":10656,"Ġlivest":10657,"Ġembassy":10658,"Ġoregon":10659,"hop":10660,"Â°":10661,"Ġtangible":10662,"Ġaeg":10663,"Ġsque":10664,"itage":10665,"Ġfah":10666,"Ġbps":10667,"Ġbags":10668,"Ġhf":10669,"Ġhav":10670,"Ġhung":10671,"uration":10672,"chat":10673,"ibr":10674,"Ġamy":10675,"Ġtea":10676,"Ġpartnered":10677,"Ġcrus":10678,"Ġuv":10679,"Ġsomebody":10680,"wered":10681,"Ġ102":10682,"Ġsmoke":10683,"Ġprofound":10684,"Ġ1970":10685,"Ġconfig":10686,"Ġnonetheless":10687,"Ġfarming":10688,"Ã©d":10689,"Ġcomplement":10690,"ierce":10691,"Ġadjusting":10692,"Ġcamps":10693,"Ġstewart":10694,"Ġrevive":10695,"Ġspecialty":10696,"Ġfuneral":10697,"amsung":10698,"Ġsensitivity":10699,"Ġdocumented":10700,"Ġtrending":10701,"Ġmcdonald":10702,"Ġprospectus":10703,"Ġnomination":10704,"Ġunfold":10705,"Ġignored":10706,"Ġwireless":10707,"Ġcoupled":10708,"Ġrallies":10709,"Ġstringent":10710,"Ġmidwifery":10711,"Ġpihlajalinna":10712,"bp":10713,"made":10714,"oon":10715,"pool":10716,"zero":10717,"Ġrome":10718,"Ġpes":10719,"Ġfx":10720,"icy":10721,"ĠnÃ£o":10722,"iders":10723,"Ġsty":10724,"Ġstakes":10725,"igma":10726,"Ġhell":10727,"Ġrice":10728,"ivas":10729,"Ġworrying":10730,"Ġacess":10731,"anted":10732,"Ġexposing":10733,"Ġprud":10734,"ardo":10735,"Ġdisinformation":10736,"ails":10737,"Ġcraft":10738,"Ġstrange":10739,"Ġinterface":10740,"Ġpatri":10741,"Ġgeneric":10742,"Ġgenuine":10743,"Ġlongtime":10744,"Ġheritage":10745,"Ġcaring":10746,"Ġmodi":10747,"ahn":10748,"Ġskill":10749,"Ġsellers":10750,"Ġharbor":10751,"annel":10752,"Ġprovinces":10753,"Ġprevented":10754,"adox":10755,"Ġdescribes":10756,"loads":10757,"Ġspotify":10758,"Ġranking":10759,"Ġambient":10760,"Ġpreparedness":10761,"Ġdilig":10762,"Ġconservation":10763,"Ġhenry":10764,"Ġanxious":10765,"Ġtrailing":10766,"Ġbureauc":10767,"Ġprecaution":10768,"Ġtailored":10769,"Ġflagship":10770,"Ġdisproportionately":10771,"Ġsubstitute":10772,"Ġconscious":10773,"Ġtennessee":10774,"Ġbureaucr":10775,"bors":10776,"iqu":10777,"around":10778,"Ġdod":10779,"Ġhond":10780,"Ġlon":10781,"eters":10782,"ads":10783,"Ġrit":10784,"opard":10785,"Ġtrim":10786,"Ġsap":10787,"artner":10788,"Ġkan":10789,"Ġpermit":10790,"uchin":10791,"Ġfeas":10792,"Ġjoins":10793,"Ġwhenever":10794,"Ġbillionaire":10795,"Ġlifetime":10796,"Ġdesigner":10797,"sci":10798,"Ġdocumentary":10799,"Ġcaptured":10800,"Ġattendees":10801,"ippi":10802,"Ġmeantime":10803,"Ġadversely":10804,"Ġconflicts":10805,"Ġflooding":10806,"Ġhabits":10807,"Ġfrustration":10808,"Ġthrombosis":10809,"Ġbesides":10810,"Ġcancellations":10811,"Ġremoving":10812,"Ġthorough":10813,"Ġjudgment":10814,"Ġaccompanying":10815,"Ġpulmonary":10816,"Ġsophisticated":10817,"lab":10818,"rage":10819,"Ġsg":10820,"Ġrelied":10821,"lete":10822,"styrene":10823,"ounced":10824,"activ":10825,"Ġresidence":10826,"Ġku":10827,"Ġoutp":10828,"Ġagile":10829,"Ġlooming":10830,"Ġsomewhere":10831,"Ġinterrup":10832,"Ġphill":10833,"Ġretained":10834,"Ġ103":10835,"Ġfolder":10836,"medic":10837,"Ġnationals":10838,"Ġmaturity":10839,"Ġswing":10840,"Ġclinicians":10841,"Ġexistence":10842,"Ġmandated":10843,"Ġcategor":10844,"Ġmurder":10845,"Ġhydrogen":10846,"Ġfundamentals":10847,"Ġbolster":10848,"Ġemphasis":10849,"Ġdiplomacy":10850,"Ġreceivable":10851,"Ġreceivables":10852,"houses":10853,"Ġfoster":10854,"analysis":10855,"Ġoncology":10856,"Ġsusceptible":10857,"map":10858,"ni":10859,"sing":10860,"Ñĥ":10861,"à¤":10862,"erving":10863,"rogen":10864,"oured":10865,"Ġonboard":10866,"stered":10867,"Ġdere":10868,"email":10869,"Ġpray":10870,"Ġoutsour":10871,"Ġcostly":10872,"Ġfaculty":10873,"Ġprogramming":10874,"Ġ133":10875,"Ġemergencies":10876,"Ġbarack":10877,"Ġnato":10878,"Ġmori":10879,"Ġinstitutes":10880,"Ġbiom":10881,"Ġaustralians":10882,"Ġproduces":10883,"Ġdomain":10884,"Ġdrops":10885,"Ġexchanges":10886,"Ġmodeling":10887,"Ġmarginal":10888,"Ġmeasurement":10889,"Ġsynthe":10890,"Ġconsultancy":10891,"Ġmerkel":10892,"Ġboxes":10893,"Ġemotions":10894,"Ġfrustrated":10895,"Ġcontagion":10896,"Ġsurpassed":10897,"Ġcatastrophic":10898,"Ġhawaii":10899,"Ġligand":10900,"Ġmississippi":10901,"bury":10902,"food":10903,"fires":10904,"mort":10905,"rolog":10906,"Ġreit":10907,"Ġeia":10908,"Ġnancy":10909,"urt":10910,"style":10911,"Ġyan":10912,"thr":10913,"Ġjar":10914,"Ġjenn":10915,"Ġspam":10916,"Ġkiss":10917,"Ġperception":10918,"Ġmonit":10919,"Ġpresum":10920,"Ġstriking":10921,"ensity":10922,"Ġdowngr":10923,"Ġsalmon":10924,"Ġblamed":10925,"Ġaffir":10926,"ovirus":10927,"Ġ2002":10928,"Ġbroadband":10929,"Ġfeelings":10930,"Ġharvest":10931,"Ġxin":10932,"Ġaccountability":10933,"Ġoccas":10934,"Ġutah":10935,"Ġmorningstar":10936,"Ġsmartphones":10937,"Ġabsor":10938,"Ġlibya":10939,"Ġundue":10940,"Ġdisclosures":10941,"Ġproceeding":10942,"Ġquantum":10943,"Ġspectators":10944,"Ġconcentrated":10945,"Ġskyroc":10946,"Ġcoordination":10947,"Ġretrie":10948,"Ġimpeachment":10949,"jiang":10950,"lu":10951,"mr":10952,"mill":10953,"mex":10954,"san":10955,"Ġaustin":10956,"Ġtoy":10957,"Ġthread":10958,"omy":10959,"otyp":10960,"Ġwholly":10961,"Ġchan":10962,"keep":10963,"abama":10964,"Ġmaria":10965,"Ġkin":10966,"oda":10967,"urer":10968,"Ġupgrade":10969,"Ġclark":10970,"ucking":10971,"Ġthroughput":10972,"Ġconfront":10973,"Ġ124":10974,"Ġ127":10975,"Ġtrader":10976,"Ġportal":10977,"Ġprivately":10978,"Ġliu":10979,"ĠÂ«":10980,"Ġletting":10981,"Ġpresenting":10982,"Ġclassrooms":10983,"ĠØ¥":10984,"Ġpersu":10985,"Ġfootage":10986,"Ġscenes":10987,"Ġrecoveries":10988,"Ġfrequency":10989,"Ġtackling":10990,"Ġharmful":10991,"Ãªnc":10992,"Ġmistakes":10993,"Ġtherm":10994,"Ġbuffett":10995,"Ġdiscounts":10996,"Ġmerely":10997,"Ġobstacles":10998,"Ġinquiry":10999,"Ġshadow":11000,"Ġjessica":11001,"oughed":11002,"Ġbangladesh":11003,"Ġthrombocytopenia":11004,"listed":11005,"yes":11006,"Ġao":11007,"Ġhart":11008,"Ġhanc":11009,"Ġhind":11010,"asp":11011,"Ġluck":11012,"Ġlilly":11013,"Ġvitt":11014,"season":11015,"Ġsevent":11016,"ema":11017,"Ġmarking":11018,"ailed":11019,"Ġpresidents":11020,"Ġundermine":11021,"Ġzu":11022,"Ġobesity":11023,"Ø§Ùħ":11024,"Ġbarcl":11025,"Ġbalances":11026,"Ġshutting":11027,"Ġblocking":11028,"Ġbriefly":11029,"Ġiconic":11030,"Ġadvantages":11031,"iatr":11032,"Ġpleas":11033,"Ġguaranteed":11034,"Ġaccommodation":11035,"Ġdismissed":11036,"now":11037,"tu":11038,"Ġtony":11039,"Ġcable":11040,"Ġmish":11041,"Ġmath":11042,"Ġhars":11043,"Ġhilton":11044,"Ġthin":11045,"Ġgupta":11046,"uto":11047,"Ġstun":11048,"Ġstyrene":11049,"Ġstoxx":11050,"stre":11051,"open":11052,"Ġja":11053,"Ġquad":11054,"Ġdisse":11055,"Ġclinton":11056,"Ġsomehow":11057,"Ġbranches":11058,"Ġlikewise":11059,"Ġbacklash":11060,"Ġflash":11061,"Ġconfron":11062,"Ġparticles":11063,"existing":11064,"prnewswire":11065,"Ġtaliban":11066,"Ġdealt":11067,"Ġsafest":11068,"Ġinterviewed":11069,"Ġstopping":11070,"umbai":11071,"cules":11072,"Ġprecious":11073,"Ġcruises":11074,"Ġestablishing":11075,"power":11076,"charged":11077,"Ġreluctant":11078,"Ġsolicitation":11079,"Ġdistinguish":11080,"european":11081,"Ġsampling":11082,"Ġpenetration":11083,"rio":11084,"Ġsamsung":11085,"atz":11086,"Ġpav":11087,"Ġfet":11088,"Ġlisa":11089,"Ġeco":11090,"Ġstap":11091,"Ġvlad":11092,"Ġally":11093,"Ġtries":11094,"antis":11095,"Ġpron":11096,"Ġios":11097,"Ġdisabled":11098,"Ġworkplaces":11099,"Ġthereby":11100,"Ġminus":11101,"Ġforma":11102,"Ġrefuse":11103,"they":11104,"Ġtravelling":11105,"Ġ135":11106,"Ġdisclose":11107,"Ġraj":11108,"Ġmusical":11109,"Ġcharts":11110,"Ġshipped":11111,"Ġconsiderations":11112,"Ġargues":11113,"Ġinvestigators":11114,"Ġtennis":11115,"Ġ360":11116,"content":11117,"Ġdeploying":11118,"ufficient":11119,"Ġpredicting":11120,"Ġastron":11121,"Ġhabit":11122,"Ġvessel":11123,"Ġcontroversy":11124,"Ġenrollment":11125,"Ġmirr":11126,"Ġcomprised":11127,"Ġgeographies":11128,"Ġzhang":11129,"Ġaccomplish":11130,"Ġmnuchin":11131,"Ġscandal":11132,"friendly":11133,"Ġhuffpost":11134,"Ġskyrocket":11135,"base":11136,"doc":11137,"mh":11138,"nering":11139,"ĠÙĥ":11140,"Ġcamb":11141,"Ġpom":11142,"Ġling":11143,"Ġgw":11144,"chin":11145,"Ġasks":11146,"Ġyoy":11147,"Ġrup":11148,"Ġalabama":11149,"Ġjag":11150,"osc":11151,"Ġtrav":11152,"ĠâĢĿ),":11153,"Ġplacing":11154,"Ġmonet":11155,"Ġcra":11156,"Ġark":11157,"Ġshen":11158,"Ġsurplus":11159,"Ġ07":11160,"forest":11161,"Ġthinkers":11162,"there":11163,"Ġ112":11164,"Ġ115":11165,"Ġspeculation":11166,"Ġmodified":11167,"Ġsourcing":11168,"Ġmanufactured":11169,"Ġskilled":11170,"Ġlivelihood":11171,"Ġholes":11172,"parts":11173,"Ġshuttered":11174,"Ġmicrobi":11175,"Ġadvises":11176,"hana":11177,"border":11178,"Ġschedules":11179,"Ġneighbors":11180,"Ġpalest":11181,"Ġcyberatt":11182,"Ġpredicts":11183,"Ġdisappear":11184,"Ġbehavioral":11185,"Ġinjuries":11186,"Ġbearish":11187,"Ġfurloughed":11188,"Ġalgorithm":11189,"Ġunpredict":11190,"Ġaffiliates":11191,"Ġoscar":11192,"ãĢĤ":11193,"Ġhancock":11194,"443":11195,"pp":11196,"vis":11197,"heav":11198,"Ġsore":11199,"Ġom":11200,"Ġwise":11201,"Ġwai":11202,"itime":11203,"Ġbah":11204,"Ġbilateral":11205,"Ġdance":11206,"ilst":11207,"aya":11208,"oln":11209,"Ġrip":11210,"Ġwhilst":11211,"Ġcompares":11212,"rend":11213,"Ġcorrel":11214,"Ġapplies":11215,"Ġnose":11216,"Ġbrick":11217,"Ġrelate":11218,"neg":11219,"Ġautumn":11220,"Ġflaw":11221,"Ġequitable":11222,"Ġrealizing":11223,"Ã©m":11224,"Ġsinger":11225,"Ġsusan":11226,"Ġcollins":11227,"Ġoriginated":11228,"Ġmalaria":11229,"Ġexplores":11230,"Ġassumption":11231,"Ġweakened":11232,"Ġpremiums":11233,"Ġhorse":11234,"Ġ},":11235,"Ġsequence":11236,"Ġwillingness":11237,"Ġobservational":11238,"Ġcorresponding":11239,"âĢĭâĢĭ":11240,"Ġbrutality":11241,"Ġpermits":11242,"Ġhackers":11243,"Ġdisplaced":11244,"government":11245,"Ġaccrued":11246,"Ġcryptocurrency":11247,"Ġembedded":11248,"Ġportugal":11249,"Ġsimultaneously":11250,"hm":11251,"Ġwy":11252,"Ġmg":11253,"Ġhann":11254,"ask":11255,"Ġnad":11256,"igare":11257,"Ġadmit":11258,"Ġdiscontin":11259,"Ġintact":11260,"Ġemmanuel":11261,"Ġinval":11262,"Ġ450":11263,"Ġscored":11264,"Ġlaud":11265,"Ġrestrain":11266,"erald":11267,"cry":11268,"iento":11269,"Ġ145":11270,"Ġmatrix":11271,"Ġsubscriptions":11272,"1016":11273,"atorium":11274,"Ġturnover":11275,"prot":11276,"Ġmedicaid":11277,"Ġthreatens":11278,"ĠØ§ÙĦØª":11279,"Ġphilos":11280,"Ġpulling":11281,"Ġperspectives":11282,"Ġhighlighting":11283,"Ġpitts":11284,"Ġgallery":11285,"Ġexcellence":11286,"Ġveterans":11287,"Ġalphabet":11288,"Ġdestroyed":11289,"Ġtransfers":11290,"Ġsuicide":11291,"Ġaccusations":11292,"Ġadolescents":11293,"Ġinadequate":11294,"you":11295,"zn":11296,"Ð¼":11297,"Ø°":11298,"ĠðŁ":11299,"Ġtut":11300,"rett":11301,"Ġcis":11302,"enz":11303,"Ġtoxic":11304,"rog":11305,"Ġgest":11306,"Ġstol":11307,"ching":11308,"uled":11309,"Ġtract":11310,"iece":11311,"odo":11312,"Ġclots":11313,"Ġacted":11314,"Ġdecor":11315,"Ġassay":11316,"Ġdesmat":11317,"Ġgovernmental":11318,"Ġtechnique":11319,"Ġattached":11320,"Ġ123":11321,"Ġaffil":11322,"ĠpaÃŃ":11323,"Ġbenefici":11324,"Ġswab":11325,"Ġidentification":11326,"Ġski":11327,"Ġactionable":11328,"generation":11329,"Ġbrew":11330,"official":11331,"Ġsubscribing":11332,"ÙĪÙĨ":11333,"Ġcomparative":11334,"Ġpainful":11335,"Ġattacked":11336,"Ġconsiders":11337,"Ġbottles":11338,"Ġrevolving":11339,"Ġduke":11340,"Ġinspire":11341,"Ġadvocate":11342,"Ġvolunteer":11343,"Ġuma":11344,"Ġkaren":11345,"Ġimperative":11346,"Ġneighborhoods":11347,"Ġppp":11348,"Ġabandoned":11349,"Ġexplicit":11350,"Ġproxim":11351,"Ġaegon":11352,"Ġjennifer":11353,"vp":11354,"when":11355,"Ð²":11356,"inced":11357,"Ġcg":11358,"Ġwing":11359,"Ġbinding":11360,"isers":11361,"Ġnest":11362,"Ġdell":11363,"Ġprobe":11364,"ocon":11365,"Ġdoi":11366,"ancer":11367,"onavir":11368,"Ġphased":11369,"Ġtransmitted":11370,"Ġguil":11371,"Ġvaried":11372,"Ġdefining":11373,"Ġchildcare":11374,"Ġpropag":11375,"Ġshortness":11376,"anka":11377,"peo":11378,"Ġexpression":11379,"Ġacceptable":11380,"Ġcardiov":11381,"Ġconvinced":11382,"Ġbullet":11383,"Ġorganisers":11384,"Ġrefinitiv":11385,"Ġrankings":11386,"Ġtranslate":11387,"Ġpregnancy":11388,"Ġalgorithms":11389,"Ġbowl":11390,"Ġsatellite":11391,"Ġladder":11392,"human":11393,"Ġphenomenon":11394,"Ġsacrif":11395,"Ġcarnival":11396,"dh":11397,"mm":11398,"Ġsull":11399,"Ġpv":11400,"altered":11401,"Ġhamm":11402,"eting":11403,"adays":11404,"tha":11405,"third":11406,"Ġjets":11407,"eman":11408,"ums":11409,"Ġnotifications":11410,"Ġexpon":11411,"Ġkon":11412,"agement":11413,"Ġfines":11414,"Ġfinland":11415,"Ġroy":11416,"Ġconsort":11417,"icking":11418,"Ġlongest":11419,"Ġissn":11420,"Ġdetain":11421,"Ġfounding":11422,"Ġceos":11423,"Ġpasses":11424,"Ġdominated":11425,"techn":11426,"secured":11427,"Ġcollaborate":11428,"Ġprinciple":11429,"Ġpursuing":11430,"Ġclothes":11431,"Ġadvocacy":11432,"Ġexcessive":11433,"Ġmindset":11434,"Ġcontempl":11435,"opinavir":11436,"Ġtouched":11437,"Ġmerchandise":11438,"Ġunnecessary":11439,"Ġfahren":11440,"Ġmonitored":11441,"het":11442,"Ġsne":11443,"ori":11444,"Ġangry":11445,"arious":11446,"iravir":11447,"imir":11448,"ige":11449,"Ġaspir":11450,"Ġals":11451,"Ġjc":11452,"Ġunaltered":11453,"Ġshocks":11454,"Ġmaritime":11455,"Ġapi":11456,"Ġpreferences":11457,"Ġcommons":11458,"Ġscrap":11459,"Ġhadn":11460,"Ġarising":11461,"asset":11462,"Ġnowadays":11463,"Ġretros":11464,"grad":11465,"Ġdownside":11466,"Ġgenome":11467,"Ġmais":11468,"Ġmainstream":11469,"Ġlesson":11470,"Ġswim":11471,"cribed":11472,"Ġneglect":11473,"Ġcopoly":11474,"Ġurge":11475,"Ġcollecting":11476,"Ġnationally":11477,"Ġcharities":11478,"Ġstops":11479,"Ġtelecommunic":11480,"Ġpremature":11481,"Ġimmunization":11482,"Ġrecognise":11483,"Ġavoided":11484,"Ġmotley":11485,"Ġambition":11486,"Ġcertification":11487,"Ġbabies":11488,"Ġdisposable":11489,"Ġweighing":11490,"Ġgyms":11491,"Ġkidney":11492,"Ġcinema":11493,"Ġtower":11494,"Ġcrackdown":11495,"Ġbrooklyn":11496,"Ġbrasil":11497,"Ġiphone":11498,"Ġsteadily":11499,"Ġexplanation":11500,"Ġparallel":11501,"ĠamazÃ´nia":11502,"Ġbarclays":11503,"Ġfahrenheit":11504,"Ġretrospect":11505,"Ġcopolymer":11506,"blic":11507,"cit":11508,"pc":11509,"spe":11510,"Ġtort":11511,"anon":11512,"Ġfog":11513,"Ġfishing":11514,"Ġbour":11515,"Ġbird":11516,"Ġdating":11517,"Ġgartner":11518,"Ġbeaches":11519,"adic":11520,"Ġproactive":11521,"Ġconcess":11522,"Ġrab":11523,"osm":11524,"Ġunedited":11525,"Ġlean":11526,"Ġiowa":11527,"ager":11528,"Ġphd":11529,"Ġthemes":11530,"Ġsalv":11531,"Ġedward":11532,"Ġforefront":11533,"Ġtradem":11534,"Ġbuilds":11535,"Ġsingh":11536,"Ġvirolog":11537,"Ġeducators":11538,"Ġsanitation":11539,"Ġspecialists":11540,"Ġprogression":11541,"Ġinitiated":11542,"Ġrecognised":11543,"Ġlanding":11544,"people":11545,"Ġlighting":11546,"Ġoptimal":11547,"Ġspoken":11548,"Ġjudicial":11549,"Ġoccurring":11550,"Ġduties":11551,"Ġresolved":11552,"Ġaeros":11553,"Ġworsening":11554,"Ġintroducing":11555,"Ġupgraded":11556,"Ġdiesel":11557,"Ġjurisdictions":11558,"Ġrepurchase":11559,"Ġlegitimate":11560,"Ġcolonial":11561,"Ġdeutsche":11562,"Ġdakota":11563,"Ġvladimir":11564,"depend":11565,"press":11566,"Ñĭ":11567,"Ġtd":11568,"review":11569,"esc":11570,"Ġfasc":11571,"Ġine":11572,"Ġmouth":11573,"astr":11574,"Ġlinc":11575,"Ġstro":11576,"start":11577,"igm":11578,"igroup":11579,"Ġ230":11580,"Ġyog":11581,"Ġ':":11582,"Ġquit":11583,"dern":11584,"Ġbruce":11585,"Ġstatewide":11586,"Ġfruit":11587,"Ġundergo":11588,"Ġboys":11589,"Ġgray":11590,"Ġblasio":11591,"athon":11592,"Ġbots":11593,"Ġdetroit":11594,"Ġ113":11595,"Ġelabor":11596,"Ġdiscour":11597,"Ġmultin":11598,"Ġdiet":11599,"Ġcitigroup":11600,"Ġmagic":11601,"Ġevolved":11602,"Ġgradu":11603,"ĠÐ¿":11604,"Ġmothers":11605,"Ġutilization":11606,"Ġdublin":11607,"Ġultr":11608,"Ġaccommodate":11609,"Ġmontreal":11610,"Ġthrown":11611,"Ġreceptor":11612,"fig":11613,"td":11614,"viet":11615,"Ġcd":11616,"atos":11617,"Ġwore":11618,"Ġmumbai":11619,"Ġhikes":11620,"Ġlopinavir":11621,"imb":11622,"Ġ119":11623,"Ġchal":11624,"Ġorient":11625,"Ġnoticed":11626,"Ġspy":11627,"ibles":11628,"Ġpartnering":11629,"Ġgenes":11630,"inda":11631,"Ġsocio":11632,"Ġzur":11633,"Ġblunt":11634,"Ġcustody":11635,"Ġ132":11636,"price":11637,"Ġbarrier":11638,"Ġimproves":11639,"Ġ175":11640,"Ġ2004":11641,"why":11642,"Ġarguments":11643,"Ġnecessity":11644,"Ġcelebrated":11645,"Ġcelebrities":11646,"Ġeleph":11647,"Ġpromotion":11648,"Ġbreathe":11649,"Ġtweets":11650,"Ġgroceries":11651,"Ġgym":11652,"Ġsupermarket":11653,"Ġfibro":11654,"Ġfurniture":11655,"Ġdemographic":11656,"Ġbacteria":11657,"Ġepicenter":11658,"Ġcardiovascular":11659,"june":11660,"japan":11661,"mid":11662,"million":11663,"Ġia":11664,"Ġ================================":11665,"Ġbaker":11666,"Ġdamp":11667,"asa":11668,"irts":11669,"add":11670,"selling":11671,"Ġrational":11672,"emb":11673,"Ġkrist":11674,"Ġkansas":11675,"Ġenact":11676,"Ġcorona":11677,"Ġindices":11678,"Ġroof":11679,"Ġmanual":11680,"Ġfried":11681,"encer":11682,"compass":11683,"Ġjustin":11684,"Ġgrim":11685,"Ġinstances":11686,"Ġtopical":11687,"Ġreceives":11688,"Ġmasking":11689,"Ġtraveled":11690,"Ġexecuted":11691,"sharing":11692,"shaped":11693,"Ġautomakers":11694,"ucker":11695,"Ġpetron":11696,"Ġoccurs":11697,"Ġindependently":11698,"Ġfatal":11699,"Ġcounterpart":11700,"Ġcounterparts":11701,"Ġwildlife":11702,"Ġindefin":11703,"Ġjunho":11704,"Ġcautionary":11705,"================================================":11706,"Ġdiversification":11707,"Ġvarying":11708,"Ġrecru":11709,"cnn":11710,"Ġcoordinator":11711,"Ġaveraged":11712,"Ġjurisdiction":11713,"Ġpraised":11714,"Ġtransmissible":11715,"Ġpalestin":11716,"Ġpittsburgh":11717,"Ġ================================================================================":11718,"dquo":11719,"hig":11720,"lah":11721,"zhen":11722,"Ġtu":11723,"ĠsÃ£o":11724,"Ġcet":11725,"olas":11726,"change":11727,"Ġheal":11728,"kei":11729,"ivate":11730,"iev":11731,"Ġplastics":11732,"istent":11733,"ouri":11734,"Ġscal":11735,"Ġserver":11736,"Ġmanip":11737,"Ġinterven":11738,"brit":11739,"Ġformulation":11740,"Ġdelaware":11741,"Ġorganizing":11742,"Ġturmo":11743,"Ġdamaging":11744,"Ġcharging":11745,"Ġsensor":11746,"Ġmalicious":11747,"Ġengineer":11748,"Ġambitions":11749,"Ġthanksgiving":11750,"Ġtonne":11751,"Ġmortgages":11752,"Ġdiversified":11753,"Ġsponsorship":11754,"adiene":11755,"Ġrecruitment":11756,"panic":11757,"Ġrecycling":11758,"Ġunpredictable":11759,"Ġturmoil":11760,"jah":11761,"uer":11762,"Ġtiger":11763,"Ġbiod":11764,"Ġinduced":11765,"Ġmud":11766,"alayer":11767,"Ġanch":11768,"Ġtob":11769,"Ġrevel":11770,"Ġthir":11771,"Ġecl":11772,"Ġnit":11773,"Ġgif":11774,"ctic":11775,"Ġrbc":11776,"Ġalumin":11777,"Ġatags":11778,"Ġincomes":11779,"Ġkal":11780,"astically":11781,"Ġenforced":11782,"Ġquoted":11783,"forcing":11784,"Ġunderground":11785,"Ġdatalayer":11786,"Ġsubmission":11787,"Ġsignature":11788,"Ġgran":11789,"center":11790,"Ġcustoms":11791,"azz":11792,"Ġ126":11793,"Ġbrow":11794,"Ġpossibilities":11795,"Ġslip":11796,"Ġimmense":11797,"arma":11798,"Ġmoratorium":11799,"Ġ212":11800,"Ġscholars":11801,"Ġinfluenced":11802,"Ġconcrete":11803,"Ġranks":11804,"Ġobjects":11805,"Ġexamined":11806,"Ġhubei":11807,"Ġoccupancy":11808,"owski":11809,"Ġphotographer":11810,"Ġrelaxed":11811,"butadiene":11812,"Ġsocietal":11813,"Ġsupervis":11814,"Ġcvs":11815,"Ġcarlos":11816,"Ġpupils":11817,"Ġcompassion":11818,"Ġdisagree":11819,"Ġlukas":11820,"Ġsullivan":11821,"Ġexponential":11822,"Ġmultinational":11823,"cm":11824,"count":11825,"cott":11826,"gence":11827,"hares":11828,"jud":11829,"lass":11830,"Ġcav":11831,"atri":11832,"anied":11833,"Ġhoney":11834,"Ġnba":11835,"idos":11836,"olar":11837,"ested":11838,"Ġmoz":11839,"upiravir":11840,"Ġunif":11841,"Ġabn":11842,"Ġpert":11843,"Ġimposing":11844,"Ġpubs":11845,"Ġeconomically":11846,"Ġblan":11847,"Ġcosta":11848,"Ġpaycheck":11849,"Ġ117":11850,"atherine":11851,"Ã©es":11852,"Ġhandled":11853,"Ġspeakers":11854,"Ġqatar":11855,"Ġparticipated":11856,"Ġpredomin":11857,"Ġ1999":11858,"Ġglad":11859,"Ġprobability":11860,"Ġcircuit":11861,"Ġcomparisons":11862,"Ġborrowings":11863,"Ġsorts":11864,"Ġclimbing":11865,"Ġbeaten":11866,"Ġmolecules":11867,"Ġmerchants":11868,"Ġresignation":11869,"Ġreiterated":11870,"Ġprosperity":11871,"Ġdiscretionary":11872,"itudes":11873,"Ġpompeo":11874,"billion":11875,"calling":11876,"ders":11877,"length":11878,"lancet":11879,"nt":11880,"rah":11881,"vir":11882,"Ġtub":11883,"Ġtree":11884,"indu":11885,"Ġrenov":11886,"Ġdean":11887,"mento":11888,"Ġhein":11889,"Ġrider":11890,"Ġcoven":11891,"inement":11892,"Ġkaz":11893,"Ġkumar":11894,"istically":11895,"ogens":11896,"Ġdrinking":11897,"Ġposes":11898,"Ġboat":11899,"Ġbanning":11900,"Ġgrass":11901,"Ġinsufficient":11902,"Ġ190":11903,"Ġissuing":11904,"Ġ114":11905,"Ġgenerous":11906,"working":11907,"Ġdesigns":11908,"Ġclassification":11909,"Ġarrivals":11910,"Ġaccountable":11911,"Ġsentence":11912,"Ã¡ri":11913,"Ġpharmac":11914,"Ġinvestigated":11915,"Ġdeny":11916,"Ġvulnerabilities":11917,"Ġreplacing":11918,"Ġobserve":11919,"Ġtransferred":11920,"Ġshelves":11921,"vaccine":11922,"Ġignor":11923,"Ġcloth":11924,"Ġiranian":11925,"Ġneighboring":11926,"Ġjeffrey":11927,"Ġmmg":11928,"Ġrigorous":11929,"Ġdialogue":11930,"Ġdisappointing":11931,"Ġtunis":11932,"Ġaltogether":11933,"Ġinstallation":11934,"Ġpoorer":11935,"Ġpublisher":11936,"Ġwebinar":11937,"Ġcollapsed":11938,"Ġchelsea":11939,"Ġtragedy":11940,"Ġguilty":11941,"Ġlincoln":11942,"wall":11943,"Ġtb":11944,"Ġtall":11945,"Ġoak":11946,"Ġfi":11947,"Ġfond":11948,"Ġfilling":11949,"ĠfÃ¼r":11950,"Ġbou":11951,"Ġanderson":11952,"lead":11953,"Ġvowed":11954,"Ġheating":11955,"andex":11956,"Ġchocol":11957,"Ġcomparing":11958,"Ġspikes":11959,"Ġoffline":11960,"forward":11961,"Ġroe":11962,"Ġpret":11963,"Ġscaled":11964,"Ġbush":11965,"ulture":11966,"Ġfeared":11967,"Ġtwel":11968,"Ġfron":11969,"Ġearliest":11970,"Ġphishing":11971,"Ġboe":11972,"Ġwherever":11973,"Ġflour":11974,"Ġsolo":11975,"ĠĠĠĠĠĠĠ":11976,"yson":11977,"Ġlegally":11978,"Ġnaturally":11979,"Ġstepping":11980,"Ġcreditors":11981,"Ġwalks":11982,"Ġindications":11983,"Ġapproaching":11984,"Ġdivide":11985,"ÙĪÙĦ":11986,"Ġdescribing":11987,"Ġpathway":11988,"Ġpathogens":11989,"Ġbottl":11990,"corp":11991,"Ġcoastal":11992,"Ġnikkei":11993,"Ġmoln":11994,"Ġcurbside":11995,"Ġanswered":11996,"dub":11997,"eur":11998,"mail":11999,"Ġtends":12000,"Ġcyp":12001,"Ġcensus":12002,"orate":12003,"inge":12004,"iones":12005,"asia":12006,"Ġalbeit":12007,"Ġshore":12008,"Ġorbit":12009,"eling":12010,"Ġincidence":12011,"Ġadams":12012,"Ġacid":12013,"Ġresid":12014,"Ġleon":12015,"iba":12016,"Ġiq":12017,"Ġdispers":12018,"Ġclusters":12019,"Ġphases":12020,"issance":12021,"amped":12022,"Ġeste":12023,"Ġadvising":12024,"azer":12025,"Ġrefusing":12026,"Ġdefended":12027,"Ġseniors":12028,"ashi":12029,"Ġseller":12030,"Ġformerly":12031,"Ġpetition":12032,"Ġprovinc":12033,"Ġcolleague":12034,"Ġpharmacies":12035,"Ġschemes":12036,"Ġmatching":12037,"Ġheadquartered":12038,"Ġalarming":12039,"Ġpenalty":12040,"Ġreimbur":12041,"current":12042,"Ġliverpool":12043,"Ġtougher":12044,"Ġquartz":12045,"semble":12046,"medicine":12047,"crow":12048,"rated":12049,"Ñı":12050,"Ġcush":12051,"itte":12052,"Ġfierce":12053,"Ġbos":12054,"Ġlp":12055,"Ġlen":12056,"Ġeve":12057,"Ġeli":12058,"Ġnrc":12059,"omic":12060,"Ġ220":12061,"seen":12062,"Ġarena":12063,"Ġunity":12064,"Ġunsecured":12065,"Ġworn":12066,"Ġmega":12067,"iley":12068,"Ġservers":12069,"Ġservic":12070,"Ġtransmit":12071,"Ġrelie":12072,"Ġgrows":12073,"web":12074,"enger":12075,"Ġdemanded":12076,"Ġdelight":12077,"Ġsections":12078,"Ġheadwinds":12079,"Ġeaster":12080,"Ġ)%":12081,"Ġcollateral":12082,"Ġbreaches":12083,"Ġconsiderably":12084,"Ã§a":12085,"Ġeurozone":12086,"Ġadopting":12087,"Ġchristie":12088,"Ġroadmap":12089,"Ġmalware":12090,"Ġseemingly":12091,"Ġaccepting":12092,"Ġderived":12093,"Ġicc":12094,"Ġfitz":12095,"two":12096,"vaccination":12097,"Ġjunior":12098,"Ġprisoners":12099,"Ġaligned":12100,"ÑģÑĤ":12101,"Ġbcf":12102,"Ġslumped":12103,"Ġpenalties":12104,"Ġswiftly":12105,"Ġpostponement":12106,"Ġdiscipline":12107,"distancing":12108,"Ġlarry":12109,"Ġwaiver":12110,"Ġpetronet":12111,"Ġmolnupiravir":12112,"250":12113,"?âĢĻ":12114,"direct":12115,"kind":12116,"mph":12117,"rons":12118,"Ġaus":12119,"Ġcze":12120,"Ġoat":12121,"itos":12122,"Ġbund":12123,"Ġrethink":12124,"Ġgord":12125,"Ġprosec":12126,"Ġcongest":12127,"Ġrated":12128,"Ġalike":12129,"ulous":12130,"Ġsek":12131,"Ġmoore":12132,"essed":12133,"Ġ203":12134,"Ġmarathon":12135,"Ġplot":12136,"Ġoutlet":12137,"Ġallen":12138,"Ġdish":12139,"Ġrober":12140,"Ġroger":12141,"Ġprefect":12142,"Ġarsen":12143,"Ġinflow":12144,"Ġendors":12145,"2018":12146,"Ġblocks":12147,"Ġedt":12148,"Ġtakeover":12149,"Ġcredential":12150,"shire":12151,"Ġcombine":12152,"Ġcharl":12153,"Ġpredecess":12154,"valence":12155,"Ġevident":12156,"Ġratios":12157,"Ġcriticised":12158,"Ġnavy":12159,"Ġpromoted":12160,"Ġpoorly":12161,"Ġramping":12162,"Ġdispens":12163,"half":12164,"Ġundertaken":12165,"Ġwondering":12166,"Ġwonderful":12167,"Ġdisinfecting":12168,"Ġworship":12169,"Ġintentions":12170,"Ġrussell":12171,"Ġremoval":12172,"Ġhesitancy":12173,"Ġgrappling":12174,"Ġtropical":12175,"Ġcomedy":12176,"Ġharassment":12177,"uest":12178,"Ġay":12179,"Ġsits":12180,"Ġcm":12181,"orig":12182,"anmar":12183,"Ġfame":12184,"Ġbb":12185,"Ġanal":12186,"Ġdad":12187,"Ġderm":12188,"Ġlane":12189,"Ġnin":12190,"Ġdelo":12191,"Ġchop":12192,"ivation":12193,"Ġplug":12194,"Ġencompass":12195,"Ġupbeat":12196,"Ġrodr":12197,"Ġpolar":12198,"liver":12199,"roph":12200,"iox":12201,"Ġedited":12202,"Ġ122":12203,"Ġrefers":12204,"Ġrefining":12205,"Ġobstruct":12206,"Ġsuisse":12207,"Ġhanded":12208,"Ġreviewing":12209,"Ġstatut":12210,"gener":12211,"Ġmissouri":12212,"Ġviolations":12213,"Ġchoosing":12214,"Ġefficiencies":12215,"marketresearch":12216,"prem":12217,"holm":12218,"Ġdoubling":12219,"Ġachievement":12220,"hyl":12221,"Ġattracted":12222,"Ġrenewables":12223,"Ġstrengthened":12224,"Ġpilots":12225,"Ġneutralizing":12226,"Ġexhibition":12227,"Ġamendments":12228,"Ġacademics":12229,"Ġpunish":12230,"Ġpockets":12231,"Ġbrutal":12232,"Ġlobby":12233,"Ġpoorest":12234,"Ġtumbled":12235,"Ġoverlap":12236,"cola":12237,"dles":12238,"ju":12239,"non":12240,"åı":12241,"Ġtiff":12242,"Ġaur":12243,"rer":12244,"orient":12245,"Ġmull":12246,"ouver":12247,"Ġyandex":12248,"Ġri":12249,"Ġunter":12250,"ivos":12251,"Ġabund":12252,"Ġkay":12253,"Ġkhan":12254,"izza":12255,"Ġdischarged":12256,"Ġagility":12257,"Ġscaling":12258,"ordash":12259,"Ġdeciding":12260,"Ġfract":12261,"Ġneeding":12262,"wealth":12263,"Ġedits":12264,"Ġfled":12265,"Ġmyanmar":12266,"Ġ121":12267,"Ġpressed":12268,"Ġextends":12269,"Ġcompleting":12270,"marks":12271,"Ġswap":12272,"Ġfreeze":12273,"Ġcompetitor":12274,"Ġbiomed":12275,"Ġcytok":12276,"Ġaddresses":12277,"Ġblackrock":12278,"Ġdemonstrates":12279,"Ġempire":12280,"Ġtighten":12281,"Ġwildfires":12282,"Ġunfair":12283,"Ġfunctioning":12284,"Ġcountless":12285,"Ġflatten":12286,"Ġvalidation":12287,"Ġepisodes":12288,"Ġdigitally":12289,"Ġindirectly":12290,"Ġwilson":12291,"heimer":12292,"article":12293,"Ġelectrical":12294,"Ġbrowser":12295,"Ġhudson":12296,"Ġcramer":12297,"Ġcraig":12298,"Ġproximity":12299,"Ġczech":12300,"bh":12301,"bell":12302,"ku":12303,"lining":12304,"math":12305,"pper":12306,"Ø²":12307,"Ġtamb":12308,"Ġtags":12309,"rez":12310,"reach":12311,"Ġcock":12312,"Ġpti":12313,"Ġlect":12314,"Ġecommerce":12315,"Ġgsk":12316,"utive":12317,"vering":12318,"acon":12319,"Ġunle":12320,"antes":12321,"Ġenacted":12322,"izable":12323,"Ġrod":12324,"Ġloop":12325,"Ġserb":12326,"Ġbrill":12327,"Ġtwin":12328,"teen":12329,"Ġendpoint":12330,"Ġ08":12331,"Ġdowning":12332,"Ġinsur":12333,"Ġcareers":12334,"cla":12335,"Ġwanting":12336,"Ġmature":12337,"Ġadministrators":12338,"Ġqanon":12339,"Ġcontacted":12340,"Ġdeclare":12341,"Ġhominem":12342,"Ġsurely":12343,"Ġproblematic":12344,"regular":12345,"Ġconvince":12346,"Ġcelebration":12347,"Ġcastle":12348,"Ġnegotiating":12349,"Ġconstitu":12350,"Ġparliamentary":12351,"Ġhamilton":12352,"Ġcatching":12353,"Ġepidemiological":12354,"Â®,":12355,"Ġkicked":12356,"Ġreproduced":12357,"Ġsnapshot":12358,"Ġmotivated":12359,"Ġmacroeconomic":12360,"Ġtactics":12361,"funded":12362,"Ġunderwriting":12363,"Ġantonio":12364,"Ġneurological":12365,"Ġtwelve":12366,"die":12367,"lers":12368,"pf":12369,"pop":12370,"Ġ%)":12371,"Ġtul":12372,"Ġaj":12373,"Ġsul":12374,"Ġcus":12375,"Ġwol":12376,"Ġpall":12377,"Ġferr":12378,"Ġberg":12379,"alone":12380,"Ġlancet":12381,"Ġdelic":12382,"Ġseoul":12383,"Ġmoh":12384,"that":12385,"Ġjay":12386,"Ġtri":12387,"Ġtraction":12388,"Ġsail":12389,"Ġshake":12390,"Ġ'.":12391,"Ġspx":12392,"Ġimarc":12393,"Ġoutrage":12394,"Ġworkouts":12395,"Ġstrikes":12396,"Ġnoise":12397,"Ġserop":12398,"Ġaftermath":12399,"Ġfriction":12400,"Ġanytime":12401,"Ġlaugh":12402,"Ġevans":12403,"Ġfinancials":12404,"Ġinformal":12405,"Ġparag":12406,"Ġfollowers":12407,"management":12408,"plan":12409,"Ġauthoritarian":12410,"Ġmodes":12411,"Ġhumana":12412,"Ġslot":12413,"Ġdistributions":12414,"Ġtemple":12415,"Ġthreaten":12416,"Ġsegmented":12417,"Ġsuspending":12418,"chem":12419,"Ġagrees":12420,"Ġoklah":12421,"Ġstrengths":12422,"Ġdeduct":12423,"Ġemphasized":12424,"Ġsongs":12425,"Ġundersco":12426,"Ġimperial":12427,"Ġhomelessness":12428,"small":12429,"Ġcognitive":12430,"Ãªncia":12431,"Ġbottlenec":12432,"Ġstatutory":12433,"bas":12434,"caster":12435,"hn":12436,"tv":12437,"uably":12438,"Ġtag":12439,"Ġinhab":12440,"ishes":12441,"Ġdick":12442,"Ġhike":12443,"astern":12444,"ente":12445,"Ġnap":12446,"leted":12447,"Ġstays":12448,"una":12449,"estimate":12450,"Ġunified":12451,"Ġspi":12452,"Ġimminent":12453,"austr":12454,"Ġunderpin":12455,"angers":12456,"Ġconfinement":12457,"Ġtopically":12458,"Ġslashed":12459,"Ġstreams":12460,"Ġacquiring":12461,"Ġconfirms":12462,"iko":12463,"Ġbookmark":12464,"Ġmissiles":12465,"ÃŃn":12466,"Ġreasonably":12467,"Ġpaths":12468,"Ø§Ø¯":12469,"Ġcrossed":12470,"Ġassumes":12471,"Ġjointly":12472,"Ġchecked":12473,"Ġreliability":12474,"Ġeligibility":12475,"Ġdevastated":12476,"Ġwipe":12477,"build":12478,"Ġbailout":12479,"Ġuptake":12480,"Ġconclusions":12481,"Ġpandemia":12482,"Ġsocieties":12483,"Ġsatellites":12484,"Ġcontempor":12485,"Ġfantastic":12486,"Ġalberta":12487,"Ġincumbent":12488,"Ġacessado":12489,"Ġshenzhen":12490,"Ġstolen":12491,"Ġoklahoma":12492,"fact":12493,"kh":12494,"mother":12495,"oe":12496,"Ùĭ":12497,"ĠÙģ":12498,"Ġsb":12499,"Ġwti":12500,"itably":12501,"Ġmast":12502,"Ġmacy":12503,"isp":12504,"Ġdy":12505,"icut":12506,"usts":12507,"Ġgel":12508,"Ġbez":12509,"ophy":12510,"apers":12511,"Ġadvers":12512,"Ġleasing":12513,"Ġ2028":12514,"Ġpeps":12515,"Ġrecalled":12516,"Ġemory":12517,"ancouver":12518,"acco":12519,"Ġbuses":12520,"Ġserum":12521,"Ġarise":12522,"Ġdrama":12523,"Ġ737":12524,"Ġminers":12525,"Ġ01":12526,"Ġanna":12527,"Ġ129":12528,"Ġdefensive":12529,"Ġlistings":12530,"Ġsells":12531,"Ġclosest":12532,"Ġirregular":12533,"Ġshippers":12534,"Ġconnecticut":12535,"Ġverification":12536,"Ġbreakfast":12537,"Ġjeopard":12538,"amba":12539,"Ġlayer":12540,"Ġkenned":12541,"Ġbrothers":12542,"Ġlyft":12543,"ĠniÃ±":12544,"Ġrefugee":12545,"Ġdiplomats":12546,"Ġdistributors":12547,"Ġbarrons":12548,"Ġbrokerage":12549,"Ġsterling":12550,"aciones":12551,"zhou":12552,"Ġmanifest":12553,"Ġdesmatamento":12554,"Ġconsortium":12555,"gal":12556,"nat":12557,"nation":12558,"yen":12559,"Ġti":12560,"Ġces":12561,"Ġpate":12562,"Ġpmi":12563,"Ġfern":12564,"stat":12565,"emen":12566,"Ġnotified":12567,"Ġkem":12568,"Ġcommence":12569,"Ġscared":12570,"Ġardern":12571,"Ġundermin":12572,"Ġshep":12573,"Ġservicing":12574,"2025":12575,"Ġbrokers":12576,"Ġsimulation":12577,"Ġ116":12578,"Ġfounders":12579,"Ġ136":12580,"Ġdebent":12581,"Ġdebts":12582,"holding":12583,"which":12584,"Ġarguably":12585,"Ġprobable":12586,"Ġcircular":12587,"Ġexclusively":12588,"Ġcrores":12589,"Ġpaulo":12590,"Ġunfavor":12591,"Ġconcentrate":12592,"Ġutilizing":12593,"Ġnickel":12594,"Ġshrink":12595,"isolation":12596,"Ġkaiser":12597,"iotics":12598,"lockdown":12599,"anthrop":12600,"Ġbiopharma":12601,"Ġconjunction":12602,"Ġtoyota":12603,"technavio":12604,"Ġprovincial":12605,"Ġkennedy":12606,"120":12607,"ele":12608,"jor":12609,"åħ":12610,"åĪ":12611,"Ġcree":12612,"erves":12613,"Ġpy":12614,"Ġreun":12615,"Ġlv":12616,"Ġlanes":12617,"Ġef":12618,"usal":12619,"Ġons":12620,"chair":12621,"Ġprolif":12622,"Ġnex":12623,"Ġneck":12624,"Ġtrains":12625,"Ġunde":12626,"Ġleather":12627,"ava":12628,"Ġopted":12629,"forces":12630,"Ġcriminals":12631,"Ġbrun":12632,"Ġregener":12633,"Ġpositivity":12634,"Ġsurges":12635,"icked":12636,"graph":12637,"Ġcentered":12638,"Ġgrat":12639,"Ġdonor":12640,"Ġmemories":12641,"Ġfacial":12642,"Ġslid":12643,"Ġbuyer":12644,"Ġturnaround":12645,"Ġcombining":12646,"Ġpractition":12647,"henko":12648,"Ġutc":12649,"Ġsoldiers":12650,"Ġracist":12651,"Ġfairness":12652,"recurring":12653,"Ġdocumentation":12654,"Ġgrounded":12655,"password":12656,"Ġfrancis":12657,"caa":12658,"Ġawaiting":12659,"Ġtrauma":12660,"Ġrecipient":12661,"Ġdisappoint":12662,"Ġdiscrimin":12663,"Ġneighbourhood":12664,"Ġconverted":12665,"source":12666,"Ġabandon":12667,"Ġvouchers":12668,"Ġseamless":12669,"Ġfundraising":12670,"Ġuncomfort":12671,"cia":12672,"iu":12673,"iotic":12674,"was":12675,"Ġsib":12676,"enh":12677,"Ġffo":12678,"Ġbind":12679,"Ġbases":12680,"Ġdot":12681,"Ġreh":12682,"Ġbeef":12683,"chip":12684,"Ġvod":12685,"Ġrash":12686,"Ġjum":12687,"osition":12688,"Ġunreal":12689,"005":12690,"Ġresigned":12691,"Ġkle":12692,"Ġkish":12693,"Ġpras":12694,"Ġopio":12695,"agers":12696,"Ġaging":12697,"Ġdrastically":12698,"Ġactress":12699,"Ġnowhere":12700,"Ġende":12701,"Ġdesantis":12702,"Ġpatents":12703,"Ġcurt":12704,"Ġdirections":12705,"Ġedged":12706,"Ġparaly":12707,"Ġcareg":12708,"Ġ128":12709,"Ġcredo":12710,"Ġ240":12711,"Ġcertainty":12712,"Ġcombating":12713,"Ġboosters":12714,"Ġmicrosc":12715,"Ġmaintains":12716,"Ġcirculating":12717,"Ġchristine":12718,"Ġphilanthrop":12719,"Ġcalculate":12720,"adora":12721,"Ġchemotherapy":12722,"Ġstrictly":12723,"Ġtheatre":12724,"Ġconvenient":12725,"Ġinequalities":12726,"Ġobservation":12727,"Ġentrepreneur":12728,"Ġcocoa":12729,"Ġbpd":12730,"Ġreimag":12731,"Ġprivilege":12732,"Ġhogan":12733,"Ġpaused":12734,"Ġlunar":12735,"Ġdiligence":12736,"mortar":12737,"Ġharsh":12738,"Ġarsenal":12739,"farm":12740,"iq":12741,"oard":12742,"public":12743,"wer":12744,"wick":12745,"xiv":12746,"ÑĮ":12747,"Ġtired":12748,"Ġaap":12749,"revalence":12750,"Ġfid":12751,"Ġhut":12752,"Ġthick":12753,"idades":12754,"chief":12755,"Ġrug":12756,"osn":12757,"umat":12758,"Ġcompuls":12759,"aku":12760,"Ġapac":12761,"Ġprest":12762,"Ġcraf":12763,"Ġpatch":12764,"Ġgraham":12765,"centric":12766,"Ġmeasuring":12767,"Ġwarner":12768,"Ġpostal":12769,"Ġauthorised":12770,"Ġamongst":12771,"Ġpassport":12772,"Ġbarcel":12773,"Ġcontactless":12774,"Ġdougl":12775,"Ġappearing":12776,"Ġconversational":12777,"Ġdemonstration":12778,"Ġdemonstrating":12779,"Ġpainting":12780,"Ġexercising":12781,"Ġoccurrence":12782,"Ġsubsidy":12783,"Ġempathy":12784,"Ġhonored":12785,"Ġnegotiate":12786,"Ġallev":12787,"republic":12788,"Ãºblic":12789,"Ġrandomized":12790,"wearing":12791,"Ġthermal":12792,"Ġenrolled":12793,"Ġpivotal":12794,"Ġvitamin":12795,"Ġenthusias":12796,"Ġmichelle":12797,"Ġqueensland":12798,"inflamm":12799,"Ġseventh":12800,"Ġchocolate":12801,"Ġdeloitte":12802,"Ġbrilliant":12803,"grow":12804,"hd":12805,"lt":12806,"nn":12807,"pcr":12808,"su":12809,"ĠÙĨ":12810,"Ġtong":12811,"Ġais":12812,"help":12813,"Ġsri":12814,"Ġsdr":12815,"Ġcel":12816,"enna":12817,"Ġbart":12818,"Ġinjust":12819,"Ġdual":12820,"icia":12821,"omi":12822,"idal":12823,"Ġgiro":12824,"urge":12825,"urches":12826,"Ġya":12827,"Ġalaska":12828,"amily":12829,"Ġjn":12830,"Ġjama":12831,"osa":12832,"Ġshame":12833,"traded":12834,"april":12835,"eliness":12836,"acters":12837,"Ġspur":12838,"Ġmeets":12839,"Ġwheat":12840,"Ġimpression":12841,"Ġscul":12842,"Ġcounted":12843,"Ġmanchin":12844,"lection":12845,"Ġcapita":12846,"Ġlaund":12847,"inded":12848,"Ġdebates":12849,"Ġportland":12850,"Ġfilming":12851,"Ġfreely":12852,"Ġconfirming":12853,"Ġcharacters":12854,"Ġcommissioned":12855,"Ġlogic":12856,"Ġfault":12857,"Ġdivisions":12858,"Ġnorms":12859,"Ġprecision":12860,"Ġpredictive":12861,"Ġdependence":12862,"Ġsequential":12863,"Ġshoes":12864,"Ġheroes":12865,"Ġexplosion":12866,"Ġadapted":12867,"Ġparameters":12868,"Ġbancorp":12869,"Ġmarshall":12870,"Ġspiked":12871,"Ġenthusiasm":12872,"bow":12873,"break":12874,"kr":12875,"saving":12876,"Ð´":12877,"Ġobr":12878,"Ġwound":12879,"Ġwool":12880,"orbid":12881,"Ġlum":12882,"Ġlining":12883,"ĠlÃŃ":12884,"Ġnp":12885,"Ġgown":12886,"changing":12887,"Ġraging":12888,"Ġrides":12889,"Ġchadox":12890,"elle":12891,"iere":12892,"Ġian":12893,"Ġcorps":12894,"Ġpreclinical":12895,"Ġloos":12896,"Ġregret":12897,"associ":12898,"encent":12899,"ellen":12900,"neider":12901,"Ġevictions":12902,"Ġsmar":12903,"Ġsuppress":12904,"Ġexperiments":12905,"Ġpope":12906,"Ġtotaling":12907,"Ġ131":12908,"ovo":12909,"Ġpropose":12910,"Ġextrem":12911,"Ġmodelling":12912,"Ġpassage":12913,"Ġcourage":12914,"Ġcopies":12915,"Ġexcuse":12916,"Ġredempt":12917,"employed":12918,"Ġmessenger":12919,"ĠĠĠĠĠĠĠĠĠĠ":12920,"Ġtitles":12921,"Ġseekers":12922,"anguard":12923,"Ġindiana":12924,"Ġurgently":12925,"Ġconclude":12926,"Ġtranslation":12927,"Ġissuer":12928,"Ġmmt":12929,"Ġfrankly":12930,"Ġembraced":12931,"Ġresumption":12932,"Ġlengthy":12933,"ĠØ£ÙĨ":12934,"Ġreversed":12935,"Ġcrops":12936,"Ġterminals":12937,"Ġdisruptive":12938,"Ġignorance":12939,"Ġunfavorable":12940,"Ġbarcelona":12941,"eze":12942,"gy":12943,"gree":12944,"good":12945,"hma":12946,"kar":12947,"wo":12948,"Ġtension":12949,"Ġale":12950,"Ġwen":12951,"Ġwary":12952,"Ġwolf":12953,"Ġpig":12954,"Ġpills":12955,"Ġbin":12956,"Ġduc":12957,"Ġlem":12958,"Ġlord":12959,"ete":12960,"Ġvanguard":12961,"Ġproving":12962,"accept":12963,"opy":12964,"opro":12965,"Ġjp":12966,"Ġchand":12967,"Ġchills":12968,"Ġorange":12969,"Ġexped":12970,"Ġoutwe":12971,"arest":12972,"Ġhoward":12973,"Ġhispanic":12974,"liant":12975,"Ġboats":12976,"Ġeviction":12977,"apper":12978,"Ġperiodic":12979,"Ġ138":12980,"Ġescap":12981,"Ġsuggestions":12982,"Ġautomaker":12983,"Ġirre":12984,"Ġcharter":12985,"Ġcharitable":12986,"ĠØ³":12987,"Ġrents":12988,"Ġrenters":12989,"Ġseparated":12990,"Ġsubstance":12991,"Ġdelaying":12992,"Ġrevealing":12993,"Ġadvancements":12994,"Ġcrystal":12995,"Ġobservers":12996,"Ġcomplained":12997,"Ġstructured":12998,"Ġalexand":12999,"Ġfundamentally":13000,"Ġcoughing":13001,"Ġhunger":13002,"isolate":13003,"Ġstretched":13004,"Ġbattles":13005,"Ġpreceding":13006,"Ġcardiac":13007,"Ġlaptop":13008,"Ġnavalny":13009,"Ġtelecommunications":13010,"Ġgordon":13011,"Ġuncomfortable":13012,"hu":13013,"Ġpizza":13014,"esco":13015,"Ġfought":13016,"Ġinacc":13017,"Ġmile":13018,"Ġmaps":13019,"icism":13020,"Ġreferences":13021,"Ġllp":13022,"Ġnacional":13023,"unting":13024,"iminated":13025,"Ġrut":13026,"Ġseb":13027,"Ġnotification":13028,"Ġbutter":13029,"Ġappreciation":13030,"eller":13031,"issa":13032,"Ġdevelops":13033,"Ġschneider":13034,"Ġgrip":13035,"Ġhershe":13036,"Ġlowered":13037,"Ġmaur":13038,"Ġinsist":13039,"Ġcream":13040,"Ġmathe":13041,"Ġbasel":13042,"Ġbikes":13043,"Ġexplaining":13044,"Ġholmes":13045,"Ġinnovate":13046,"Ġrolls":13047,"Ġextract":13048,"Ġscreened":13049,"Ġanalytical":13050,"Ġlesions":13051,"Ġvenue":13052,"Ġdisputes":13053,"Ġspray":13054,"Ġdubbed":13055,"Ġepidemiologist":13056,"Ġryanair":13057,"Ġalgorithmic":13058,"Ġbelgian":13059,"Ġmarcus":13060,"Ġneighbours":13061,"Ġaccompanied":13062,"Ġattachment":13063,"Ġbuckle":13064,"Ġabsentee":13065,"Ġrhetor":13066,"Ġvigilant":13067,"Ġlauren":13068,"Ġavenue":13069,"Ġunavoid":13070,"ioxide":13071,"Ġtiffany":13072,"Ġkishida":13073,"Ġprasad":13074,"Ġhershey":13075,"!!":13076,"fly":13077,"hin":13078,"hot":13079,"nished":13080,"oft":13081,"rad":13082,"take":13083,"Ġcac":13084,"Ġcens":13085,"Ġoecd":13086,"Ġpear":13087,"Ġmack":13088,"Ġree":13089,"Ġnoses":13090,"Ġgary":13091,"Ġgbp":13092,"Ġbearing":13093,"imens":13094,"Ġweights":13095,"Ġytd":13096,"Ġcongreg":13097,"seg":13098,"sector":13099,"Ġnelson":13100,"Ġchuck":13101,"Ġ(%)":13102,"loff":13103,"Ġabrupt":13104,"Ġexpired":13105,"ichannel":13106,"Ġmeal":13107,"Ġpeg":13108,"Ġmonoc":13109,"Ġaccent":13110,"Ġema":13111,"Ġinvite":13112,"Ġards":13113,"Ġassign":13114,"Ġsyrian":13115,"erto":13116,"Ġgetty":13117,"Ġshelf":13118,"Ġeurop":13119,"Ġdepressed":13120,"Ġformation":13121,"Ġbelt":13122,"Ġreceipt":13123,"Ġ118":13124,"riott":13125,"getty":13126,"Ġlatino":13127,"Ġrestricting":13128,"Ġupdating":13129,"Ġstephan":13130,"Ġbroadway":13131,"Ġ401":13132,"Ġrevis":13133,"Ġrape":13134,"Ġfreel":13135,"Ġredd":13136,"ography":13137,"Ġsilence":13138,"Ġangela":13139,"Ġcaptisol":13140,"Ġmurray":13141,"Ġconsequence":13142,"Ġburned":13143,"Ġrigs":13144,"Ġgardens":13145,"Ġbatteries":13146,"Ġfunctionality":13147,"Ġcomprising":13148,"Ġgeographical":13149,"Ġcertificates":13150,"immune":13151,"Ġvoucher":13152,"Ġabrams":13153,"Ġineos":13154,"Ġjumbo":13155,"Ġcompulsory":13156,"cas":13157,"det":13158,"gate":13159,"lÃ©":13160,"ois":13161,"uana":13162,"inating":13163,"Ġpfe":13164,"Ġfinger":13165,"Ġbun":13166,"Ġmsci":13167,"Ġdense":13168,"Ġanders":13169,"Ġreign":13170,"Ġreins":13171,"Ġrede":13172,"Ġreaches":13173,"Ġnd":13174,"Ġgambling":13175,"lee":13176,"chool":13177,"Ġvancouver":13178,"acre":13179,"esty":13180,"Ġchurches":13181,"ĠâĢĿ).":13182,"loat":13183,"Ġabu":13184,"Ġaboard":13185,"Ġkm":13186,"astro":13187,"Ġnewer":13188,"izar":13189,"Ġintim":13190,"Ġemily":13191,"Ġbrist":13192,"Ġaddiction":13193,"Ġpolled":13194,"Ġblast":13195,"Ġ1918":13196,"Ġpaypal":13197,"Ġattitude":13198,"Ġrealistic":13199,"Ġpersonality":13200,"Ġsuits":13201,"Ġcomeback":13202,"Ġ176":13203,"Ġmultif":13204,"Ġcycles":13205,"Ġstatue":13206,"Ġmedications":13207,"Ġhomeland":13208,"Ġreflection":13209,"Ġpreventive":13210,"pmg":13211,"Ġmitch":13212,"Ġfloating":13213,"Ġcivilians":13214,"Ġscript":13215,"blue":13216,"Ġsudan":13217,"Ġsequences":13218,"Ġdominic":13219,"Ġdominance":13220,"Ġchampionships":13221,"Ġreligion":13222,"remlin":13223,"Ġasthma":13224,"Ġtunnel":13225,"Ġghosn":13226,"Ġtedros":13227,"otheby":13228,"Ġcontingent":13229,"Ġopponents":13230,"Ġastronaut":13231,"Ġdebentures":13232,"Ġunavoidable":13233,"iop":13234,"mj":13235,"nik":13236,"Ġtorn":13237,"Ġaux":13238,"Ġtheories":13239,"Ġpi":13240,"Ġpact":13241,"Ġbout":13242,"Ġmits":13243,"Ġdust":13244,"Ġdioxide":13245,"uten":13246,"Ġbere":13247,"Ġhelic":13248,"Ġseized":13249,"Ġneil":13250,"ainable":13251,"Ġkath":13252,"Ġpradesh":13253,"Ġenemy":13254,"pton":13255,"iously":13256,"Ġbeta":13257,"Ġbuzz":13258,"Ġpayout":13259,"Ġformats":13260,"Ġcontrad":13261,"Ġreadiness":13262,"Ġ154":13263,"Ġfeder":13264,"Ġslated":13265,"Ġtalented":13266,"Ġassociations":13267,"Ġ162":13268,"Ġbuybacks":13269,"Ġeducate":13270,"Ġrobotic":13271,"chestr":13272,"Ġbenj":13273,"Ġtransformations":13274,"Ġhugely":13275,"amente":13276,"Ġconviction":13277,"Ġconsisting":13278,"Ġprediction":13279,"learning":13280,"flu":13281,"Ġtonight":13282,"Ġreinforce":13283,"omprom":13284,"Ġconcentrations":13285,"Ġsupplementary":13286,"Ġivory":13287,"Ġrailway":13288,"connect":13289,"Ġbonus":13290,"Ġbubb":13291,"Ġwarehouses":13292,"Ġliterature":13293,"Ġluis":13294,"Ġterrorist":13295,"uyoshi":13296,"Ġraymond":13297,"Ġkilometres":13298,"ritonavir":13299,"Ġpreparations":13300,"Ġbiomark":13301,"Ġaffiliate":13302,"afe":13303,"big":13304,"code":13305,"gc":13306,"iations":13307,"rim":13308,"saf":13309,"south":13310,"uart":13311,"virus":13312,"Ø«":13313,"Ġov":13314,"Ġoliver":13315,"Ġpare":13316,"anim":13317,"Ġmb":13318,"ington":13319,"Ġdz":13320,"Ġnc":13321,"Ġns":13322,"Ġnaz":13323,"Ġstalled":13324,"otal":13325,"otte":13326,"ocation":13327,"vidia":13328,"Ġresched":13329,"Ġleap":13330,"Ġihs":13331,"ardi":13332,"Ġmonitors":13333,"Ġaccusing":13334,"Ġscary":13335,"Ġloaded":13336,"Ġnobel":13337,"Ġbrady":13338,"Ġmayo":13339,"Ġjoan":13340,"Ġanalysed":13341,"2022":13342,"Ġgrav":13343,"Ġflare":13344,"century":13345,"appro":13346,"Ġemploys":13347,"engine":13348,"Ġnonessential":13349,"Ġpositively":13350,"Ġ172":13351,"Ġvariables":13352,"Ġquebec":13353,"Ġholder":13354,"Ġorganizational":13355,"Ġlogistical":13356,"Ġjewell":13357,"Ġlandmark":13358,"Ġinflux":13359,"Ġmarkit":13360,"Ġtransforming":13361,"Ġcleaner":13362,"Ġexceptions":13363,"Ġappeals":13364,"Ġsurvived":13365,"Ġlegislature":13366,"quarant":13367,"Ġgrande":13368,"Ġcreativity":13369,"Ġpalm":13370,"Ġtightened":13371,"Ġstorms":13372,"Ġshelters":13373,"Ġtsuyoshi":13374,"Ġcomposition":13375,"Ġwastewater":13376,"consumer":13377,"Ġspirits":13378,"Ġcorrectly":13379,"carbon":13380,"Ġobservations":13381,"Ġdisplayed":13382,"Ġigg":13383,"Ġcbd":13384,"Ġanonymous":13385,"Ġexplosive":13386,"................................":13387,"Ġcafes":13388,"Ġdowngraded":13389,"Ġlivelihoods":13390,"Ġindefinitely":13391,"Ġparagrap":13392,"Ġdouglas":13393,"growth":13394,"Ġmonoclon":13395,"150":13396,"Ġtamp":13397,"Ġaston":13398,"inity":13399,"rets":13400,"reports":13401,"Ġcio":13402,"Ġcios":13403,"eron":13404,"Ġfate":13405,"Ġinactiv":13406,"Ġhd":13407,"aser":13408,"Ġeighth":13409,"Ġnos":13410,"Ġnpr":13411,"iran":13412,"imen":13413,"Ġconval":13414,"Ġrick":13415,"Ġranges":13416,"Ġalar":13417,"Ġalbert":13418,"opening":13419,"threat":13420,"Ġorchestr":13421,"Ġincar":13422,"Ġincom":13423,"Ġspac":13424,"Ġplung":13425,"izu":13426,"Ġamzn":13427,"Ġwheels":13428,"okes":13429,"Ġoverlook":13430,"Ġmanila":13431,"Ġpoison":13432,"Ġadditions":13433,"Ġendor":13434,"Ġdepot":13435,"cloud":13436,"Ġ144":13437,"isma":13438,"Ġclearance":13439,"Ġwalt":13440,"science":13441,"Ġresponders":13442,"Ġredund":13443,"Ġconnects":13444,"Ġintegral":13445,"Ġ1996":13446,"Ġrecognizing":13447,"gae":13448,"Ġrachel":13449,"Ġwriters":13450,"Ġqualitative":13451,"Ġcaptain":13452,"Ġexamination":13453,"ĠØ§ÙĦØ¹":13454,"Ġtriggering":13455,"Ġflew":13456,"Ġissuers":13457,"Ġcouples":13458,"belt":13459,"Ġcompromised":13460,"Ġcpi":13461,"Ġtissues":13462,"viol":13463,"Ġsurprisingly":13464,"Ġrepayment":13465,"Ġbattling":13466,"Ġjamie":13467,"Ġwebinars":13468,"Ġrefunds":13469,"Ġconcepts":13470,"Ġdisparities":13471,"washington":13472,"Ġpessim":13473,"Ġxinjiang":13474,"Ġiag":13475,"Ġnitrogen":13476,"Ġhelicop":13477,"Ġmonoclonal":13478,"%;":13479,"hill":13480,"matic":13481,"oen":13482,"rac":13483,"uz":13484,"uar":13485,"vy":13486,"è¿":13487,"heastern":13488,"Ġss":13489,"Ġcot":13490,"atÃ³":13491,"attered":13492,"Ġpb":13493,"esh":13494,"Ġbjp":13495,"alis":13496,"ioned":13497,"Ġlately":13498,"Ġnun":13499,"stic":13500,"iras":13501,"igated":13502,"Ġrf":13503,"Ġunpaid":13504,"Ġshout":13505,"Ġmarriott":13506,"Ġspill":13507,"Ġkab":13508,"Ġnewmont":13509,"Ġcorrid":13510,"Ġsoy":13511,"Ġsoviet":13512,"Ġafloat":13513,"Ġroots":13514,"Ġstrat":13515,"Ġmedit":13516,"needed":13517,"Ġ03":13518,"Ġeua":13519,"Ġhomeowners":13520,"Ġreadily":13521,"Ġpotato":13522,"Ġ134":13523,"Ġ141":13524,"Ġ149":13525,"Ġbarred":13526,"Ġcredibility":13527,"Ġstef":13528,"Ġmusicians":13529,"Ġsegreg":13530,"Ġautomate":13531,"Ġautomatic":13532,"Ġorigins":13533,"Ġharness":13534,"micro":13535,"Ġrevision":13536,"Ġspacecraft":13537,"Ġturbul":13538,"Ġmitchell":13539,"Ġlacking":13540,"Ġanticipation":13541,"Ġpathogen":13542,"Ø§ØŃ":13543,"Ġpaint":13544,"helor":13545,"Ġwelcoming":13546,"Ġobtaining":13547,"Ġcreators":13548,"ĠÐ²":13549,"Ġexporting":13550,"Ġarchitectural":13551,"Ġlanguages":13552,"Ġtheatres":13553,"Ġniche":13554,"Ġshrinking":13555,"buy":13556,"Ġbonuses":13557,"patitis":13558,"Ġsadly":13559,"Ġworsened":13560,"Ġrushed":13561,"Ġweaknesses":13562,"Ġadapting":13563,"Ġenthusi":13564,"Ġencounter":13565,"Ġfertil":13566,"Ġkerry":13567,"Ġdiscontinued":13568,"Ġgraduates":13569,"Ġbiodiversity":13570,"Ġtobacco":13571,"Ġcongestion":13572,"Ġinflows":13573,"/?":13574,"kl":13575,"lived":13576,"rina":13577,"sider":13578,"tte":13579,"vised":13580,"âĳ":13581,"ĠÙĩ":13582,"Ġtencent":13583,"Ġaaron":13584,"Ġpt":13585,"Ġfiber":13586,"Ġhans":13587,"asi":13588,"Ġlav":13589,"Ġnights":13590,"Ġonu":13591,"stan":13592,"Ġrah":13593,"amaz":13594,"Ġcole":13595,"001":13596,"antas":13597,"Ġdecisive":13598,"itement":13599,"Ġcasino":13600,"assed":13601,"Ġ785":13602,"Ġpublications":13603,"Ġprototyp":13604,"Ġ1964":13605,"aze":13606,"Ġapproached":13607,"Ġmyth":13608,"Ġrefined":13609,"Ġwarp":13610,"Ġesc":13611,"ahu":13612,"Ġidentifies":13613,"ienced":13614,"Ġquicker":13615,"Ġnetworking":13616,"Ġprogressing":13617,"Ġdenver":13618,"Ġquarantines":13619,"Ġnightm":13620,"Ġtransformed":13621,"Ġappealing":13622,"Ġhurdles":13623,"Ġcivilian":13624,"Ġreinvent":13625,"Ġperfectly":13626,"reportlinker":13627,"Ġfloods":13628,"Ġjewish":13629,"Ġwarrants":13630,"Ġintensity":13631,"Ġsdrs":13632,"00000000":13633,"Ġinevitably":13634,"Ġalpha":13635,"Ġandrea":13636,"Ġdeprived":13637,"Ġpioneer":13638,"Ġhotspots":13639,"ogenicity":13640,"Ġmirror":13641,"Ġinhabit":13642,"Ġpatel":13643,"fg":13644,"gow":13645,"his":13646,"hard":13647,"och":13648,"pack":13649,"sign":13650,"tour":13651,"ym":13652,"zman":13653,"inction":13654,"Ġcake":13655,"esy":13656,"Ġfare":13657,"Ġbuc":13658,"Ġbatch":13659,"Ġtouted":13660,"icter":13661,"Ġlend":13662,"Ġlets":13663,"Ġthrowing":13664,"enter":13665,"user":13666,"Ġgps":13667,"Ġstamp":13668,"Ġstreak":13669,"Ġont":13670,"story":13671,"Ġrhod":13672,"Ġexams":13673,"qual":13674,"ocial":13675,"Ġuni":13676,"Ġunaccept":13677,"Ġcoat":13678,"Ġorg":13679,"ported":13680,"loved":13681,"Ġkremlin":13682,"Ġioc":13683,"Ġenzy":13684,"Ġmead":13685,"Ġemma":13686,"Ġpartisan":13687,"Ġstranded":13688,"Ġstricter":13689,"Ġbrunt":13690,"Ġpools":13691,"Ġassured":13692,"Ġfright":13693,"iane":13694,"Ġundergoing":13695,"ologies":13696,"Ġdesert":13697,"Ġflock":13698,"Ġattitudes":13699,"pson":13700,"Ġ156":13701,"Ġtermination":13702,"Ġbasin":13703,"ceptions":13704,"ierra":13705,"Ġjohan":13706,"insights":13707,"Ġdrugmaker":13708,"Ġreleasing":13709,"Ġdawn":13710,"Ġoldest":13711,"Ġtelemedicine":13712,"Ġauditor":13713,"ĠĠĠĠĠĠĠĠĠ":13714,"Ġundou":13715,"Ġcollaborating":13716,"Ġradar":13717,"Ġjudges":13718,"Ġicon":13719,"Ġdangers":13720,"Ġepidemics":13721,"Ġpalace":13722,"Ġhaul":13723,"opsy":13724,"Ġswept":13725,"Ġhearts":13726,"Ġmergers":13727,"reported":13728,"Ġpitches":13729,"ĠÃ©t":13730,"Ġazar":13731,"glomer":13732,"Ġbroadcasting":13733,"Ġeliminating":13734,"Ġhelm":13735,"Ġhesitant":13736,"Ġselloff":13737,"Ġhsbc":13738,"Ġdisturbing":13739,"children":13740,"Ġcambod":13741,"Ġdetainees":13742,"Ġdatalayernews":13743,"Ġmozamb":13744,"chemical":13745,"Ġrhetoric":13746,"Ġbenjamin":13747,"750":13748,"dated":13749,"missions":13750,"pur":13751,"wage":13752,"Ġtighter":13753,"Ġsends":13754,"Ġsoda":13755,"Ġsotheby":13756,"Ġoms":13757,"Ġpog":13758,"Ġfren":13759,"Ġmans":13760,"educ":13761,"rov":13762,"Ġreyn":13763,"Ġlod":13764,"Ġloud":13765,"idy":13766,"Ġstating":13767,"oting":13768,
[...]
